#version: 0.2
Ġ t
h e
Ġ a
i n
č Ċ
Ġt he
Ġ o
r e
Ġ w
Ġ s
n d
e r
h a
e d
o u
e n
Ġ b
Ġ m
Ġo f
Ġ f
Ġ c
o n
Ġa nd
in g
i t
e s
o r
i s
a r
Ġ d
a s
Ġt o
a n
l l
a t
Ġ in
Ġ p
â Ģ
Ġ l
Ġ n
Ġ h
o m
i c
Ġ I
Ġ ha
l y
l e
ha t
s t
g h
a l
o w
Ġb e
Ġ g
l d
o t
Ġ e
s e
Ġ he
Ġw as
u t
Ġt h
en t
i m
a c
v e
i d
Ġt hat
i on
Ġ re
u r
Ġha d
Ġo n
Ġw h
Ġs t
v er
e t
Ġ Ġ
ĠĠ čĊ
gh t
Ġ u
âĢ Ļ
Ġ it
it h
e re
r o
a d
a m
c e
âĢ Ķ
Ġ T
r i
i r
Ġf or
t er
Ġw ith
Ġa s
Ġa n
a y
t he
e c
es s
a in
ou s
t h
ou ld
Ġh is
Ġn ot
i ght
a ll
Ġa t
Ġm y
o re
r om
ic h
a nd
Ġs e
g e
u l
k e
i l
c h
i ll
Ġ A
Ġ v
ĠT he
e m
b le
Ġwh ich
om e
Ġf rom
o d
Ġ y
o l
Ġ r
i f
Ġs u
ar d
q u
Ġm e
Ġw ere
Ġb ut
ou nd
t ed
u m
re d
k n
in d
r a
Ġu n
Ġ S
ou gh
p p
at ion
e l
re s
Ġw he
es t
Ġ H
Ġb y
Ġo r
l o
e ar
is t
u s
ou r
Ġs p
as t
Ġa ll
Ġe x
Ġ W
Ġa b
u n
Ġc on
e ll
ow n
an t
u st
er s
he r
ou t
t o
Ġ C
Ġh im
Ġd e
Ġ M
o se
Ġs o
Ġa l
on e
Ġha ve
ha n
ac e
i g
on g
Ġn o
e w
p t
it y
Ġc ould
at e
c t
Ġu p
Ġ .
Ġo ut
v en
ing s
o s
a g
Ġ kn
o k
Ġm an
Ġs h
i ve
o st
Ġth is
Ġs a
ac k
Ġthe y
he d
Ġl e
Ġ is
id e
ver y
r an
re at
i ous
Ġp l
Ġw e
Ġ B
a k
am e
âĢ ľ
Ġs ome
Ġon e
Ġd o
i es
ec t
a b
c k
Ġbe en
e p
u re
ere d
l f
o nd
Ġw ould
Ġ O
Ġl i
Ġwhe n
Ġthe re
h ing
u d
all y
Ġw or
or t
n t
Ġ ro
a ble
o f
the r
r y
a re
Ġn e
Ġy ou
o p
Ġwh o
l i
ĠI t
Ġa r
Ġw hat
Ġm ore
f ter
it e
Ġthe ir
l ed
Ġb l
ar t
er t
Ġl o
v ed
âĢ Ŀ
Ġ D
Ġ qu
Ġ P
Ġthe m
a p
f ore
Ġit s
Ġp ro
im e
Ġ N
Ġa g
T he
Ġs c
as s
Ġ im
Ġse em
Ġan y
Ġd is
at h
Ġ G
ou ght
p l
w ay
Ġc l
Ġo ld
ion s
Ġab out
Ġd id
is h
ĠH e
Ġg r
Ġc om
ur n
Ġin to
a ge
Ġo ver
en ce
Ġs ha
ar k
Ġn ow
w ard
Ġth r
c c
Ġon ly
o od
Ġ _
Ġt han
Ġm ad
o g
w n
m ent
in e
Ġt ime
p er
s ed
Ġbe fore
Ġt r
at ed
Ġ very
f f
Ġg reat
Ġs he
re am
a ke
Ġ E
Ġa fter
l ess
an ce
Ġ j
Ġd es
Ġseem ed
u e
Ġf e
a u
Ġb r
Ġ F
Ġ L
n ess
v ing
Ġa m
Ġe ven
o ld
ic k
b e
Ġo ther
Ġthr ough
se lf
Ġg l
Ġwhe re
at er
c i
o ve
f t
Ġli ke
Ġn ight
Ġm ust
Ġ en
h i
s p
it t
ou nt
Ġsa w
Ġ R
e nd
ic al
om et
Ġd own
t s
en s
Ġh or
ic e
Ġth ose
f or
Ġl ong
ig n
v es
u ll
l ing
Ġ if
s c
f ul
ran ge
Ġt w
Ġkn ow
a red
Ġp er
Ġf l
Ġf ound
in k
p h
ou se
e x
r u
Ġth ings
ert ain
Ġag ain
Ġe ar
ri ght
i ed
i ble
Ġo b
Ġc ame
Ġa re
Ġth ough
Ġc ur
p s
ar y
Ġa pp
o ll
i al
u ch
h is
Ġ âĢľ
Ġhe r
Ġ J
d d
l es
Ġm ight
re e
r or
i re
Ġse e
Ġfor m
he n
Ġc an
Ġf ar
Ġre c
nd er
Ġp r
ha r
Ġre m
en ed
i le
Ġs l
Ġd ay
ĠI n
m an
or y
Ġh ow
Ġp o
w h
Ġo ur
ot her
Ġd ist
d e
Ġp re
m ost
Ġbe c
ot h
b er
Ġw ind
a ve
g an
Ġb ack
Ġb o
ir st
al k
os s
or n
Ġm en
Ġmad e
Ġt er
res s
Ġup on
i ly
g ed
Ġsu ch
Ġm o
Ġl ight
Ġth ing
Ġ 1
t hat
y s
ac t
p e
Ġs m
Ġst range
c on
Ġp e
ear s
ation s
Ġ k
or d
if e
i an
i ld
Ġlo ok
Ġp art
is e
p le
Ġs omet
Ġd ream
i z
n e
at her
Ġwh ose
Ġst ill
n g
Ġth ought
Ġne ver
Ġim p
at ter
Ġm uch
Ġs in
an c
Ġof f
ul t
Ġg re
el t
Ġthe se
ac h
Ġc ertain
Ġ ke
i e
in t
Ġs ec
ĠThe re
Ġpl ace
Ġkn ew
Ġf irst
Ġdo or
ar ter
Ġin c
a w
Ġl ast
Ġha nd
Ġw ay
Ġc ome
Ġto o
u res
Ġc h
ent ly
Ġe v
y ond
Ġc lo
he s
Ġe y
ĠA nd
Ġcon t
Ġwor ld
Ġat t
i gh
Ġn or
ri ble
Ġo p
e ver
i v
Ġw ill
Ġh ouse
Ġm on
t e
Ġ Y
um an
Ġon ce
Ġbl ack
n ot
g r
u b
ow s
Ġc r
Ġin t
Ġc ar
itt le
g g
Ġa cc
s ide
is ed
Ġu s
Ġm ost
a il
od y
Ġman y
is hed
ar s
Ġu nder
m b
Ġs ur
ain ed
au se
Ġg o
ic t
Ġtw o
w as
Ġw ell
Ġe very
Ġv is
re t
Ġ ent
Ġt ri
Ġd ark
Ġro om
a v
Ġthe n
Ġ K
Ġa d
f in
st r
Ġn ear
a ir
Ġn ew
j ect
Ġex p
b r
Ġbe yond
w e
Ġse en
Ġhe ard
n ed
Ġre p
u al
Ġha lf
Ġd ec
Ġto ld
c hed
t ing
ha d
ab ly
re ad
Ġsa id
ul ar
Ġle ft
Ġe ver
ent s
Ġear th
b ut
en e
Ġe nd
Ġre al
Ġal most
as e
ec ted
Ġy et
th ing
Ġsu b
Ġf elt
b ed
c ed
ĠO n
ci ent
Ġf lo
ro s
am p
ĠB ut
on s
Ġg u
urn ed
or s
ĠThe y
if f
Ġa way
an g
Ġl ittle
ĠS t
Ġey es
im es
Ġl ife
w ith
he re
Ġsomet hing
a pp
m y
Ġc han
it ion
Ġp ass
Ġa c
our s
Ġs ound
Ġg et
i p
at t
d en
Ġo wn
m on
Ġw all
Ġre s
Ġsin ce
Ġp res
Ġhor ror
ĠThe n
ac es
Ġy ears
Ġre t
n ing
ou th
Ġbe gan
Ġw r
Ġwor k
li ke
re et
Ġto ward
Ġwh ile
er ing
Ġm ind
Ġc ha
Ġs ay
kn own
i ar
en se
way s
ĠA s
ĠC arter
ak ing
it ies
Ġhe ad
Ġre g
in ed
ain t
Ġs k
Ġt ell
Ġc a
Ġc o
Ġcur ious
e k
ot t
l and
Ġv o
ou b
Ġc ity
er v
Ġm om
Ġha r
Ġar ound
Ġdis c
Ġs et
um b
Ġl et
l ight
s o
Ġth ink
ow ed
Ġj ust
at ing
Ġh uman
g in
Ġst one
i x
Ġa ct
a z
op le
Ġnot hing
or m
Ġsm all
Ġc all
n s
Ġwith out
pp ed
Ġc our
Ġop en
t y
ou l
Ġl and
li e
I t
ing ly
Ġha s
Ġf ace
ide ous
c ri
if ic
ou d
Ġc le
Ġkn own
on es
Ġs w
Ġp h
Ġst e
Ġan cient
o ck
Ġd et
el ess
Ġh ill
c l
Ġp oss
ac hed
Ġa w
Ġst r
wh ich
Ġf right
un g
i b
Ġf ear
Ġh igh
Ġbe t
Ġre ad
Ġmom ent
a le
o b
Ġn at
ĠA t
Ġmo on
m er
in s
Ġb u
Ġw a
qu e
ra g
Ġf ind
. âĢĿ
p ed
ut ter
it s
Ġp ers
u p
en er
g et
it ed
ra ve
e y
Ġo cc
Ġk ind
Ġl ess
Ġhe re
Ġv i
Ġpl an
m e
Ġf ew
ĠT h
c om
r on
Ġre st
ull y
Ġl ow
Ġw ond
Ġs le
Ġs il
Ġc or
it her
Ġl ater
he ad
ĠT his
ros s
h ind
re n
ha ps
ver s
Ġde ep
ount ain
Ġin de
i a
Ġh ideous
Ġsp ec
Ġm ay
y ing
Ġb ody
Ġf am
ce pt
Ġun known
er y
Ġf o
ĠW hat
en g
Ġst ud
s u
Ġm ake
Ġbe ing
Ġse a
Ġsu n
Ġf in
kn ess
Ġsp e
od s
en c
Ġm et
at ch
Ġto ok
Ġth ree
Ġt re
p r
Ġs ight
Ġex t
Ġab ove
m ed
Ġ V
Ġan other
Ġhim self
u ally
Ġb ur
Ġpe ople
n o
Ġc ent
sc ious
Ġbec ause
al s
Ġclo se
n er
Ġw ent
ĠA r
Ġso on
Ġal ways
ag ue
ow ing
Ġde ad
Ġd el
im p
Ġagain st
Ġcom p
Ġc ol
Ġl ar
ag es
Ġter rible
Ġlook ed
Ġf oll
an e
Ġen ough
Ġc ry
ct ion
Ġm ar
Ġre l
Ġde p
Ġam ong
Ġinde ed
ĠT hat
Ġcour se
o ke
Ġb ro
us ed
id ed
Ġfe et
s h
Ġt alk
Ġflo or
c le
ol og
ar r
Ġin v
Ġl ay
Ġo dd
Ġin st
Ġre f
ra w
Ġb lo
Ġm em
as h
Ġin ter
ve l
e le
Ġshe w
Ġbe hind
Ġmy self
Ġ ri
Ġ es
Ġs ing
Ġd a
Ġbe l
Ġt ill
ut e
ar ing
as on
Ġe m
d er
Ġs ign
Ġd oub
str ous
e ared
Ġqu e
Ġbr ought
Ġwho le
Ġhe l
Ġc are
Ġv ast
ĠD r
Ġs ame
Ġp ast
ur ing
w hat
Ġ U
id ent
Ġde ath
ac ed
ud e
ar ch
Ġex pl
ment s
ent ion
Ġyou ng
in ess
ate ly
Ġob ject
u red
Ġm atter
m s
Ġ right
Ġs n
Ġb oth
an k
Ġg ave
Ġe ff
c ent
Ġin d
Ġdream s
o ver
as ed
ious ly
Ġbe lie
ove red
i ent
w ere
Ġa ir
Ġf ore
Ġsp ace
an s
Ġe l
dd en
Ġque er
r ic
re w
Ġw ild
is s
d s
in ation
b id
s ome
ur al
ad e
ak en
fin ite
f rom
m it
Ġs ort
Ġg ood
ri end
Ġke ep
Ġf ur
Ġwh is
Ġne ed
Ġsle ep
p ro
ha m
Ġc hi
Ġsha d
in es
Ġs ide
c hes
ĠW ard
Ġout side
Ġcle ar
b y
ter n
f l
orn ing
in ts
Ġmy st
ĠW e
Ġde v
u g
Ġs qu
al ity
ol k
Ġcon s
Ġar t
ĠF or
c lo
Ġt urned
ous ly
ant s
Ġbec ame
k en
Ġto wn
th s
ĠA ll
Ġsu dden
ĠH is
ĠW hen
Ġsha ll
Ġ Z
Ġp ur
id es
it ing
ic ally
Ġwind ow
Ġd iff
ri f
Ġab s
Ġday s
Ġhow ever
Ġlar ge
I n
k ed
ĠM r
Ġbo ok
Ġwall s
Ġt ake
Ġd ire
Ġv ague
i et
Ġqu est
Ġsk y
Ġt ran
an y
at s
Ġex c
ell ow
Ġsh ould
Ġfe el
Ġe le
Ġst ru
Ġsu pp
Ġal ong
h or
at ive
i en
w here
Ġm ountain
ow er
ri ed
ter s
Ġv ill
ĠM y
Ġle ad
Ġad v
Ġw ood
Ġw alk
Ġwith in
are nt
Ġqu ite
Ġn am
Ġt em
he m
Ġs ens
* *
a id
Ġd im
Ġtri ed
i er
Ġs y
ist s
Ġ gh
Ġhe ld
Ġit self
ress ion
g ing
Ġf aint
ll y
Ġan t
th ough
Ġro ck
Ġmon strous
e f
Ġm ere
Ġu se
x t
Ġw ater
Ġg one
b l
d is
y l
Ġh ome
Ġg ener
op e
le t
Ġg i
Ġal one
B ut
Ġpl ain
Ġs er
is ter
ic ed
Ġs ent
Ġf ull
Ġsec ond
ene ath
r al
u se
Ġt ra
Ġt ry
Ġl ear
o ok
or ies
Ġy our
ep s
Ġm orning
Ġf riend
as p
Ġwho lly
Ġother s
m al
in ct
Ġc ir
Ġre ached
Ġwh ite
au ght
r id
Ġm ot
ec ul
Ġsu gg
Ġvo ice
f e
t en
Ġe ach
ill ed
Ġex per
Ġhar d
c ha
c ould
u nd
Ġw ar
Ġc oll
Ġg ot
in ted
Ġy e
k ing
ere st
hi p
Ġcont in
en ing
Ġin s
ic es
ge nd
. _
H e
Ġc har
! âĢĿ
, _
h y
p ite
u ff
ir d
ck ed
ĠN o
for m
w or
ĠW ill
Ġpo int
Ġac ross
d o
f ully
Ġs ol
ot e
Ġcon f
Ġim ag
Ġany thing
ou n
id st
Ġdoub t
i red
im al
d u
e v
g s
ver al
Ġgre w
ie ld
i ver
r ing
Ġp ict
al t
ĠA n
Ġr u
Ġsu m
Ġ1 9
A s
Ġf all
m en
Ġ ir
is ing
Ġha pp
et t
g er
ur w
Ġro ad
ys s
cri pt
ecul iar
l ves
Ġ utter
il iar
Ġev il
urw en
i ved
p es
Ġb eneath
Ġm in
Ġn ame
Ġcon scious
Ġne xt
Ġgre y
c ap
on a
ay ed
Ġposs ible
Ġs ense
u es
Ġf ig
is ted
Ġd r
Ġha ving
the re
il ed
Ġper haps
Ġbel ow
a ut
Ġto w
al es
Ġst ood
Ġr ather
ant ic
Ġc ase
Ġd ri
Ġg old
ct or
l t
p re
Ġp ol
Ġst reet
res h
Ġcon n
Ġle ast
d ay
n ight
Ġp ut
Ġsu re
Ġrec all
Ġwind ows
p ort
ar ce
ce nd
Ġhand s
Ġm ark
Ġf r
Ġc re
is m
ĠSt reet
Ġd one
Ġgr ound
Ġke pt
e ad
The re
Ġcl oud
Ġ ed
Ġw at
the y
Ġv ar
The n
d es
Ġd ro
em on
ard ed
Ġhor rible
f ace
i ally
Ġle gend
we en
e or
Ġa ff
Ġf olk
Ġc reat
al ed
Ġse veral
Ġnor th
Ġb us
ar ted
ĠO ld
Ġsc ream
ĠJ o
n ce
Ġ ill
Ġn one
Ġsomet imes
Ġbu ild
w ell
Ġa ge
Ġa dd
ut ion
Ġu sed
em ent
Ġcl im
og n
har les
Ġrem em
er n
Ġb ar
Ġhe av
ce ed
ch o
Ġun c
Ġro se
Ġag o
Ġvi ew
Ġchi ld
h o
m in
Ġc old
Ġc ount
Ġd read
Ġh ours
id ence
Ġas s
Ġcall ed
c o
t ered
u nder
Ġ ve
Ġp ri
Ġp ap
ĠI nd
le y
Ġcom ple
Ġen c
air s
Ġtran s
u ed
Ġ âĢĻ
Ġt imes
Ġf our
is on
Ġn arr
lo ok
Ġal ien
Ġrec ord
anc y
Ġsec ret
Ġret urn
Ġt urn
Ġp eculiar
Ġl ab
ak ed
Ġyou th
Ġdist ant
b ably
c al
Ġg ods
Ġu nd
Ġsa ve
Ġpro f
Ġapp eared
k ham
Ġa p
it ch
Ġl ost
ot es
se t
ur b
Ġgl ass
Ġter ror
Ġgre en
Ġhel p
h ow
ou ch
ar kness
Ġd on
ud d
sp ect
Ġpres ent
c es
i ence
Ġb as
Ġab yss
ĠC urwen
Ġsh ock
omet hing
Ġgh oul
Ġ (
Ġt aken
en ess
Ġwh y
ain ing
ul f
ĠOn es
Ġph ys
Ġd i
at ure
ur ch
get her
h im
s y
Ġt or
Ġm ag
ĠO f
Ġapp ro
Ġsl ow
h ouse
as ter
Ġint erest
Ġnam eless
r ough
Ġa ut
as ion
ous es
ĠA fter
Ġsp oke
Ġli ving
Ġsugg est
g l
i ves
n orm
Ġa head
Ġd uring
om an
Ġhe ar
res sed
Ġbo y
ĠY ou
Ġpers on
0 0
Ġbet ter
Ġcir c
s w
Ġof ten
Ġl ed
ol ved
gr ound
g es
s er
Ġc he
Ġst and
us hed
han t
ĠN ew
itt en
Ġc ond
Ġst eps
Ġdes pite
ĠWill ett
a ving
c ted
ou red
Ġc e
it ive
it ude
Ġy ear
ater ial
u ght
ain s
ra ft
Ġun t
Ġpl aces
Ġwe ek
ĠG reat
anc es
Ġhill s
Ġfam ily
z e
ra ph
os ed
Ġwor ds
ex t
Ġfright ful
Ġwond er
a h
p an
w hen
Ġf ell
Ġf ather
h uman
re m
Ġf re
Ġe as
ĠS o
us ion
ĠC harles
ne y
umb ling
ib ly
Ġel se
b ody
Ġp ar
Ġl ist
Ġg ive
ur y
ĠS he
ĠW est
ant ly
ron t
Ġes cap
b s
m outh
w ould
Ġs oul
Ġf resh
Ġc ast
on y
Ġg rave
ur red
led ge
ĠP ro
Ġvis it
Ġfo ot
Ġshew ed
a x
v o
im ens
Ġmem ory
Ġvill age
l ic
Ġ 2
Ġs lo
as es
Ġl ine
Ġwh om
ec h
pl ace
A nd
Ġ ver
Ġb es
Ġh old
Ġhe ll
Ġr an
ast ic
ott en
p o
p ect
re g
Ġs at
Ġm or
Ġp ort
Ġp ower
Ġha ll
Ġre ally
et s
all ey
Ġcon c
Ġchan ge
Ġpass ed
Ġbet ween
Ġspe ak
Ġa ble
it ions
Ġro of
Ġpre v
Ġwhis p
p ec
s he
Ġt en
se lves
id den
Ġnot iced
ard s
os m
ĠO ne
end ed
Ġfoll owed
Ġp an
ve lo
em ed
Ġsh ri
Ġshad ow
c ur
s ion
z z
Ġm od
id er
Ġre d
Ġdis app
Ġeven ing
anc ed
enc es
Ġsing ular
, âĢĿ
s ha
Ġt able
in ing
at ic
Ġn ec
Ġh o
ent ed
ere nt
pp ing
Ġear ly
Ġsl ight
b our
Ġd arkness
Ġst o
am b
Ġsin ister
Ġste ep
no on
Ġmere ly
l ine
p ri
s ing
Ġf ive
Ġl im
ld er
th is
Ġme an
Ġex ist
Ġsh ort
Ġdist ance
Ġlear ned
Ġw ish
ha st
st er
se en
Ġst art
il t
Ġdo ctor
Ġblo od
Ġf act
at es
Ġre ve
Ġst ate
ĠS ome
Ġsp ect
W hen
y r
Ġs im
er c
om ed
Ġst ars
Ġfor g
Ġv an
Ġam idst
Ġtre es
Ġref le
Ġri ver
Ġant i
Ġheav y
Ġt ales
Ġw ide
Ġs on
Ġth in
ck s
Ġpre p
Ġsudden ly
Ġnarr ow
a un
a fter
e ven
t r
Ġo d
Ġb od
Ġd am
Ġl ate
ĠI f
Ġbe ings
il st
Ġor gan
ĠC l
Ġcom m
Ġreg ion
Ġfam iliar
eng th
a pt
Ġ ide
re l
Ġm ist
ĠT o
and s
il es
Ġr un
if ied
Ġsp ot
ĠN ow
pl ic
Ġcan not
Ġnear ly
Ġnat ure
otes que
a ly
in c
Ġo ri
ri es
Ġsu per
ak s
ab out
ail ed
Ġgu ess
Ġstr ong
Ġfin ally
A t
a ff
re st
Ġw atch
Ġp rom
ke ley
Ġpo or
ix ed
Ġcry pt
a ven
c raft
Ġm ed
Ġm id
Ġf ree
em pt
um ber
hi le
Ġsound s
B y
re c
st and
ce ived
il ity
ĠW ith
ell ed
ĠG eor
iz e
ars h
ĠAr kham
Ġb ri
Ġb ott
Ġc ut
Ġp at
Ġcom mon
Ġnight m
Ġwond ered
i us
as k
Ġp le
Ġh y
ra b
pp er
Ġim m
Ġgreat er
Ġrec ogn
? âĢĿ
a wn
o y
s m
ent al
im ate
ion ed
Ġre ason
ect ion
Ġlong er
Ġfar m
Ġ1 8
f ort
n el
u ck
er ted
ha ve
Ġb re
Ġh our
ut h
Ġth ick
Ġst ran
Ġcon st
wh o
Ġpart y
Ġeff ect
Ġgener al
Ġs erv
er m
Ġb ad
Ġb est
Ġf ac
an n
ac ona
am acona
the ir
us cript
Ġbl ue
ĠG od
Ġsur face
Ġgo ing
ns mouth
Ġori gin
g u
m i
v is
re ts
Ġm ess
Ġf rag
al th
Ġab norm
Ġsha r
Ġform ed
iz ed
iv id
g reat
z y
re nt
ha nd
Ġh ouses
ow ers
Ġal so
ian s
Ġinc l
Ġop ened
Ġacc ount
Ġc ell
on ed
ve ll
ro om
Ġsu sp
ag ed
Ġper i
br ary
Ġbook s
ou ble
Ġb reat
Ġf ire
Ġd ied
Ġin f
id ently
ver n
ay ing
ĠThe se
ol es
Ġle ave
Ġbr ain
T hat
h old
r own
y ou
Ġn erv
Ġwh ilst
ad ed
ter ing
ĠA l
Ġv a
li ed
Ġcom ing
Ġgi ven
m ore
Ġt y
ot s
Ġsp ir
Ġgl imp
Ġob sc
umb led
Ġcount ry
b it
Ġt it
on ic
Ġp a
Ġh idden
Ġbe gin
ul ous
il man
Ġapp arent
pec ially
e ed
se emed
th rough
if ul
ive ly
Ġgr otesque
be fore
Ġbec ome
Ġca pt
a ves
b ered
r s
u ge
w ind
Ġa e
Ġc osm
Ġl one
Ġre sp
og raph
Ġknow ledge
Ġdet ail
Ġocc asion
b ur
t ime
at ory
Ġl ength
ic s
Ġha st
Ġha un
se mb
ĠA keley
Ġal ive
Ġout er
less ly
aw s
att ered
Ġbelie ve
finite ly
Ġunt il
a e
g y
i ac
l ong
p it
v ol
Ġb ul
Ġm us
Ġm ass
Ġm ention
Ġto p
at he
at ures
Ġse arch
ĠB e
Ġqu iet
Ġinc re
Ġch urch
Ġc al
Ġc amp
Ġe ither
Ġre pe
ul pt
ĠA m
Ġr um
Ġwhe ther
Ġqu ick
Ġsc arce
Ġfe ver
con scious
d own
Ġc orn
Ġg ro
ent y
th ings
Ġy ellow
Ġex cept
Ġafter noon
Ġclo sed
Ġent ered
Ġfig ure
Ġo pp
nd on
Ġd ra
Ġl ur
Ġha ir
Ġe qu
Ġex am
ack s
Ġdes cri
Ġacc ur
Ġdec ided
Ġstud y
Ġfin al
Ġdire ction
Ġcomple te
Ġmor bid
u ous
Ġt rave
Ġa f
Ġs ix
Ġp ain
ir m
Ġor d
os ity
ĠB l
Ġmad ness
Ġbr ing
Ġvis ible
Ġset t
d ist
w hile
Ġs ought
Ġb orn
are ndon
Ġpass age
Ġcha ir
Ġmet al
Ġvar ious
O n
a i
e an
h n
in ary
Ġw ished
or ted
ar m
ro ll
Ġsc ene
Ġform s
ĠIn nsmouth
ub lic
ang u
Ġshar p
i or
Ġo ught
Ġb ore
Ġm ove
Ġc ult
st ance
ac c
est s
os ition
Ġtr ace
con t
Ġconscious ness
w ise
Ġs our
is es
Ġh ost
Ġan sw
ess ion
il ight
Ġr ace
Ġbl asp
Ġpro bably
Ġnor mal
Ġpict ure
Ġshri ek
p ar
Ġm aterial
Ġf ant
Ġc raw
Ġh ope
om in
Ġhe ight
ul ts
Ġr ad
Ġsu ff
um p
Ġbo x
az ed
Ġvi ol
Ġdiff erent
Ġnightm are
i vers
t w
er ous
Ġf le
Ġf ront
Ġd est
ac kness
Ġst ory
the m
ill s
Ġor der
Ġtr ue
ĠL ove
Ġsil ent
Ġru ins
Ġforg otten
Ġm ound
ad d
Ġfor ce
Ġhis t
Ġr a
Ġcon v
Ġgl ad
Ġreal ised
ĠZ amacona
Ġslow ly
ĠLove craft
c ome
n at
Ġb ed
Ġto mb
ur bed
Ġle vel
Ġthem selves
be en
Ġapp ear
Ġ1 7
b el
u zz
v i
in ce
Ġf ut
Ġf ears
Ġf ully
Ġf ield
Ġl ive
Ġbe aut
Ġg ulf
Ġas pect
ĠM arsh
ok ed
ĠG ilman
ĠE ng
Ġfl ight
ĠJ ones
Ġke y
Ġret urned
Ġda emon
Ġlegend s
b ly
f ect
n ow
n am
o c
s ur
u ct
Ġt ouch
he ld
Ġf an
Ġd ust
Ġst arted
Ġli ved
Ġar ch
ĠN or
ĠN ot
Ġdes cend
Ġob v
Ġmo ved
Ġevery thing
b ec
c her
r ound
s es
Ġh ig
ac hing
Ġfor th
est ig
us h
ex p
Ġcurious ly
Ġele ct
Ġhell ish
k ind
s omething
Ġw ife
Ġd rew
âĢ ĺ
Ġh op
ess ed
Ġso ft
Ġne igh
Ġinc red
Ġatt empt
Ġpres ence
ob ert
Ġocc urred
Ġda wn
Ġhapp ened
Ġbuild ing
look ing
M y
e ge
r it
Ġm erc
Ġf ly
Ġc at
Ġu pper
Ġv ol
ol s
res p
Ġcon ce
Ġpro du
Ġdid n
Ġpart s
Ġtor ch
I I
a f
a im
c an
i ven
k y
p res
Ġs outh
Ġb it
Ġc ities
Ġc overed
as c
Ġv ict
of f
Ġsc ient
ĠL ake
Ġform er
Ġrem ained
Ġact ual
Ġdire ct
Ġscarce ly
g un
i ke
Ġc ases
es ted
is hing
Ġst re
ce an
Ġas ked
ol ph
Ġr ound
Ġli brary
Ġbl ackness
Ġgr ow
Ġsha pe
att le
Ġspe ech
Ġmountain s
use um
Ġstreet s
Ġremem ber
Ġbod ies
Ġperi od
i osity
p ose
v al
w ood
Ġ *
it able
ut tered
ack ed
ud ed
Ġdes ign
yl ind
Ġnerv ous
f ound
h ood
l ish
s l
s hip
Ġ est
re y
Ġs ize
is k
Ġh int
Ġe lder
Ġst ret
Ġfor bid
Ġde velo
Ġlo cal
Ġpr ot
Ġsec rets
Ġsur pr
Ġsub t
Ġhorror s
Ġtem ple
Ġghoul s
m ber
he ard
in ter
or atory
Ġl atter
ĠA b
Ġman uscript
Ġsome what
Ġdo gs
âĢĿ ,
Ġold er
itt ing
gin a
Ġnat ural
Ġdel i
olog ical
Ġstru ck
Ġlead ing
l er
Ġm al
st range
ot ic
Ġth ous
ac ing
Ġre ach
Ġsh ip
ick ed
Ġimp ort
ĠJo hn
o ot
Ġd w
Ġp ath
ow d
im ent
am s
ĠS e
Ġbl ind
Ġsc ulpt
Ġcl iff
Ġtr uth
Ġafter ward
Ġj o
Ġfe atures
Ġtw ilight
Ġfar ther
Ġlow er
Ġsil ence
med i
Ġsign s
Ġcontin ued
Ġescap e
b ing
m ist
Ġb ound
Ġm ir
ic ult
Ġst at
ro p
Ġr it
if t
qu ent
ĠM an
ak es
Ġdes ert
Ġbu ilt
Ġdev il
c ertain
m o
s ub
Ġs ac
Ġs we
Ġl angu
Ġst ones
ear th
ist ic
Ġey e
Ġsing le
Ġem pt
und red
Ġpap ers
Ġvan ished
Ġaccur sed
w r
re en
Ġw est
Ġs and
it er
Ġd ared
Ġan g
th ose
th ought
ill ing
od d
Ġme ans
Ġun cle
Ġdes erted
Ġfe ared
Ġen g
Ġrem ote
Ġdist inct
Ġexp ect
Ġcor rid
Ġspec imens
Ġtalk ed
Ġclear ly
Ġmyst er
Ġwalk ed
wor ld
Ġutter ly
Ġwhisp ered
Ġsto pped
Ġobsc ure
p se
p ted
Ġt ele
Ġw an
Ġhe art
ore d
il ing
ol ute
Ġsu cc
Ġme et
un e
ĠE ven
Ġpr imal
oss ible
Ġopen ing
Ġplan et
Ġconn ected
Ġide a
d ream
f ather
Ġb le
Ġm iss
Ġf if
Ġc ats
as hed
Ġh uge
Ġg lo
id ly
am es
ch ing
ast s
Ġman ner
Ġle an
Ġdo g
ĠO r
Ġgr ou
Ġtr ad
Ġtri p
Ġinst ant
Ġes pecially
Ġquest ion
Ġgold en
Ġod our
F or
S o
T h
Y ou
c ar
ou ra
Ġm ental
on ly
ar re
Ġp al
Ġh ur
ur d
Ġst ri
ĠW il
Ġne are
Ġim age
og ly
Ġfl ash
Ġdist urb
Ġexp ected
Ġbro od
Ġobject s
lt imate
i ps
k s
Ġm aking
or ous
Ġp ublic
Ġn umber
om s
Ġg ate
se c
and olph
Ġme ant
um ed
el s
ĠH ow
ĠM o
Ġsh ore
ran ce
ĠF rom
Ġent ire
Ġexp ression
Ġgu ard
az e
Ġcry st
Ġodd ly
Ġmot ion
ĠCl arendon
Ġsour ce
u ly
x ious
Ġm other
Ġc ave
Ġin ner
Ġbe gun
ra v
un nel
to gether
ost on
ud den
Ġdis p
Ġgr ad
urn ing
ru pt
Ġpe aks
ng th
Ġatt ention
Ġca used
Ġcreat ures
Ġbus iness
Ġnec ess
c est
re ed
Ġm ill
Ġf ash
at a
ur ies
ere nce
am a
ay s
Ġr id
ra id
Ġex act
Ġle ap
Ġcur iosity
Ġrep ort
Ġlet ters
Ġfright ened
Ġfoll owing
Ġfur ther
Ġmyst ery
Ġtry ing
Ġimag ination
Ġlab oratory
Ġcell ar
Ġvict im
i res
Ġ ident
Ġw and
Ġf ab
Ġp ull
Ġnot e
Ġr ust
Ġwhat ever
ĠD an
Ġpro ved
Ġgr ass
ĠR obert
ĠOn ce
Ġget ting
Ġbur st
Ġmar vell
fl u
Ġadd ed
Ġbes ide
Ġconc er
Ġabnorm al
Ġpa used
Ġblasp hem
f er
w all
Ġ âĢĶ
Ġf illed
Ġin side
Ġp it
Ġn on
om en
Ġsp read
un t
ag er
Ġseem s
Ġcl ot
Ġbr ick
iz arre
Ġsign ific
Ġfeel ing
Ġchar ac
Ġfr antic
Ġspir it
Ġfant astic
T his
b et
p ha
v ings
Ġ ice
Ġc ylind
Ġto gether
Ġl au
Ġl ink
ent h
ac les
Ġst ra
et h
et y
ir ty
Ġan cest
um n
ĠC h
ĠC y
Ġsh udd
og ers
Ġear s
anc ing
Ġchan ce
Ġlet ter
lie f
ĠWhat ele
Ġblo cks
Ġexper ience
Ġsol id
Ġtow er
Ġpol ice
Ġed ge
ceed ed
A r
g o
t han
Ġt e
Ġm outh
Ġf air
Ġf ellow
Ġd rag
Ġv ac
ose ph
Ġwor d
ress ions
Ġpart ic
Ġev idently
Ġcar ven
read y
so ci
Ġact ion
Ġwhis per
Ġhard ly
Ġcloud s
Ġwat ched
Ġtit an
Ġcosm ic
Ġdw elt
S t
e ys
l s
o very
u x
y ed
Ġw oman
Ġf urn
Ġf ancy
Ġc aught
Ġd em
Ġto t
Ġh undred
st one
ir t
the n
ec han
ous ed
Ġwe ird
Ġknow s
ink ing
Ġus ual
enc y
olog y
Ġprep ared
Ġple as
Ġcorn er
Ġstre ngth
p art
Ġ 3
Ġt all
Ġt ale
in ous
Ġo cean
Ġs li
Ġm um
Ġm ort
Ġd raw
Ġp ale
Ġp uzz
Ġh ier
Ġg en
Ġe mb
Ġth ro
ent le
Ġst ir
um e
ĠP er
ĠE d
Ġatt ic
ĠU n
Ġeff ort
mit ted
aught er
Ġpap er
Ġshock ing
ĠGeor gina
Ġapparent ly
. ,
W hat
c r
m ar
p ass
Ġ id
Ġt ree
er ved
Ġb aff
Ġb izarre
ar se
as y
Ġhe aven
Ġan im
Ġun seen
ĠH ill
Ġde g
Ġsh un
Ġle aving
ran k
ab b
Ġar cha
Ġpro p
wh ose
Ġthought s
ĠOn ly
Ġact ually
Ġcent re
Ġcent ury
Ġbro ken
ason ry
Ġsn ow
Ġsqu are
Ġdiff icult
wor k
do or
Ġphys ical
Ġbri ef
Ġbre ak
Ġva ult
Ġrad i
Ġscient ific
g ress
j ust
Ġf ing
ar n
Ġd en
st airs
ut es
id s
ig antic
Ġsa il
ĠD e
Ġpr im
ord ing
Ġimp ression
Ġcr owd
Ġaw ful
Ġwa ves
Ġcons ider
Ġce ased
Ġdam n
Ġbreat h
Ġtrave ll
Ġhig her
iven ess
b o
d id
m ight
u c
ou ched
Ġm ould
Ġm ine
ic ian
st em
Ġg le
Ġg hast
Ġse nd
Ġv ivid
kn ow
Ġun f
Ġdo es
Ġlo ve
Ġtr ouble
Ġdes per
Ġob t
Ġlook ing
Ġcertain ly
Ġunder stand
Ġwr itten
Ġclose ly
Ġvague ly
hy th
form ation
Ġtow ers
Ġslo pe
Ġforbid den
Ġhier ogly
C arter
Ġt ang
Ġt aking
Ġc ross
or ing
Ġg ard
Ġan imal
Ġnot es
Ġv al
qu ently
our se
ĠC apt
ĠB oston
ud ing
Ġne g
Ġar ri
The y
Ġfe e
end ous
Ġsee k
Ġrem ark
Ġpo ck
Ġint ell
Ġcar ried
ros sed
Ġhigh ly
Ġbelie ved
Ġfore st
Ġstru ct
Ġsy mb
Ġdro pped
cho ol
Ġquick ly
A ll
m ust
Ġc ap
is ation
Ġd well
Ġl an
Ġn er
Ġv alley
if y
ry ing
Ġpro c
Ġgr owing
Ġj ud
ick man
pe an
Ġvo ices
Ġste ad
Ġshad ows
clo pean
bl ack
Ġexist ence
Ġfrag ments
c ase
m ing
p ing
in to
en ch
st ead
ess or
Ġv ain
ĠS ir
ig ious
Ġqu arter
Ġqu ality
Ġsha pes
Ġlight s
ie ce
Ġsur v
Ġsub ject
Ġpur pose
Ġwood s
oun ted
Ġpict ures
Ġremem bered
Ġprof ound
Ġanti qu
Ġmess age
Ġae ons
Ġbeaut y
Ġelect ric
resp ond
mist ak
A fter
b ers
g one
t on
Ġ z
Ġ ign
ha ll
Ġm ach
ar l
Ġd ang
Ġp en
Ġh ung
om ic
Ġbe held
Ġe ight
Ġe tern
Ġst ro
Ġst ream
Ġst orm
Ġu ltimate
Ġv ent
Ġr ough
ell ing
ct ions
Ġsh ut
ab les
ĠIt s
Ġlo cked
âĢĿ .
Ġdis pl
Ġbr id
Ġgl ow
ount ered
ĠR andolph
for th
for med
ĠJ oseph
Ġdist urbed
Ġpre c
Ġacc om
ix t
Ġph ot
Ġcomp an
Ġcol our
Ġneed ed
iver se
alt on
Ġrecall ed
Ġrecogn ised
bel ie
c han
d le
Ġ &
re al
Ġw ant
Ġf aces
ar ily
Ġg igantic
Ġv ap
Ġr ain
qu est
ĠH ere
ĠW as
Ġde f
ep ing
per haps
Ġear li
Ġbur ied
Ġcare fully
dis c
Ġ19 2
Ġfall en
Ġve get
Ġmod ern
Ġstran g
nat ural
Ġfut ure
b es
n y
n al
r act
in y
re me
Ġm asonry
Ġc ause
Ġp ot
Ġp ost
Ġl ore
Ġg od
Ġe cho
ri bly
ĠH ad
Ġal though
Ġsa fe
ther n
pl es
Ġcl ut
ĠR e
Ġmon ths
Ġcar ved
Ġwa x
clo ck
Ġcreat ure
Ġhist ory
b u
g aun
Ġt ext
Ġt unnel
re p
Ġw har
Ġm ixed
Ġf ish
Ġp ill
st ru
al one
Ġe mer
Ġth under
Ġre vel
Ġre semb
Ġst ar
ol ution
ĠC om
Ġde finite
ĠM ar
Ġsome how
ĠP o
Ġim medi
Ġdisc overy
Ġread y
Ġcor pse
Ġsun set
Ġinv estig
rif ied
Ġincred ible
W e
i end
w ild
Ġb right
Ġm iles
Ġm useum
Ġc of
or ough
Ġl aid
le nd
ad ing
ri al
Ġas k
ĠThe ir
Ġun us
ct ic
ag ain
Ġman kind
Ġdis s
Ġgr and
Ġgl ance
ĠR ogers
iz on
Ġcr umbling
Ġreal ity
Ġchan ged
Ġwr iting
mer ic
Ġstud ied
Ġem ot
Ġabs olute
Ġsum mer
Ġdetail s
Ġrepe ated
Ġmal ign
Ġempt y
j o
m et
s erv
Ã «
Ġs ides
en es
Ġm echan
Ġc ra
an ity
Ġp ress
st on
Ġbe aring
Ġst airs
ce ll
Ġfor t
Ġfor ced
ard ing
ist ent
Ġsp ell
ate au
ĠB rown
Ġwor st
ĠP ickman
ens ion
ex pl
Ġrec ent
Ġmind s
Ġcha os
Ġdet erm
Ġspec ial
Ġmar ble
Ġinst ead
Ġsy stem
Ġdread ed
Ġenc ountered
Ġmention ed
ĠAm mi
udden ly
e ff
p ers
Ġt ent
he l
er al
Ġm ain
Ġc op
Ġp i
st ill
Ġth ird
ĠT s
ore sc
Ġr ap
Ġr ising
ation al
Ġsp ring
Ġcon cl
Ġlo ath
Ġsc r
Ġob ser
Ġform ul
Ġend less
Ġtre m
Ġfur t
Ġabs ence
Ġstru gg
ĠInd ian
Ġeas y
Ġroof s
oles ome
ĠBl ake
Ġthous and
ĠMo ore
ĠCy clopean
ĠWhatele y
b ack
h ill
Ġa vo
Ġw aking
Ġf ailed
Ġin qu
Ġp osition
Ġl ot
Ġg e
Ġe ast
Ġst ay
Ġst up
ro ad
am ing
ast e
Ġab and
Ġde al
Ġout l
Ġpl aced
Ġli e
ĠE very
Ġtw enty
Ġmo ving
ne ver
te en
Ġcar vings
Ġvis ion
Ġrep res
Ġres olved
Ġdisc overed
Ġspec ul
Ġtre mb
Ġpur su
Ġcoll ege
Ġap ert
Ġcirc um
ah um
Ġslight ly
c ol
m em
Ġa id
Ġs ane
Ġb ig
Ġf a
Ġc and
Ġd amp
ic ated
al most
Ġbe ar
ur ally
Ġst ation
et er
Ġcon vers
Ġal ready
Ġ. âĢĿ
os ite
Ġwor se
Ġim ages
end ing
omet imes
Ġac qu
Ġland s
Ġmatter s
Ġmark ed
Ġmag n
Ġrefle cted
Ġcomm un
Ġmid night
Ġhaun ted
Ġdra wn
Ġlangu age
gaun ts
b able
f all
f ric
n ew
r ow
s it
t ic
w ich
y x
re hen
ed s
Ġb ir
Ġm at
Ġm aster
Ġf it
Ġc rossed
Ġd are
Ġp atter
Ġp ip
Ġl ing
Ġas soci
Ġse par
Ġr ise
Ġno on
Ġkn ock
Ġar m
Ġag es
Ġcl ass
ci ed
Ġper il
Ġmight y
Ġpr act
Ġmo ck
Ġwr ote
Ġmoon light
Ġwat ers
sy ch
Ġmag ic
Ġreve aled
Ġglimp sed
Ġlone ly
hyth m
c or
l ater
Ġs it
Ġb ase
Ġf asc
Ġd ry
as ted
Ġin flu
Ġl oud
Ġh ot
Ġe ager
im ents
Ġnot ice
Ġse ven
Ġse ized
Ġal t
ive red
Ġwe ak
ĠB y
Ġpro per
Ġcl aw
sc ri
Ġper fect
hen omen
Ġpr ison
Ġpre t
Ġpart ly
Ġway s
ail ing
ĠK ad
az ing
up on
ey ed
Ġdep ths
Ġexc ited
Ġser ies
Ġfolk s
Ġspect ral
Ġbott om
Ġorigin al
Ġaf raid
Ġcryst al
b re
c ame
d ec
e b
s uch
u gg
Ġ 5
Ġw on
Ġb old
Ġh oll
Ġg entle
Ġwas te
ur ama
Ġfor ward
Ġv it
ust ed
os ph
Ġsh ot
Ġtr ain
ci p
Ġrem o
Ġback ground
ĠY et
Ġco ver
ĠTh ose
Ġinst inct
Ġins ane
Ġunc ann
Ġpan ic
Ġsim ple
Ġserv ants
Ġobv iously
Ġnecess ary
ux et
Ġpock et
osph oresc
- -
v idence
Ġ Q
Ġt im
Ġs ick
en is
Ġb are
Ġf irm
ing ed
as ing
at onic
ĠI s
et her
am iliar
ul s
ra p
Ġun mistak
Ġle g
ure ly
ĠN ahum
Ġsc attered
Ġhor izon
ign ed
Ġpo ints
con s
ord s
Ġdoor way
Ġev ents
Ġroom s
Ġwork ed
Ġhead s
Ġcent ral
Ġrel uct
Ġchi ef
Ġaut hor
Ġcond ition
isk atonic
O f
d am
f le
f olk
g ain
g hed
l ar
Ġ er
Ġh ints
Ġh inted
Ġre ceived
Ġon yx
Ġst op
em ber
od e
Ġsu c
Ġun iverse
us ing
Ġsp ent
ĠM ay
ĠB ar
Ġro ll
ĠN ature
pl ess
Ġj our
ĠL e
Ġstrange ly
con ce
Ġvis ions
Ġdec l
app ed
Ġfind ing
Ġpers ons
Ġbro ad
Ġmem ories
Ġgh ost
Ġ19 1
Ġbuild ings
Ġclim bed
Ġbegin ning
athe red
Ġstret ched
ĠEd ward
Ġhierogly ph
Ġcof fin
ĠTs ath
a res
r ical
u ation
v ent
Ġb al
Ġf ast
ar g
Ġd iv
at or
Ġin formation
Ġl ines
id ing
ver se
ri er
ri but
all ed
Ġr att
qu iet
ĠS u
Ġcould n
Ġis land
Ġne ither
ap e
ap s
Ġag reed
Ġshe wn
Ġsub stance
Ġsay s
Ġcor respond
Ġchild ren
Ġglimp se
Ġneigh bour
Ġpartic ular
Ġapert ure
a j
b or
b ro
c ul
f lo
m p
n or
v il
w ater
y an
y et
Ġw ear
Ġf ate
Ġf ren
Ġd ata
Ġh on
ic ate
le ep
im m
Ġst uff
Ġst ench
ere n
il ar
Ġy awn
um ents
Ġex ha
Ġal arm
Ġsh r
Ġlo ose
Ġsc enes
og s
Ġgreat est
Ġter r
Ġpe ace
Ġk illed
Ġworld s
Ġmon st
Ġent ity
Ġcha mber
ib ility
Ġnat ive
Ġbel ong
ug ust
Ġsens es
men ced
Ġpri ests
Ġran ge
pri l
Ġanti que
Ġstran ger
Ġra ised
Ġsac rif
Ġsucc ess
Ġfash ion
Ġloath some
b orn
e z
f oot
s on
Ġ ur
Ġ âĢĺ
Ġw ings
er my
Ġm ud
Ġf iend
ar ctic
Ġd iz
Ġl if
Ġl ack
om ing
om es
Ġha te
Ġhe alth
im en
im ag
Ġre vol
et r
th y
Ġse lf
Ġr out
Ġar ms
Ġdream ed
Ġdec ad
Ġdec ay
Ġreal m
Ġgu ide
Ġtell ing
Ġwa it
ron omic
hor ror
Ġap art
reg ular
Ġprev ious
Ġdisapp ear
ivers ity
Ġmiss ing
Ġproc ess
b ell
c har
f it
m ade
s ound
t ran
he red
in ally
Ġw it
en ath
Ġb ones
Ġc ab
Ġin ex
Ġl um
Ġha t
Ġha bit
se ct
ion al
Ġan n
ec ronomic
ĠA fric
Ġr ing
ĠS outh
Ġex isted
Ġup ward
Ġman aged
Ġpl ateau
ĠO l
Ġpr ints
Ġcr ude
Ġacc ording
Ġsur round
Ġreg ular
Ġread ing
Ġexpl ain
Ġsens ation
uff led
Ġpri v
Ġabyss es
Ġsuggest ion
exp ected
Ġgrad ually
Ġghast ly
Ġfee ble
Ġner ves
ecronomic on
c he
n a
u be
y ard
Ġw itch
Ġm is
Ġm ur
Ġc atch
Ġp sych
Ġl amp
Ġg ra
Ġhe nce
Ġon es
am ed
ch ol
ĠS h
us hing
ag on
Ġman sion
ĠO ther
Ġwhen ce
Ġlo ck
Ġsc roll
Ġfl ame
ru g
ĠJ ust
Ġk ill
Ġch im
app ing
Ġca vern
cept ion
Ġcent uries
ĠMr s
Ġele ment
Ġir on
Ġfig ures
Ġconn ex
Ġeas ily
yr am
Ġdest ro
Ġmir ror
ĠPer haps
Ġearli er
ĠKad ath
N ecronomicon
d igious
m n
m ark
Ġs ou
Ġs chool
ha p
ha lf
Ġb urned
Ġb ank
Ġf un
ing u
it ement
or ial
or gan
Ġd ig
Ġin finitely
Ġp henomen
Ġbe arded
ot ting
se e
Ġth orough
Ġst aring
the se
ain ted
th ur
all eys
Ġmy th
ĠS omething
ĠW he
to ld
os op
ok en
Ġsa v
Ġwor n
ĠD alton
Ġbr other
hi e
Ġ1 6
Ġdet ect
pr ints
Ġbro ke
Ġexpl ore
Ġbelie f
Ġsqu at
Ġsupp ose
look ed
Ġrecord s
Ġstand ing
Ġlist ened
Ġdescri be
Ġgulf s
ĠEng lish
Ġfan cied
Ġcorrid or
Ġshun ned
Ġunus ual
ermy n
c ing
c to
e en
f right
h u
p or
Ġw el
ed ed
en ry
Ġm ood
Ġf il
Ġc ust
Ġc ott
or ic
Ġd ull
al ing
ow ard
Ġg as
ac ted
Ġst air
Ġme as
el ing
lo cked
ĠM ost
Ġag ed
Ġcom es
Ġcom menced
Ġdes cent
Ġlike wise
act ion
Ġimp ressions
aw t
Ġch ill
Ġev idence
Ġcont r
not hing
br id
mon strous
Ġres ult
Ġcare ful
Ġart ic
ĠAll en
Ġadv ent
hem ical
Ġcir cle
arce line
Ġappro ached
Ġcast le
Ġsuper st
Ġord inary
Ġansw er
Ġtele ph
Ġmarvell ous
Ġsignific ance
Ġfing ers
Ġphot ograph
f ar
g en
i um
Ġ iv
Ġf ight
Ġf ood
Ġf ine
Ġc iv
es h
Ġbe ard
ac le
Ġst ag
ĠA meric
Ġno is
ag ged
Ġgreat ly
Ġshe er
Ġimp ossible
iv able
Ġent rance
Ġdeep ly
Ġstud ies
mit age
Ġquest ions
Ġweek s
ĠPro vidence
Ġdisapp eared
Ġincre ased
Ġrum ours
Ġdaemon iac
Ġgrou p
oura ge
Ġanim als
Ġarcha ic
awt uxet
l ittle
in n
Ġc ere
Ġc ru
Ġd ie
an cient
at ched
Ġin ha
Ġp arent
Ġl of
Ġbe wild
ut ed
ere r
Ġfor get
Ġv irt
Ġr ail
Ġr hythm
ĠH er
un ted
Ġno body
ok ing
ran g
ĠO ut
ĠG ods
be yond
Ġen orm
ens ive
Ġ1 5
Ġoff ic
Ġev ent
ĠK ing
ific ial
Ġsle pt
Ġext reme
Ġfoll ow
Ġmin ute
ĠPro f
yr in
Ġoccasion al
gy pt
Ġcal m
Ġsett led
Ġdescend ed
cher s
aim ed
Ġconcer ning
Ġblasphem ous
Ġdrag ged
Ġgard ens
Ġstruct ure
Ġign or
Ġconvers ation
A l
a ver
i que
l ife
s aw
Ġo min
Ġf ung
on ce
it ary
is f
Ġp all
Ġp air
Ġp owers
Ġh ither
Ġg n
Ġth us
Ġth irty
ac y
ri gg
ĠA ugust
ĠS urama
un k
Ġsome where
urn al
ĠE x
Ġdes cript
Ġpr ay
Ġmon ster
gr own
com ple
Ġadv anced
Ġsugg ested
lt har
Ġdi ary
Ġmid dle
Ġfarm house
Ġbul k
ĠEng land
Ġhop ed
Ġrit es
Ġneare r
Ġdisturb ing
Ġfab ulous
ĠDan forth
Ġcylind er
Ġshudd ered
Ġconsider able
d et
f irst
h ist
l it
y arl
Ã ©
Ġw ire
Ġs ad
Ġs ong
Ġf at
ar ly
Ġp hant
Ġg ri
Ġg ran
Ġg ained
Ġhe sit
Ġre le
Ġre se
ĠT er
us k
Ġcon ject
ĠM iskatonic
Ġsh ook
Ġpro v
Ġany one
ath ot
ĠE l
ick ing
ex ic
ĠJ ermyn
Ġsl ab
Ġsm oke
Ġch o
Ġmost ly
Ġent ities
Ġad m
Ġwr ong
Ġaw ake
Ġstr ain
ĠTh ough
ren ch
Ġamong st
Ġplain ly
Ġtra il
Ġwar ning
Ġscream ed
Ġcond itions
Ġslo pes
Ġwhisp ers
Ġmean ing
Ġsusp ected
Ġmus ic
Ġbrood ing
Ġmill ion
Ġclot hing
Ġcharac ter
Ġstra ight
Ġthro at
Ġobt ained
Ġuncann y
Ġconnex ion
e very
h ideous
l im
o id
r ay
s had
Ġt ong
Ġa v
Ġc ro
at en
Ġp ha
Ġp et
Ġp ause
Ġl ad
Ġha ng
ot ted
Ġst ark
th ul
th ink
um s
um es
um ns
Ġun like
ĠH enry
us s
Ġex ceed
ĠW ar
ant ing
ĠM ore
Ġal together
Ġsh iver
Ġli ps
ĠP e
Ġpro ve
Ġpro gress
Ġam ount
Ġcur se
ps es
Ġmen ace
iz ens
Ġsub ter
ip her
ĠAs enath
Ġmom ents
Ġposs essed
Ġdeep er
Ġspec imen
su gg
Ġext ent
ĠU p
Ġexpl an
Ġfore ver
Ġfore ign
Ġrock s
Ġwar m
Ġvisit ors
Ġshadow y
Ġfrag ment
Ġsusp ic
Ġfield s
Ġprodu ced
Ġdeli ber
Ġmyster ious
Ġwan ted
Ġfif ty
Ġmum my
Ġintell ig
Ġoutl ines
yarl athot
N ow
a way
d iff
e g
k in
l ore
l ast
o cc
o oth
r ous
s ight
z en
Ġt ight
Ġa ston
Ġs way
Ġs chol
er by
Ġb ran
on se
or ph
an es
Ġp ed
Ġp op
st e
ent ial
Ġre ar
Ġre ver
Ġst ories
Ġst umbled
Ġan aly
ec es
if est
ĠS p
ĠS pan
ĠD enis
Ġgr own
Ġfl at
Ġfl esh
Ġrem ain
man y
Ġexp ed
with out
Ġreg ions
Ġvo id
Ġph osphoresc
ale m
Ġhideous ly
Ġcol oss
ev il
Ġsure ly
Ġdro ve
Ġbar rier
plic able
Ġcrypt ic
Ġmed ical
Ġhy p
bec ause
Ġdesign s
Ġsubt le
Ġdeli ri
Ġaband oned
yarlathot ep
! _
A b
O ne
W ith
b ar
d imens
h in
j ected
l a
l ance
n es
p et
s ince
y er
Ġ ess
Ġt est
Ġt reat
as ant
Ġp iece
Ġl aw
Ġh um
le ment
Ġbe hold
ac he
Ġre qu
Ġwh ir
ad s
ĠA lf
Ġv ig
Ġy ard
Ġr ub
Ġr ats
ound ed
Ġun e
Ġun natural
us ions
Ġso il
Ġno ise
Ġtr ack
ĠL at
ĠL eng
ci al
ĠJ ames
Ġsm ell
Ġoff ered
gr and
oub ted
Ġhar m
Ġsw ift
utter ing
ountain s
Ġfo et
Ġshew ing
Ġhel ped
Ġsleep ing
Ġlarge ly
Ġnam ed
Ġtra p
Ġwatch ing
ĠBe fore
Ġopp osite
Ġdescri bed
acc ount
Ġdevelo ped
Ġsculpt ures
Ġcliff s
Ġvac ant
Ġcere mon
B e
d ing
m ind
m os
v an
v ill
Ġt ouched
Ġa out
Ġs or
Ġm ask
or k
or ation
ar ies
ar ian
Ġd ut
Ġd ue
an other
Ġin fin
Ġp icked
Ġl ies
st eps
Ġg ather
ve y
Ġre lief
am ps
th ree
Ġse at
ul ate
il osop
Ġun conscious
ĠS m
ĠH ouse
us ive
Ġsp oken
Ġab rupt
to o
ĠM exic
one y
os en
ag ers
Ġpl ay
Ġpro digious
Ġcl ust
Ġcom b
Ġhor ribly
Ġtw isted
Ġknow ing
Ġlight ning
Ġclo ser
ĠY ig
Ġunder ground
Ġco b
Ġthink ing
Ġwa ited
Ġwa iting
Ġcol on
Ġdep art
Ġexc itement
Ġclim b
ĠInd ians
Ġansw ered
tw o
Ġdirect ly
Ġbaff ling
Ġveget ation
Ġrout e
Ġenorm ous
Ġomin ous
thul hu
b ook
c ourse
d ire
m ag
n ear
o x
p ur
y ears
ou ted
Ġb ent
Ġf er
Ġf led
Ġf av
Ġf ixed
Ġc y
Ġp ushed
Ġl it
st ances
Ġg alley
Ġe p
ro se
âĢĶ âĢĶ
ir c
and er
Ġv ist
ble m
ol f
Ġr are
Ġme l
ind eed
ĠS il
ĠW hy
Ġso le
ct urnal
Ġpl un
ĠO bed
ud der
li v
Ġar my
Ġbl ank
ĠP awtuxet
Ġpro port
ish ly
ish ment
Ġtr oub
Ġdes ol
ick en
Ġwhere in
Ġlike ly
hi pp
sp ec
ount ing
ĠR oman
Ġcur rent
Ġsee ing
Ġpo ison
de ad
Ġdoor s
Ġinc ident
br is
Ġreg ret
land s
Ġcol umns
Ġinv is
Ġinter ior
Ġem p
ĠU lthar
iet y
Ġgi ving
Ġfriend s
Ġimag ine
Ġfall ing
Ġgreen ish
Ġphys ician
Ġpat ient
Ġty pe
ean while
Ġcraw ling
Ġfair ly
Ġbrid ge
Ġfurt ive
Ġfa ith
Ġpip ing
Ġhieroglyph s
A n
b ours
d el
d ark
e enth
m ad
m iss
p here
Ġt ask
Ġw ore
Ġs ank
Ġm ult
Ġf ro
Ġl at
ly ing
Ġg ar
Ġhe aring
ur t
ur ope
Ġst ep
ĠT om
ul se
ke y
ch ie
em s
el ed
us p
Ġsh one
ect ing
Ġover t
ĠE gypt
sp ap
ens ions
Ġsl aves
man ship
Ġpo inted
Ġter rif
Ġlight ed
fin ed
Ġsk ull
Ġco ast
Ġposs ibly
Ġnat ives
Ġspe ed
Ġart ist
Ġlear n
Ġdri ve
Ġfre quent
Ġescap ed
Ġlim it
Ġquiet ly
Ġcomplete ly
Ġest ab
ĠOr ne
Ġflash light
Ġdeg ree
Ġsymb ol
Ġcra zy
Ġobser ved
Ġholl ow
Ġciv il
H is
J o
g ran
l ers
r ad
w ixt
Ġa ver
in ent
in ated
Ġb ark
Ġf ail
es ome
as hing
Ġn um
ur s
âĢĶ âĢľ
ri ll
Ġnot ed
ke let
Ġr im
Ġsu pre
ĠS alem
ag ues
Ġdo ing
ab ility
Ġwhen ever
Ġlo c
ĠD un
Ġdis quiet
ĠG reen
Ġtr uly
less ness
ĠL ater
sp e
ertain ly
Ġrem ains
Ġbo at
alk er
Ġpe ak
Ġflo ated
Ġwr ite
Ġreg arding
Ġdisc over
Ġcour t
Ġocc up
Ġmet h
ĠV er
ĠAr thur
olog ist
Ġart ificial
Ġtem ples
Ġdim ly
Ġant arctic
Ġmot or
oun ter
Ġsum mon
Ġhapp en
Ġbas alt
Ġinterest ed
Ġaut umn
Ġlist en
Ġae on
Ġresp onse
Ġpain ted
Ġappear ance
Ġobv ious
Ġprim itive
Ġetern al
Ġrap idly
scri pt
eren ces
oubted ly
i o
m pt
o o
o int
w his
z ed
Ã ¤
Ġa in
in v
Ġw ise
Ġs al
Ġs anity
Ġm oss
Ġc ries
Ġc ube
Ġto day
Ġp aint
Ġl ying
Ġl ately
ld om
Ġst ick
ro l
ir ation
all ing
Ġse mi
ĠA gain
ĠA pril
ol t
ĠW h
Ġab hor
un known
ĠM art
ĠM arceline
ings port
ĠB r
op s
Ġdis e
Ġgr im
Ġsha p
ci pit
Ġen er
Ġhor se
ex per
ru ction
Ġcur sed
Ġsee king
Ġpr in
ress ing
ub es
Ġflo od
Ġres ults
Ġhar bour
head ed
Ġdel ight
Ġqueer ly
Ġexper iments
Ġdri ven
Ġscream ing
ho ly
Ġturn ing
Ġsuggest ions
Ġche st
Ġche ap
Ġfre quently
sha ped
Ġnec k
Ġbott le
Ġequ ally
Ġimport ant
Ġrit ual
ĠWil bur
Ġexact ly
Ġlau gh
Ġavo id
Ġjour ney
ĠProf essor
Ġinvis ible
) ,
b lo
b ert
d ep
o let
s qu
Ġ 7
Ġt aste
Ġb urning
ing ing
it es
it ation
it ure
an ing
an im
ll en
at ical
Ġn umb
Ġg athered
Ġe c
ac hes
Ġre spect
ro of
ul ation
ĠA rab
ard e
um ent
kn ew
Ġun s
ĠS op
ĠS uch
Ġby gone
ust omed
out side
Ġman ifest
Ġsh if
Ġsh ining
ĠO ur
Ġar range
ĠD es
ĠD erby
ĠP l
ĠP r
Ġsc ience
Ġthr ong
Ġtr ick
hi b
Ġcur t
ĠJ une
Ġwind s
con c
iz ard
Ġoff ice
Ġke en
aw ed
Ġmon th
Ġvis ited
Ġext ra
ĠAr mitage
Ġtalk ing
olog ists
Ġabs or
Ġexc han
Ġsupp ly
du ced
Ġmin utes
Ġmark s
Ġce iling
Ġpar aly
Ġorgan ic
Ġdevelo p
Ar kham
Ġdifficult y
bu ild
Ġinflu ence
Ġvit al
Ġcab in
ĠAfric a
Ġcoloss al
M r
b ear
b bed
f ront
k es
p air
s il
s ens
t own
t ical
u ine
u ced
v als
Ġt end
Ġt iny
Ġa im
re ct
ha l
Ġm aint
Ġm ists
Ġc hemical
es tern
Ġd il
Ġd omin
as m
as ons
at ors
Ġin finite
Ġl oss
ic ted
st ud
st ood
Ġg est
Ġe ld
id ious
Ġre ce
Ġst ore
Ġas ide
and ed
Ġse aled
ill y
Ġr ays
ound ing
Ġcon qu
os pit
ĠB en
ak er
Ġlo omed
ĠG o
Ġtr acks
ĠF en
hi gh
Ġrem ind
Ġrem aining
ĠIn stead
Ġpo et
Ġch oked
Ġacc ess
Ġcle an
Ġbet wixt
ob ject
Ġfo ol
Ġlar ger
Ġmar vel
Ġdep th
Ġkeep ing
Ġdim ensions
Ġgener ally
00 0
Ġho le
Ġstrong er
rec ogn
Ġconst antly
Ġty p
Ġfle w
Ġjo ined
Ġleap ed
Ġlau ghed
Ġdeterm ined
Ġremo ved
Ġsuc ceeded
Ġparent s
comple te
Ġexceed ingly
ĠAlf red
Ġsupre me
C hap
T H
a emon
f aces
i able
s ol
u ary
v able
w ill
in ic
re es
Ġs hant
er ve
Ġm aj
Ġd usk
at us
Ġin str
Ġl est
Ġbe ast
Ġg aze
Ġhe at
ut ch
et te
ir ing
Ġnot ion
ul ted
Ġr av
Ġun w
ĠH all
Ġde bris
Ġup stairs
Ġsh udder
Ġsa ke
Ġle ather
Ġpl ayed
Ġar g
ĠD o
ĠR ace
sc ape
wh ite
wh olesome
Ġatt end
ict ion
ĠSt ill
here nt
Ġsay ing
rag ue
Ġplan e
Ġinv ol
Ġsens itive
Ġmot ions
Ġghoul ish
Ġelse where
Ġpower ful
Ġrun ning
Ġfree ly
fort able
Ġfac ts
Ġmess eng
Ġresp ons
Ġfly ing
Ġimport ance
mo on
wr iting
Ġtrad ition
Ġmort al
Ġsail ors
Ġdang er
Ġalt ar
ĠQ u
bro ken
Ġhither to
Ġped est
gran ek
Ġshap eless
3 0
F rom
c y
e h
g ust
s s
s aid
w o
y dam
Ġ ze
Ġa Ã«
re lief
Ġw ave
Ġs itting
er r
er able
ha s
Ġb ow
Ġc it
Ġc his
Ġc ried
Ġin sect
Ġp os
al og
ac ious
id ity
Ġre pl
am ent
ĠT r
ul ated
ol ith
to p
Ġde finitely
ĠM c
Ġal oud
Ġal ike
Ġsh ips
Ġle gs
ran on
Ġseem ingly
Ġcl inic
Ġbr own
ĠL and
Ġfl ashed
ress ive
Ġsm ooth
Ġint r
Ġent er
Ġnew s
Ġrep ly
Ġaw aked
Ġrest ed
Ġdel icate
Ġhel pless
Ġexpl ained
clo se
Ġvill agers
Ġexper iment
oun ced
Ġru in
Ġpeculiar ly
him self
Ġappro ach
ech n
ivid ual
Ġincl uding
vi ving
Ġcorrid ors
Ġneare st
Ġreport s
Ġpuzz led
Ġmechan ical
Ġpriv ate
Ġiv ory
sugg est
mos phere
ĠSm ith
Ġnum erous
a out
c les
d ul
f aced
i am
i pped
m om
p ret
r ows
u le
v a
Ġ ut
Ġa ven
Ġa ud
Ġs kelet
Ġb urn
Ġf al
Ġc red
Ġc ost
it ious
it ect
is en
Ġd ate
Ġd ying
Ġto m
Ġp ond
Ġp aws
Ġn ause
le ct
st ant
Ġbe at
Ġbe asts
Ġg it
Ġg azed
Ġre ck
Ġmy ths
Ġse ar
Ġse ldom
Ġun less
Ġun expected
Ġun holy
ist ence
Ġsp lend
ant ically
ĠM arch
ran ged
Ġdo om
ond on
ort un
Ġro pe
Ġbl ast
Ġpro blem
Ġim per
Ġcl er
Ġtr aces
Ġshe lves
ĠE urope
ĠF rench
Ġgl anced
Ġen em
itt ered
ĠR om
ex c
Ġapp ar
Ġday light
gan ok
alk ed
Ġdream ing
Ġimp ressed
Ġch osen
Ġclo ck
Ġcr own
Ġnew spap
Ġgu arded
app eared
Ġco ol
ey es
Ġsil ently
su red
Ġref used
Ġind icated
Ġcons id
Ġtran sp
Ġsens ations
Ġgi ant
Ġcre pt
ĠJo e
Ġlab yrin
Ġport ent
rest rial
Ġprom ise
Ġlur king
Ġmerc iful
Ġang les
illing hast
Ġantiqu ity
Ġcompan ion
Ġwhar ves
Ġpill ars
Ġrevel ation
Ġabsolute ly
Ġsit uation
Ġpret ty
Ġsav age
cto ber
Ġcott age
Ġteleph one
Chap ter
N G
N o
W ill
b and
c reat
d ra
g ian
g ener
i ently
m other
o a
p al
p ul
s a
s en
ed ing
Ġb atter
on ing
ar ound
Ġp red
Ġp oured
Ġl ap
Ġl aws
om al
Ġha m
le ft
le cted
Ġg or
ur anes
Ġst ared
Ġfor ces
ter rible
ul ed
il s
Ġr ich
Ġr otting
um ped
Ġun com
ĠS abb
us es
Ġsp ite
Ġex otic
ust r
Ġno ises
Ġout line
os ing
âĢľ âĢĺ
Ġwould n
Ġar oused
Ġpro of
Ġsc ra
ĠE li
Ġdes ire
ĠF inally
Ġgl im
Ġdown ward
ial s
har d
Ġdist ingu
Ġpre cipit
ple x
atter s
Ġinc hes
Ġatt ribut
Ġmon ot
Ġgo vern
ĠK ingsport
Ġad mit
Ġend ed
Ġsound ed
mon t
Ġpres erved
Ġco at
Ġocc ult
Ġsil ver
su pp
Ġcomp any
Ġmem bers
Ġabs urd
Ġshould er
ative ly
Ġadv ance
Ġsum m
Ġaff air
Ġill usion
Ġcomple x
Ġdi am
Ġaut om
Ġhold ing
Ġreve al
Ġhy ster
Ġincl uded
Ġcosm os
cont in
Ġviol ently
Ġeng ulf
rav ag
Ġident ity
fer red
Ġmach ine
Ġemer ged
Ġimmedi ate
Ġgrand father
Ġrepres ented
ĠOl ney
Ġtong ue
Ġexped ition
Ġabrupt ly
c oll
d om
e e
f ant
f ig
f oll
h il
i ving
l ies
l itten
m uch
p ent
s k
s ent
s ign
t em
t ell
¯ s
Â °
Ã ¯s
Ġ 4
Ġt ort
he res
in cl
Ġthe ory
Ġb ull
Ġm uffled
Ġf aced
Ġc ou
as se
Ġp ure
ic ation
Ġg oss
Ġre v
Ġst ol
Ġst age
Ġst ony
Ġas cend
ul sion
ke ep
Ġy ield
if ice
ard onic
ound s
ĠS an
Ġsp l
Ġsp aces
ĠM any
ĠM alone
Ġno cturnal
os es
Ġle aves
Ġdo ct
ab or
ĠN yarlathotep
Ġgr ace
Ġsha ft
Ġthr one
Ġmad den
ĠL ook
be gan
Ġper ceived
Ġapp rehen
ĠJ an
de ath
ple asant
Ġint ense
Ġacc ident
mb ers
app ro
Ġpass ing
Ġpass ages
Ġret reat
light s
Ġsw amp
Ġaw a
Ġaw esome
Ġocc ur
ĠTh or
ele pha
Ġsn ake
Ġwild ly
Ġmyst ic
Ġtown s
Ġwood en
Ġcoll ap
Ġru ined
Ġir regular
Ġroad s
ĠInd eed
Ġlist ening
Ġprev iously
cur ious
Ġdam ned
fort un
Ġbad ly
Ġincre asing
Ġrepe at
Ġborn e
Ġneigh bours
Ġmyster ies
dream s
Ġcharac ters
Ġtot al
Ġremark able
Ġimmedi ately
Ġpi eces
Ġsepar ate
conce ivable
Ġneighbour ing
bor o
Ġwit ness
Ġinex plicable
Ġlum inous
Ġstair case
Ġnois ome
Ġinfin ity
elepha Ã¯s
D r
S he
g rey
n ec
p ict
r acted
s is
s hi
Ġt one
Ġt read
in ations
in ning
in ative
Ġw is
Ġm ile
Ġm idst
Ġf aded
on t
it tering
ar ry
Ġd rug
an ted
an oth
Ġp ier
om b
ĠI ranon
hat anoth
st ones
Ġbe ll
Ġg ap
ot ed
Ġst iff
Ġst ock
Ġst ayed
ad es
Ġan xious
ĠS ha
el er
ist ing
us sed
ĠW alker
ĠC thulhu
Ġsh out
Ġli qu
Ġwor m
op en
ĠD on
ĠG er
Ġ_ âĢľ
be hind
Ġnight s
Ġform ing
Ġback ward
con v
Ġk ing
Ġcont ained
Ġgo al
br ought
Ġac ute
Ġdet est
Ġbu zz
ia h
imp ly
arr is
raw led
over ing
Ġfur y
Ġsupp osed
Ġlead er
Ġwalk ing
!âĢĿ _
Ġpol ic
Ġdro p
Ġbas ement
Ġappro aching
Ġperson al
Ġperson ality
Ġsat isf
Ġshort ly
Ġrefle ct
alth y
Ġsharp ly
Ġshriek ing
Ġcraw led
Ġsubt ly
ĠAb dul
Ġswe pt
wall s
Ġtitan ic
Ġfurn iture
ĠUn iversity
Ġdesper ate
Ġvain ly
Ġz o
Ġpen etr
Ġstrang eness
Ġecho es
Ġclut ched
Ġcircum stance
Ġbir ds
uls ive
Ġmonst ros
Ġdiz z
Ġhate ful
Ġchim ney
yram id
Ġlof ty
Ġtight ly
hatanoth oa
W ell
_ âĢľ
a ud
b ber
b ott
b bing
c are
d ed
e gr
f riend
f amiliar
h ou
h ouses
t or
v as
Ġ uttered
Ġw inter
ed en
en ough
Ġm er
Ġf ra
Ġc am
Ġc rew
es pecially
Ġd azed
Ġd aughter
at ives
Ġin k
Ġp aid
Ġl un
Ġn a
ic ient
st orm
ow ly
Ġbe ach
Ġth rew
Ġst out
et ery
am m
Ġv en
em etery
um ble
Ġun able
ĠW al
ell ent
ig g
pt on
Ġis ol
ran e
ab ol
ĠO ctober
ĠN granek
Ġdis ord
ĠG u
Ġgr asp
Ġgr ues
Ġshe l
Ġper plex
ĠJ uly
Ġsl im
Ġ1 2
Ġcont ents
Ġad mitted
Ġrep orted
Ġreal ise
amp bell
app ear
Ġchan ges
Ġpres ently
Ġsk ill
Ġland scape
Ġplan ned
ren ce
atch ing
Ġwild er
Ġsort s
ĠWe eden
Ġfaint ly
Ġser ved
Ġsol ution
Ġsum mit
Ġdr ink
Ġfolk lore
Ġbus y
Ġpri est
urb an
Ġfre ed
Ġfoot prints
pri est
Ġsim ilar
stand ing
Ġimm em
Ġaccount s
Ġfever ish
Ġsuff ered
Ġfle e
Ġ17 6
Ġfears ome
nam eless
Ġpull ed
Ġpleas ant
Ġsymb ols
Ġaccom pl
Ġresemb lance
Ġemot ions
Ġstup endous
Ġtremb ling
Ġunmistak able
ĠSu ydam
flo or
Ġexha ust
Ġstag g
Ġdescript ion
Ġvist as
Ġec st
ospit al
Ġgrues ome
C l
a a
a vern
c is
c irc
f rag
g al
h our
i pp
p ost
p ossible
r m
r ist
r itch
w ond
y e
z t
Ġt ension
Ġa we
in ced
Ġo per
Ġw rigg
Ġs hed
er red
ha pp
Ġb ung
Ġb attle
Ġm uttered
Ġm akes
Ġc as
Ġc up
ing led
Ġd er
as ingly
Ġl ake
om p
om y
Ġg all
se a
Ġwas n
Ġth reat
Ġre pt
Ġre ass
ver sed
ĠT illinghast
ir ch
Ġfor ty
Ġas sured
th rop
Ġat mosphere
il ities
od ie
Ġr ushed
qu is
ra it
Ġun pre
Ġun ivers
Ġun belie
ĠS ometimes
lo ft
Ġall owed
Ġex ec
Ġde b
han ts
ab ove
ry s
Ġdis mal
Ġover head
Ġsha re
Ġsha red
ĠL ondon
be ing
ci ety
Ġper f
Ġfl ung
Ġob l
Ġob serv
ree k
pe ople
ord ial
iv ity
Ġhouse hold
ĠY ork
Ġus ually
Ġevery one
Ġchan ting
erv ation
Ġland ing
Ġplan s
Ġsil hou
Ġinv olved
Ġinter vals
Ġri g
Ġind ividual
any thing
Ġscream s
Ġclim bing
rem em
Ġbes ides
Ġcomm and
wind ow
Ġoccasion ally
Ġhast ened
ĠNot hing
Ġgrow th
ĠAb out
odd ed
Ġvictim s
Ġconcer ned
Ġclot hes
Ġgen uine
Ġdamn able
Ġcross ing
Ġneg ro
Ġdang erous
Ġvap ours
Ġpot ent
Ġformul ae
Ġtremb led
Ġfasc ination
Ġgran ite
ĠEl wood
ĠUp on
ĠLat in
Ġdut y
ĠDun wich
Ġener gy
; _
b ul
b oth
b ury
e al
e ither
f our
f ield
g rave
g reen
i ant
i ences
l en
l ab
p a
p est
s ay
s un
w a
he st
Ġa rose
Ġs ection
nd ike
Ġb ub
Ġm ounting
ing er
es cri
at ew
Ġp inn
âĢ ĵ
Ġl iter
le ts
al ow
Ġbe ating
Ġg al
Ġg ates
ot ion
ĠT own
Ġas cent
Ġas semb
the ast
Ġmy ri
ch oked
ĠA d
Ġr aid
Ġr amb
ĠH arris
our ing
ĠW ho
ĠC or
ĠC ity
ĠC elephaÃ¯s
ĠM ountain
Ġout ward
Ġsh ivered
Ġsa f
Ġwe ed
ect ions
Ġar ched
ĠG r
pl ane
Ġcl am
Ġmad man
Ġj ung
old ed
Ġother wise
ign y
ph in
Ġob liv
ĠIn ganok
Ġpre ced
Ġk in
ord ingly
ord inary
Ġmon olith
gr am
Ġacc ustomed
Ġnew ly
Ġearth ly
ors hip
Ġwork ing
Ġca ut
so on
Ġsmall er
Ġph ilosop
ĠAt al
eng u
eng arde
ĠV an
rew s
arent ly
Ġtem por
Ġgener ations
Ġser ious
Ġins idious
Ġcloud y
Ġed ifice
Ġaff ected
Ġtrans l
Ġund oubtedly
Ġglass y
Ġcirc ular
Ġorgan s
ĠGeor ge
add ith
vi ew
Ġarch itect
ĠNor th
bec ame
Ġvol ume
attle boro
Ġsurpr ise
Ġhur t
Ġte eth
Ġeffort s
arn ath
Ġtang ible
Ġval ue
Ġlan tern
Ġstead ily
Ġsurv iv
Ġtrem endous
Ġbir th
Ġmock ing
ugg oth
-- -
lar ge
ĠWhe eler
Ġwel come
Ġcust om
Ġsuspic ion
Ġemp lo
Ġsummon ed
Ġpos itive
rm engarde
b b
b us
c ity
c ry
c overed
f r
h ns
i ers
l ished
m is
m ess
o es
p oss
p any
u ish
Ġt ro
Ġo l
er o
Ġb i
or ious
is ingly
Ġd ance
Ġd ouble
at hing
Ġp ay
Ġp age
Ġp ile
Ġl uck
Ġn ether
Ġh us
ic ine
ac on
ac ial
id ents
ri age
ir on
Ġan omal
ĠA cc
Ġsu llen
qu es
um ph
ĠS l
ĠS at
ĠS arnath
our t
Ġsp r
ĠC an
ĠM us
Ġno xious
Ġsa iled
ab odie
ud o
are r
op ing
Ġpro ject
ĠN ever
Ġdis gust
ath s
Ġsha king
og g
Ġj est
Ġj agged
Ġbr ink
ĠL ong
Ġgl ist
for g
Ġrec oll
Ġbo ys
alk ing
ged y
con f
atter ing
int egr
Ġch ose
Ġch uck
Ġcont ent
Ġatt itude
Ġcar ry
Ġrep lied
Ġdec or
amp ed
Ġres ist
Ġwr it
Ġcall ing
Ġhill side
Ġpers istent
Ġplan es
Ġfin ished
Ġspe aking
Ġext ravag
sh ould
ele br
Ġwild est
pro bably
Ġsqu al
Ġser ve
Ġcontin u
Ġchar ge
Ġview ed
Ġreturn ing
Ġcrypt ical
Ġincl ined
Ġcountry side
Ġlur ked
Ġexam ined
Ġaf ar
Ġcraw l
Ġsac red
earth ly
Ġang le
Ġgrou ps
Ġgen ius
Ġgle aming
Ġsend ing
Ġval ise
Ġsurv ived
Ġprec ise
Ġcompan ions
Ġpatter n
Ġreluct ant
Ġsacrif ices
Ġdig ging
Ġthorough ly
Ġexplan ation
Ġplun ged
ĠVer mont
ĠSop hie
Ġinstr uments
Ġze al
Ġimmem orial
phin x
W ard
b od
b its
f ind
f ear
f elt
l ist
l ant
m orning
r um
r ation
s in
s im
t ri
t urned
w he
x im
Ġ 8
Ġt echn
Ġw id
Ġb en
Ġc rag
Ġc elebr
or ical
Ġd u
Ġd ense
Ġd ug
Ġp ounding
Ġl av
Ġh om
st ri
al ities
Ġbe nd
Ġg ain
Ġg asp
Ġre sc
Ġre ared
Ġre aching
Ġwh olesome
et ic
âĢĶ âĢĿ
ri g
ir a
Ġas hes
Ġas leep
ore s
ul u
em ic
if orm
qu ite
Ġun re
ĠS phinx
est one
our n
Ġab road
ant age
Ġso ld
pt ember
ran ean
Ġwe ather
ĠB et
ck ing
ud rey
op ened
Ġlo g
Ġqu aint
ĠP res
Ġpro ceeded
The se
Ġcl aws
Ġcl aim
ĠE lder
Ġgl are
Ġen velo
sp ir
sp read
Ġtw ice
Ġhow l
de ep
de vil
Ġbec oming
Ġter restrial
Ġ1 0
Ġimp ulse
Ġoff er
int erest
Ġint ens
Ġent ering
ĠK uranes
Ġrep ellent
Ġsk et
Ġvo y
Ġph r
eless ly
Ġvi olet
Ġwond ers
Ġspec ies
Ġsight s
Ġext ended
ĠAn y
ĠAn other
Ġpol ished
Ġfr antically
Ġcre st
Ġcre aking
ĠJo han
Ġheav ily
Ġunc ertain
Ġfour th
Ġterror s
she w
Ġlim ited
Ġmean while
Ġfamiliar ity
Ġmist ake
Ġrecogn ise
sm all
Ġcapt ain
Ġmass ive
Ġequ al
Ġord ered
Ġbeaut iful
nam able
Ġsoft ly
Ġcat ac
Ġthous ands
Ġdistinct ly
Ġble ak
Ġhur ried
Ġprop ert
Ġdamn ably
Ġtravell er
Ġquarter s
Ġrough ly
Ġ192 8
Ġcop y
Ġmat hem
ĠIs land
Ġunmistak ably
Ġhon our
Ġyawn ed
Ġdisappear ance
Ġmur der
Ġrail way
hist oric
ĠPe ople
Ġdeliri um
Ġsor ry
oint ment
Ġeld ritch
Ġappar atus
Ġzo ogs
remem bered
C urwen
E ng
N ot
S oth
T o
b al
c ast
c ond
f ull
f act
i ation
i ries
j ud
k ward
k ins
k ai
l or
m a
r is
v ague
w est
z ied
z ai
Ġt ide
Ġt aught
he av
in er
Ġthe ories
Ġw ine
Ġw inged
Ġw izard
Ġs ardonic
Ġm ut
es ides
ar ches
as hes
Ġin sp
Ġl ain
Ġh it
Ġh ide
ic le
Ġha ted
Ġg ently
Ġg ib
Ġst are
âĢĻ ,
âĢĻ .
ir l
Ġv alleys
Ġr ud
Ġsu spect
Ġsu itable
Ġun wholesome
ĠS w
ĠS later
Ġsp rang
Ġex cell
ĠW here
ĠC ertainly
ĠC ampbell
pt ion
ĠB irch
Ġsome one
li ked
âĢĿ âĢĶ
ĠP ar
ĠG hatanothoa
Ġsha ken
Ġthr own
ment ion
ĠL et
be asts
Ġnight ed
sp ace
end ent
Ġper form
Ġfl u
Ġare a
Ġsm ile
con n
ult ane
Ġsec ured
Ġint act
Ġreal ms
Ġac cept
Ġres umed
Ġcha mbers
light ed
Ġfo oth
ug s
ken ess
ien ced
Ġtem per
Ġwar ned
Ġcontin uous
Ġdri ft
Ġvar ied
Ġnorth ward
Ġtor ches
Ġver d
Ġport al
Ġbod ily
Ġmed icine
Ġhy brid
rab ona
Ġimm ense
Ġserv ice
you ng
Ġhast e
II I
Ġfash ioned
Ġancest ors
Ġstir red
Ġstir ring
Ġid i
Ġradi ance
Ġlove ly
Ġintell ect
Ġcap able
Ġstead y
Ġvap our
Ġformul a
Ġrepres ent
Ġcand les
Ġhot el
Ġdecl ared
Ġdecad ent
Ġgra ves
Ġignor ance
Ġpall id
Ġbran ches
Ġdisquiet ing
Ġmesseng er
mom ent
Ġut most
Ġportent ous
Ġmadden ing
ĠGer man
Ġfreed om
escri bable
atew ay
G od
L een
M an
O nce
b ited
c ence
f ac
f ive
g old
i ance
l in
l ay
m atter
m aterial
o pp
s ometimes
t ake
t oward
u el
he my
re ne
Ġs en
Ġs hat
Ġs id
Ġs cept
Ġb and
Ġb its
it ution
es the
Ġto ad
Ġin ward
Ġin spect
Ġp ist
Ġp itch
Ġp engu
Ġl ose
Ġn in
Ġbe ams
Ġe f
Ġth ou
ac led
ve re
Ġre ef
Ġwh ist
Ġr at
ĠS c
ĠH ar
Ġsp ires
Ġab aout
un ct
ant el
to ok
ĠC on
ĠC ount
han ted
Ġkn e
Ġis n
ran cis
op ed
Ġar ranged
ass es
pl an
Ġtr aced
ĠE ast
Ġgl owing
Ġper man
ph ys
Ġcur ved
Ġher self
Ġhow ling
Ġdist orted
Ġ1 1
Ġev ident
Ġatt ack
not iced
Ġsur viving
Ġevery body
ĠK e
ene fit
Ġgu gs
ition al
ip ed
Ġret ic
Ġcha p
Ġca ves
cl oud
Ġnat urally
ĠTh ings
com m
vers ion
Ġstud ying
Ġsun light
Ġcomp ar
Ġdep os
sh ock
cent ury
Ġfore head
Ġfur ry
Ġpur ple
Ġabs ent
Ġvill ages
Ġrock y
Ġuse less
yl ath
Ġplain s
Ġcoll e
Ġimag ined
Ġdoubt less
Ġmin or
ho of
Ġcirc les
Ġfell ows
Ġsoul s
Ġstart ling
aun t
Ġprom ised
Ġconst ant
who le
Ġeffect s
Ġabnorm ality
Ġbreat hing
Ġsearch ing
Ġrum our
Ġbring ing
ump ing
pres ent
ĠJohn ny
Ġwest ward
Ġmeet ing
Ġstri king
sec ond
Ġwand ered
Ġlink ed
Ġshudd ering
St reet
Ġsli pped
Ġunf amiliar
Ġarri ved
Ġlan es
Ġjud ge
Ġbrid ges
Ġaccom pan
ĠMar igny
Ġcand le
Ġling ered
Ġloud er
Ġfren zy
Ġrevol ver
Ġsou thern
Ġsuperst itious
Ġvirt ually
aver ns
Ġsong s
ĠMexic o
Ġcob we
ander hoof
Ġtroub led
ĠBr attleboro
Ġshif ting
pul ch
Ġglim pses
Ġstagg ered
Ġsaf ety
H ow
P ro
e ight
f ire
i ate
o or
s at
s um
v ast
w it
w hel
y og
Ġ ing
Ġt al
Ġt ur
Ġt ap
Ġt ense
in el
in ner
Ġo be
Ġo mn
Ġw re
ha z
ed eral
Ġb ird
Ġm oney
Ġc ouch
es se
es ter
ar med
Ġd ressed
Ġd omes
as ters
ll ing
Ġp se
Ġp ad
Ġp ave
Ġp aw
Ġp ages
st ained
al o
al os
al ways
Ġbe ck
Ġg azing
se quent
im in
ac ent
id ences
Ġre nd
Ġre str
Ġwh it
ad o
ad v
ad y
ĠT re
ec k
ess ors
Ġse vent
ul g
em en
em ing
Ġun account
Ġsp heres
un is
un ning
ĠC ha
ag le
Ġman iac
Ġwe eds
ĠB ell
Ġli ves
ort al
Ġne at
op led
art s
ĠP n
Ġpro bable
ĠG reek
Ġcl um
cc ent
Ġtr ust
Ġdes pair
Ġthrough out
ove mber
Ġen v
ex ter
oth ic
Ġsm iled
Ġdream land
Ġimp ro
Ġimp lied
Ġcont rol
ĠY uggoth
gr ant
Ġunder stood
ĠK ey
Ġexp ert
Ġdec ipher
ang ible
Ġco arse
Ġdisc ern
Ġset ting
Ġposs ess
ib ilities
que er
Ġvi br
ĠTh ree
Ġfo c
su ed
Ġdep arted
Ġri ft
Ġdoub ly
ention al
Ġsn apped
Ġel abor
clo sed
Ġtra gedy
Ġfr ame
des pite
Ġund ert
gl imp
ĠSo on
ĠPro bably
po inted
Ġho ary
Ġguess ed
rec y
Ġnerv ously
Ġbul ging
athe g
Ġgro ve
Ġlur k
ĠBl ack
Ġblasp hemy
ĠNor rys
Ġhig hest
Ġattempt s
Ġdirect ions
Ġsurpr ised
sec ret
bet ween
ĠCh rist
Ġwhisper ing
Ġmum m
Ġdraw ing
Ġdoes n
Ġdesper ately
Ġarri val
Ġstream s
Ġvent ure
Ġdispl ayed
ixt ure
pers on
Ġtent acles
Ġscr amb
Ġinqu iries
Ġspecul ations
Ġcircum stances
Ġfren zied
Ġmeas ure
Ġphotograph s
orph ous
ĠSpan ish
Ġhyp not
Ab out
grand father
Ġcolon ial
usp ected
Ġnumb ers
Ġtyp ical
Ġshant ak
utch ins
Ġchis elled
Ġmonot on
ĠThor ndike
Ġslim y
Cl arendon
Ġbung alow
Ġunbelie vable
Ġmyri ad
Ġobliv ion
ĠMus ides
Soth oth
Ġfooth ills
Ġpse udo
? _
C harles
G eor
I NG
O ld
a kness
c ut
c ous
c op
c ount
f ast
f ish
j oy
n ings
o z
o inted
p ath
p ared
p iece
t ha
t able
v est
w ent
w ords
Ġ 6
Ġt orn
re ached
Ġs inking
Ġs imply
er ies
ha unted
Ġm ild
Ġm atch
Ġm urd
Ġf ru
Ġf anc
Ġf rank
Ġf ainted
Ġc emetery
or row
Ġd ank
as ure
an a
ll ed
Ġin j
Ġin conceivable
Ġp ack
Ġp enc
Ġl od
Ġn ur
Ġh ospital
Ġha th
al den
Ġe ccent
Ġhe ap
ere rs
ad ok
ir cle
Ġse et
ch ild
Ġv ort
Ġr amp
Ġun utter
Ġun locked
ĠS qu
el ve
Ġsp are
Ġsp ark
Ġsp here
Ġex cl
ĠC al
Ġde af
Ġal c
pt ic
Ġsh ow
Ġsa ved
Ġpl enty
ĠB el
Ġlo ved
ĠD ob
Ġpro spect
Ġsc ar
ĠG rey
Ġover whel
ĠF irst
ĠR h
Ġhor de
sc ream
Ġper mitted
Ġfl owers
ru pted
oll y
hen s
Ġpr ime
Ġdist r
Ġpe aked
Ġdoor ways
ĠAnd rews
Ġcont aining
ĠY addith
ĠY alden
Ġcar rying
mb ling
Ġtri umph
Ġflo ating
Ġhar der
ty ard
ific ation
Ġposs ession
Ġaw aken
Ġstr icken
ob ody
com ing
Ġmet eor
Ġcol oured
Ġcol umn
Ġquest ioned
Ġadv ice
Ġser pent
Ġcre eping
Ġenc hanted
Ġpresent ed
Ġbas is
norm al
Ġboy hood
Ġpar all
po int
Ġhall uc
Ġlim bs
Ġprep ar
inc re
Ġbri ll
Ġbott les
Ġserv ant
Ġhast ily
Ġhaun ting
Ġshriek ed
Ġviol ent
Ġmerc hants
Ġjo in
Ġstat ues
Ġexpect ancy
Ġwan ing
Ġfif teen
Ġblasphem ies
Ġsignific ant
pass ed
chan ge
again st
cell ar
Ġratt ling
Ġmonst ers
Ġbelong ed
Ġfiend ish
Ġapart ment
tran s
Ġfung i
Ġschol ar
Ġrever ber
Ġphosphoresc ence
dimens ional
Ġfoet id
Ġgather ing
ĠSil ver
Ġproport ion
Ġmeth ods
Ġdise ase
build ing
Ġremind ed
Ġmaj or
Ġskelet on
Ġnause ous
Ġlabyrin th
sign ific
Ġgoss ip
Ġdoct ors
quis ite
Ġdu plic
H ere
J ust
a ur
b on
b ri
b ound
c hen
d est
f re
f are
f illed
i ated
p ast
s n
s ame
s uddenly
t al
Ġ |
Ġt ough
Ġt ended
re le
Ġw o
Ġw ed
Ġs ister
er ned
Ġb an
Ġb other
Ġb ord
Ġb ands
Ġm ounted
Ġm ingled
Ġc ot
Ġc ourage
Ġc ubes
it chen
is ion
Ġd anced
as i
Ġin land
Ġin human
Ġl on
ic ians
ly eh
le gend
Ġbe am
ot to
ut s
Ġth irst
Ġre asons
ur ous
ver t
ver ns
âĢĻ -
ĠT em
ĠT ulu
Ġan x
Ġat op
Ġse am
Ġse iz
ke mpt
ĠA pp
ĠA udrey
Ġv ener
em ents
Ġr ank
Ġr isen
um bed
Ġun expl
Ġun pleasant
res ent
ĠH ave
ĠH atheg
ist ently
Ġsp arse
Ġall ey
Ġex ter
Ġex hib
ĠC ol
ĠC har
ĠM em
ĠM eanwhile
ig ger
ven ing
ag r
Ġsh outed
Ġle ering
ĠB esides
Ġdo c
ĠO ri
Ġli ked
Ġli keness
ther ly
Ġbl ow
Ġbl uish
Ġlo athing
ĠD ylath
ĠP ort
ĠP abodie
ath om
Ġcom pl
Ġsha ke
Ġsha ped
per ing
Ġshe ll
Ġdes k
ĠF rank
Ġgl ittering
Ġdown stairs
ign ity
ful ness
Ġpr on
Ġrem ot
Ġsl ave
oth s
Ġgre et
Ġhand ed
Ġhand writing
Ġev olution
Ġatt ract
Ġop in
Ġcr ack
Ġcr ushed
Ġtri fle
Ġdark ly
Ġad j
str ong
Ġexp ress
ced ented
Ġgu est
Ġgu ided
Ġchan t
Ġpres um
Ġwr ought
Ġreg ard
Ġsk in
Ġca verns
Ġcle ared
Ġaw are
Ġmar ine
Ġdoub ted
Ġobject ive
Ġind uced
pro port
fl ict
ug ged
Ġele ments
Ġlead ers
Ġsy mp
Ġ19 3
Ġdri pping
co x
Ġvisit or
Ġport rait
amb rel
Ġwide ly
about s
vis ions
vis ible
Ġfire place
Ġva ults
Ġcapt ive
Ġcal cul
Ġgro ves
acc ess
Ġconv inced
Ġdust y
resp ons
Ġconce aled
ĠSe a
ĠSe ptember
Ġstat ue
urd y
Ġentire ly
Ġwand ering
Ġpit iful
Ġden izens
Ġtravell ers
hall owed
Ġvent ured
Ġstrugg le
hill ips
fall s
Ġgentle man
Ġauthor ity
Ġratt led
Ġdiz zy
Ġpsych ological
Ġrese arch
Ġsubter ranean
Ġsway ing
Ġune as
Ġdesol ation
Ġfro zen
Ġgar ret
Ġterrif ic
Ġenem y
Ġstol en
nec ess
Ġdetest able
Ġdisord ered
Ġhus band
Ġexcell ent
! âĢĶ
A m
B l
I V
O N
S ome
S uddenly
b reat
c re
c orn
c osm
d on
d ri
d arkness
f ab
h ort
i ary
k i
p ol
p eculiar
p hant
s ue
w ing
y es
Ġt ones
he ph
Ġa loft
Ġo il
Ġw ra
Ġs om
Ġs ink
er d
ha ble
Ġb aying
Ġm utter
Ġm uttering
Ġf umbling
Ġc ults
on er
on ograph
ing y
it an
es cap
or a
ar cha
Ġd ancing
as ants
at ically
at urally
Ġl a
Ġl ined
Ġn u
Ġn odded
Ġh udd
Ġh ushed
ic ious
ĠI m
le ar
st reet
Ġg a
Ġg irl
Ġg ateway
Ġe there
Ġth read
Ġth ither
ac ity
Ġre ward
Ġre lie
Ġst im
Ġst ages
ĠT ime
ĠT wo
ous and
Ġse ason
Ġse pulch
il ian
ĠA ira
Ġr oused
Ġsu it
qu arter
Ġme ad
pp ery
ĠH al
ell ig
ĠC ourt
ĠM iss
Ġso ot
Ġpl aying
ĠO rabona
op h
li ving
ĠD id
ĠD evil
ap h
Ġsc ri
Ġany body
ĠG ate
ĠG ood
Ġcl ung
urn s
ark ed
Ġmad ly
og rap
ine x
per i
ĠE s
Ġj oy
be aut
ci ence
for ce
for ms
Ġper cept
Ġsec recy
Ġcont ain
iv ably
Ġvis its
my self
Ġcha in
Ġvo cal
Ġste pped
Ġaw kward
Ġplan ets
Ġrest ore
Ġcor rect
Ġspec ific
Ġfam ous
Ġstud ents
su ff
Ġsun k
Ġsun ken
Ġext ensive
Ġbur ial
Ġda own
Ġvast ly
Ġdev ices
Ġshall ow
Ġpur cha
Ġwindow less
Ġele ven
Ġwood ed
Ġwalk s
Ġlear ning
Ġcontin ue
Ġins isted
ĠWill iam
do ors
Ġimag inative
Ġ19 0
Ġconn ect
Ġwat chers
ho le
Ġass ist
Ġrecord ed
udd y
vo ice
pec ial
Ġho arse
Ġod ours
inc red
Ġperi ods
bit ants
Ġcorn ers
Ġexam ple
Ġheight s
Ġtomb s
Ġlevel s
Ġfut ile
Ġmerc hant
Ġprodu ct
Ġrid ic
Ġancest or
ĠCh urch
Ġpuzz ling
bo ard
Ġtang le
Ġgard en
Ġprofound ly
Ġantiqu arian
ĠCom pton
Ġinvestig ation
Ġpress ure
eff ect
Ġconcl uded
Ġpursu it
Ġfit ted
Ġknock ed
Ġbold ly
cip al
ĠBar zai
Ġroll ed
Ġterr aces
Ġsurround ing
Ġdestro y
fright ful
Ġbewild ered
Ġignor ant
Ġpray ers
every thing
Ġpha se
Ġpha ses
diff erent
Ġpop ular
Ġfav our
Ġexchan ge
Ġmarvel s
Ġfal se
Ġbatter y
ĠSabb at
fant astic
keep er
Ġshel ter
Ġunpre cedented
Ġbub b
Ġjung le
forg otten
Ġsqual id
ĠJohan sen
haz red
utchins on
Ġeccent ric
Ġethere al
E very
I nd
L ater
Z amacona
b ore
c rown
f ash
g ood
i j
k er
m ay
s ense
t ra
u k
v iously
w ic
y le
Ã ¡
Ġt el
Ġt ear
Ġt ired
Ġa ur
Ġa chie
in wall
re te
Ġw ake
en n
Ġb at
Ġb ought
Ġb og
Ġm ent
es c
is able
is ms
ar th
Ġd ingy
Ġin script
Ġp add
Ġn it
st ory
se quently
ut t
Ġth y
ac ts
Ġre anim
ur ity
ur ance
et ted
ith ing
am ong
ĠT an
ri e
Ġan k
the d
ess es
th ro
ul ars
Ġv on
Ġv est
Ġy ards
ol ent
Ġr ate
Ġr ang
Ġme at
Ġun lo
Ġun imag
Ġun earthly
Ġun kempt
ĠS te
ĠS ince
ĠS uddenly
ĠH y
us c
Ġall eys
ĠW ell
Ġab ys
Ġab ode
un c
un ction
ers on
ĠC ar
ĠC le
ĠC ong
ĠM ain
Ġal tern
ag ging
ag ger
Ġkn ife
Ġsh ru
Ġwe ight
Ġwe akness
ĠB ook
ak otic
ĠO ver
Ġwor ship
Ġar rest
Ġar ray
Ġbl asted
ĠD uring
ĠD exter
ĠP h
ĠP hillips
ĠN ight
ĠN ovember
ish op
Ġthr ow
ĠE agle
Ġen joy
sp inwall
ĠR ed
Ġhor ned
sc ulpt
Ġper ished
Ġfl ick
ĠJ un
Ġform less
Ġpr oud
Ġrem n
Ġsl ant
Ġsl ime
wh olly
Ġour selves
Ġpre cip
Ġbo ard
Ġmen acing
int ellig
aw d
aw yer
Ġnor thern
Ġsur m
Ġsur vey
Ġvis ual
ret ched
Ġtri ps
ĠK heph
fin ished
Ġrep ulsive
with standing
app arently
Ġac ce
att a
Ġca ution
Ġhuman ity
Ġste am
cl ot
Ġmoment ary
.âĢĿ _
Ġless er
Ġwond ering
Ġstud io
ĠV anderhoof
Ġbur rows
ĠAr cha
Ġrel ated
Ġinter pret
Ġda ily
arch ment
Ġsn atched
Ġel usive
Ġneed s
pro f
pro p
ham ber
tern al
ĠZ adok
ides cent
Ġsupp lied
Ġsy ll
Ġtra ff
Ġfriend ly
do ctor
Ġconf usion
Ġdr ows
Ġaff ord
Ġdread ful
ouch ing
Ġdi abol
Ġ2 0
Ġver tical
pect ive
Ġlim estone
Ġforg ot
Ġrefle ction
tr ad
Ġide as
Ġple ased
wind ows
Ġresp ond
Ġhaun t
Ġrum oured
conscious ness
Ġtrave l
dist ant
Ġvol umes
Ġformer ly
Ġest ate
Ġswe et
Ġpal ae
ĠWil cox
Ġwand er
Ġstra gg
Ġpleas ure
Ġbaff led
Ġdeg ener
Ġarcha e
Ġcrowd ed
Ġstro ve
Ġdispl ay
Ġveget able
Ġsafe ly
Ġfort un
ĠEvery thing
mem ories
Ġacqu ired
Ġprison ers
cons ider
Ġauthor ities
Ġdestro yed
Ġfun eral
ĠWhe ther
Ġartic le
ĠAmeric a
Ġinha bited
Ġevent ually
Ġphant as
Ġconject ure
Ġlad der
Ġintellig ence
ĠSpan i
Ġphosphoresc ent
Ġune asy
Ġswift ly
Ġclust ered
Ġdepart ure
Ġlat ent
chie f
Ġlimit less
Ġabhor rent
ĠMart ense
ĠFen ner
Ġnewspap er
Ġdiam eter
Ġgap ing
Ġcas ual
len ze
Ġpinn acles
Ġenvelo pe
Ġvoy age
Ġomn ip
I Ã¤
M eanwhile
N or
Y es
a us
b a
c alled
d ro
d oub
d aemon
f an
f ell
f ew
i hil
m ir
m ass
m ach
o le
p rom
p ap
s id
s cient
t rees
w ills
y our
y ards
z ath
Ġt our
Ġt ick
Ġt ax
in ence
re ci
Ġw olf
Ġw estern
Ġs ir
Ġs que
Ġs alt
nd ed
Ġb ay
Ġb ond
Ġb ite
Ġm il
Ġf is
Ġc ul
Ġc rab
Ġc ounter
on ze
or ters
Ġd ear
Ġd un
Ġd emon
an se
Ġin n
Ġp ul
Ġp ra
Ġp ick
Ġp its
Ġl atch
Ġn ine
Ġh overed
om and
ic ular
st art
ow der
Ġg rav
Ġg ables
se ction
se arch
se veral
Ġhe ed
Ġhe erd
ac her
ac ific
ac com
ve red
Ġre new
Ġon ward
ro g
ro plane
ch urch
ol is
Ġr ow
Ġr ational
Ġsu ns
ind ing
ra ble
Ġun p
us i
ast ically
Ġex quisite
Ġab omin
un ned
un ken
own ess
Ġno vel
Ġsh op
Ġwe ap
ĠB ur
ĠB rid
Ġwor shi
Ġag in
Ġag ent
Ġdis liked
ĠG l
pl aces
Ġcl ay
Ġcom ment
ark omand
Ġtr amp
ĠF e
ĠF rancis
Ġgl owed
ĠR o
Ġhor ses
ru ct
ary ing
Ġapp alling
Ġrec l
Ġsl anting
Ġpo ol
Ġpre historic
Ġwind ing
Ġbo arded
Ġdream er
Ġimp ass
Ġclo s
Ġatt ached
Ġnor m
ever al
Ġint ent
Ġus ing
ail s
Ġtri bes
av ig
ĠK alos
Ġnear by
Ġexp ressed
Ġexp osed
Ġrep ulsion
Ġdec re
Ġsub conscious
Ġwork manship
Ġph onograph
Ġaw ed
Ġstr ict
Ġmoon lit
ĠTh rough
Ġrest less
ia ev
ĠV ery
Ġrel ation
Ġrel ate
Ġrel ax
ank ed
fl ies
Ġmyst ical
Ġdev ice
ĠZ ann
Ġnam es
Ġexper ienced
Ġconf idence
Ġdoubt ful
Ġhapp y
Ġbar n
ceed ing
Ġass umed
set t
Ġcond uct
Ġhold s
Ġpan es
Ġsingular ly
Ġsteep le
Ġfact ory
Ġprep aring
Ġthick ly
erm ined
Ġfac ult
vell ed
ĠAl hazred
Ġdra ught
acks on
dist ance
Ġsour ces
Ġsuff icient
Ġflight s
Ġincred ibly
Ġconce al
Ġbit ter
Ġprot ect
Ġsurpr isingly
Ġsculpt or
Ġquestion ing
Ġstri ke
Ġrust y
Ġheaven s
Ġfing er
know ledge
Ġneg lected
Ġjud ged
Ġsubject s
Ġstrang ers
Ġclut ching
Ġfish y
Ġdiss olved
Ġemot ion
Ġge omet
Ġpatter ns
Ġroll ing
Ġneighbour hood
Ġyawn ing
Ġsacrif ice
Ġhealth y
yram ids
Ġphenomen on
ĠAmeric an
Ġrese arches
ĠTer rible
Ġconject ures
Ġprov ided
Ġpet rified
ĠWar ren
Ġess ential
Ġfoet or
Ġsole mn
Ġdesol ate
hipp le
Ġcivil isation
ĠWh ite
Ġarg ued
Ġpedest al
Ġcrown ed
Ġgor ge
Ġhyster ical
contin ued
Ġcou ple
Ġbuzz ing
igg ur
hns on
Ġol ive
sin ister
Ġlav a
Ġshat tered
Ġpist ol
oor wills
Ġclum sy
Ġmonoton ous
Ġpenc il
Ġparall el
Ġvener able
access ible
ĠKheph ren
zath oth
5 0
D uring
I f
J ones
M o
N ew
O TH
P er
W est
b eneath
c ular
d r
g iven
l ate
m ill
m ountains
n ar
n ers
n igh
o h
p en
p ower
s ions
s ix
s ided
t rem
v in
w at
x ible
Ġ 9
Ġ X
Ġt in
in a
Ġo o
Ġs ang
ed ney
en as
Ġb ab
Ġb itten
Ġm ap
Ġm ute
Ġm aid
Ġf ain
Ġf ame
Ġf oul
Ġc her
it or
it ud
it self
it ably
or us
Ġd art
Ġd irty
Ġl aughter
Ġh un
Ġh ired
ĠI b
Ġha l
le ad
Ġg ay
se qu
ut ation
Ġth rill
im on
ac it
id emic
Ġre jo
Ġst if
Ġst yle
ro du
ir s
Ġas king
Ġnot ions
Ġnot hin
Ġat e
Ġse as
ĠThe m
Ġr age
ra im
Ġun fortun
Ġun iform
Ġun hallowed
ĠH igh
Ġsp awn
ĠW ould
ĠW hipple
Ġab und
Ġcon j
Ġcon ception
ell y
ĠM ad
Ġal tered
ag n
Ġsh utter
Ġle agues
ĠB inger
ab s
ure wic
Ġthere after
Ġwor th
art ic
Ġqu arry
Ġseem ing
Ġdis integr
Ġgr otto
Ġcom fort
Ġsha de
og ene
og gu
per fect
Ġtr ade
Ġshe lf
ĠF ederal
ĠL ike
Ġam b
be gin
Ġmust y
hi re
ign ant
ink led
ph raim
ru ary
Ġcan vas
Ġpr inted
other s
Ġk itchen
ne ys
Ġimp at
Ġsec ure
Ġinc om
Ġclo sing
gr ou
gr ad
gr asse
ub bs
gg ing
Ġevery where
Ġent h
Ġexp anse
br ush
ang ular
Ġac id
Ġpres ences
Ġwork men
Ġcha sm
Ġhead ed
ek s
ek ing
Ġdisc ourse
so le
az urewic
Ġcle ver
cl ass
Ġstr ained
Ġfear ful
ob sc
Ġpers u
enc hes
Ġcol ours
sh ri
Ġes pecial
Ġsign al
Ġdeath s
Ġind ep
Ġind escribable
Ġwhis key
Ġdev oid
Ġcons ult
Ġfeel ings
Ġele v
Ġsupp lies
hor rible
Ġdim ension
Ġwater front
let ter
Ġyour self
rid ay
fe e
fe et
Ġexper iences
ĠNo yes
ĠAn ge
Ġconn ecting
ead ow
des erted
Ġclim ax
Ġbar red
Ġsuggest ing
Ġsuggest ive
Ġstand s
pan ed
ĠSo ciety
Ġgrave yard
Ġfoot steps
vo c
Ġprev ented
sha ll
Ġva ulted
Ġcapt ured
bur ied
Ġincre asingly
Ġgro ping
Ġyellow ish
Ġviol ence
Ġra ise
sur face
exp ression
Ġprodu ce
Ġsouth ward
Ġelder ly
Ġsurpr ising
Ġstat ement
mo ved
Ġglo be
Ġlean ed
Ġtrad itions
oura ble
Ġmill ions
Ġfab led
Ġspread ing
Ġancest ral
mar ine
Ġprim ordial
Ġdwell ing
Ġmach ines
quest ion
Ġwax en
stru ct
Ġresemb led
jo inted
Ġdeterm ination
mem ory
Ġassoci ated
eb ruary
ĠQ ue
ĠBar ry
ĠLe grasse
imm ering
ez iah
Ġur ged
Ġphenomen a
Ġsquat ted
ĠOut side
Ġwire less
Ġrele ase
think able
Ġtreat ed
Ġvig il
Ġep idemic
Ġterrif ying
Ġestab lish
inv estig
Ġpaint ings
Ġprin ci
roof ed
Ġabsor bed
bear ing
Ġmaint ained
Ġdil ig
Ġdomin ant
Ġconqu ered
relief s
Ġcler k
ĠRom ero
Will ett
ĠEli ot
Ġgovern ment
ĠJan uary
Ġliqu id
Ġisol ated
Ġaccompl ished
Ġexhaust ion
Ġecst asy
Ġassemb led
ĠPar is
Ġflu id
ultane ously
Ġpengu ins
ester day
Ġpave ment
ĠPn akotic
Ġseet hing
Ġunutter able
Ġopin ion
Ġadj acent
iaev al
iggur ath
oggu a
azurewic z
1 9
C on
E R
E S
E d
N iggurath
W hy
Y et
a ul
b ulous
b rane
c ra
c ross
d ust
f ellow
g ave
h ome
l ings
m as
m od
m aking
n ame
o ved
p hed
p oses
r ust
s we
t ill
t aking
t rave
u it
v ial
he ll
Ġa st
in st
in ery
Ġo x
re f
re ve
Ġs an
Ġs ne
ou ng
en us
en ance
en kin
Ġb all
Ġb ree
Ġf ill
Ġf ond
Ġc hat
ar thy
as ped
Ġp il
Ġn our
Ġn ose
Ġn aked
Ġh oney
ic ing
ĠI bid
ĠI Ã¤
le g
st o
gh oul
al ien
Ġg li
Ġg aining
Ġg alleys
Ġg aunt
Ġe man
ac id
ac ross
Ġre quest
ur able
ur ia
Ġhad n
Ġwh ither
ro ck
am i
ce ased
ĠT hing
ri an
the less
ain ly
ous in
Ġse v
ge ance
ĠA spinwall
ĠThe unis
Ġy ak
ol m
Ġr ows
Ġr aced
if ying
qu eness
ĠS ec
ĠS awyer
ĠH utchinson
us al
un cle
ust ral
ĠM useum
ĠM azurewicz
Ġal ert
Ġno ble
ew alk
Ġpl ague
ab yss
ĠO s
Ġli ber
Ġthere in
Ġthere fore
Ġwor ried
ort ation
Ġro ots
Ġne bulous
li z
ĠD a
ĠP ha
ĠP rague
Ġsc ent
ass ed
Ġdis jointed
ĠG ard
Ġcl ue
Ġold en
ĠHe yl
Ġgr ay
Ġover heard
Ġthr ust
Ġthan k
Ġbr ains
Ġbr onze
ĠF ar
ĠL i
ĠL ord
ĠL ittle
Ġam orphous
Ġwhere by
ĠR em
ĠR iver
Ġtw elve
Ġper mit
Ġper formed
ĠJ ackson
Ġsl ate
de al
Ġter ms
Ġter rified
Ġpe ered
Ġpe asants
Ġk ins
Ġlook s
iz en
Ġinc ess
Ġch illed
Ġch oking
Ġatt ended
iv ated
iv ities
ĠY oth
Ġint ric
Ġint angible
Ġcar ving
Ġsur faces
ret urned
ang le
Ġget s
mon ia
Ġres olution
Ġpres sed
Ġwr iter
Ġwr ithing
Ġwork room
Ġdisc lo
Ġlet hal
az a
Ġcour tyard
ĠAt lant
Ġpers istently
Ġkind red
com b
Ġfin ish
ĠAr ound
Ġsoon er
Ġdead ly
Ġdel ay
Ġmar ried
Ġinter rupted
Ġhel met
Ġexpl oring
some what
Ġpur poses
rif ted
Ġexc av
Ġadv ancing
Ġadv antage
hem ist
Ġmot ioned
Ġchar nel
uff alo
Ġsol ar
Ġir idescent
Ġdri ving
Ġed uc
Ġbus hes
Ġadd itional
Ġbar ren
Ġunc overed
Ġchild hood
Ġenc ounter
how ever
Ġtor rent
Ġver itable
Ġconc ern
Ġconc rete
Ġspeak er
cur rent
sha pes
Ġstart ing
Ġspect acle
Ġrefle ctions
Ġmist y
ĠGeor gian
Ġnightm ares
oy le
Ġ18 8
uscript s
Ġgrotesque ly
Ġcapt ure
Ġmass es
Ġopp ortun
Ġsett le
dist urb
Ġhost ile
Ġpal ace
Ġbrood ed
Ġdisp osed
Ġgrad ual
rupt ion
Ġfurn ished
Ġtot tering
Ġmould y
Ġstruct ures
Ġtunnel s
Ġstrugg ling
Ġspecul ation
Ġsepar ated
Ġclaw ed
Ġcover ing
Ġsick ly
Ġbare ly
Ġur ge
Ġprocess es
sound s
ĠSh ub
Ġfil tered
Ġadvent ure
Ġsuperst ition
Ġgri p
Ġrele ased
Ġcho ice
Ġaston ishing
van ished
Ġbark ing
urs day
ĠGo at
Ġbow l
Ġaven ues
Ġsplend id
Ġconsid ered
bber y
circ um
Ġrig id
ĠGr and
Ġtempor ary
Ġanomal ous
Ġextravag ant
Ġaccompan ied
ĠTre ver
Ġmumm ies
Ġvort ex
ĠSqu are
Ġdistr ict
Ġstim ul
quarter s
Ġabys mal
ĠJun zt
Ġomnip resent
Ġclos est
1 5
D an
E L
J an
N D
O ut
R O
R obert
U n
c all
d raw
g ard
g ment
h idden
i k
i qu
i est
l ength
m met
n ature
o qu
p i
p ut
p iration
r ather
r ayed
s udden
t ent
t aken
t ales
u er
v idently
w in
Ġt har
Ġt acit
Ġa ether
Ġa kin
Ġa esthe
in ity
re he
re fle
Ġw aked
Ġw ounds
er ry
er ior
ha ving
ou ches
Ġb ony
Ġm ars
Ġm ixture
Ġf are
Ġf athom
it ted
Ġd ose
at on
at form
Ġin ch
Ġin ev
Ġp and
Ġp est
Ġp ink
Ġp archment
Ġn igh
Ġh id
om as
om bs
ic ial
Ġha bits
st arted
al ong
Ġg ambrel
ot he
Ġe at
Ġhe h
Ġhe ro
Ġhe red
Ġwas hed
Ġre eled
Ġre aches
Ġst al
Ġst ated
Ġst amp
am ous
ir y
ain es
ight ed
ore y
ul ously
Ġr ul
Ġr aven
if ully
if iable
qu ate
um ing
Ġun gu
Ġun heard
Ġun broken
Ġun namable
ĠS er
ĠS arkomand
est y
ĠH or
ĠH op
ĠH ook
Ġor g
ĠW a
Ġcon ve
Ġcon cent
Ġcon vey
ant on
ĠC he
ĠC lo
ĠM ass
ĠM eadow
Ġal pha
Ġman age
Ġsh oot
ost er
Ġle ered
ak ened
Ġsome body
Ġdo omed
Ġro be
Ġar ts
Ġqu asi
ĠP ark
ĠP yramid
ĠP acific
ĠN e
Ġsc aly
ath y
Ġcl aimed
Ġcom fortable
Ġshe et
Ġshe ets
ĠE rmengarde
Ġj ew
ĠF l
ĠF ry
ĠF ather
ĠF ebruary
hi bet
Ġhor ns
for ward
ign ation
ru ce
Ġob st
Ġcur ving
Ġher d
Ġpr ide
Ġpr ayed
Ġsl ack
Ġhow led
Ġpo ly
Ġmo or
Ġlight ing
Ġpe opled
Ġpart ial
Ġinc idents
Ġev illy
Ġcont act
Ġwill ing
Ġint im
Ġacc ents
Ġunder brush
Ġdark ened
Ġdec ide
Ġend s
ang s
ĠSt ubbs
ip ment
Ġhar mon
Ġdisc uss
Ġcall s
Ġste el
Ġdet ached
cl im
Ġhigh way
ale vol
Ġpers pective
ĠTh ursday
ron ted
su per
pr ot
ĠV enus
Ġbur den
Ġdel iver
Ġmar riage
Ġdep end
sh ort
arr ing
Ġref erences
raw ling
Ġmem or
ele ct
Ġdoub ts
Ġexpl oration
Ġyoung er
Ġsn akes
cent uries
Ġsqu aw
Ġcons isted
Ġlead en
Ġadv ised
Ġdim in
Ġtra versed
asp hem
Ġins istent
Ġsol itude
Ġconf used
ev idently
ev ana
ring e
ĠAn cient
Ġfall s
ona i
day s
Ġrecall ing
Ġmark ings
Ġaff airs
Ġbar rel
Ġass ailed
Ġnarr ative
Ġprof essors
Ġglass es
Ġshock ed
gl ass
rem ember
Ġeas tern
cur sed
atic s
Ġstrong ly
Ġmed iaeval
Ġimm ortal
Ġ18 9
hand s
Ġhast y
athe tic
Ġsix teen
Ġord ers
Ġsett lement
Ġchair s
ai ro
Ġmound s
Ġarch way
Ġdescend ing
Ġconce ivable
pres erved
sl owly
Ġstret ch
strange ly
Ġpath s
Ġdevil s
Ġdevil ish
wr ought
Ġeng ine
Ġrid ge
Ġleap ing
bet ter
Ġcylind ers
Ġdem and
Ġtot ally
Ġsli ppery
Ġgle amed
Ġvivid ness
Ġdesper ation
Ġfee bly
Ġner ve
Ġstro de
Ġstro kes
belie ve
Ġecho ed
Ġpill ar
Ġspell s
Ġmagn ific
Ġfasc inated
Ġeager ness
Ġperfect ly
bre ak
ĠTsath oggua
Ġexha usted
Ġann als
Ġsurround ed
Ġmur m
see ing
Ġ16 9
Ġinha bitants
Ġlof t
shad ow
Ġexplan ations
Ġdeliber ate
Ġanaly sis
Ġdeliri ous
vill e
Ġfaith ful
miss ion
Ġaver age
spe ak
blo od
Ġextra ordinary
Ġrece iving
object s
ĠHall ow
Ġinvol ving
Ġcit izens
Ġconsid ering
Ġdistingu ish
incl uding
Ġgrace ful
Ġmonstros ity
bott om
Ġfra grant
Ġwrigg ling
Ġobl iter
Ġsilhou etted
Ġmonolith s
Ġarchitect ure
mess age
iron ment
ogg oths
mention able
conn ected
Ġdrift ing
Ġkne es
Ġfru it
Ġfrank ly
rele v
Ġtel esc
ĠSpani ard
scient ific
Ġenth usi
ĠAnge ll
Ġtelesc ope
1 8
A T
A meric
A pril
D e
D o
G ilman
H all
K la
M ore
N e
N arg
a ved
a head
a ired
b ous
b ra
b ew
b oy
c od
c ab
c ery
c ases
c apt
c hamber
d i
d well
e ach
e aten
f ail
f asc
g od
g est
g led
h on
j our
l ur
m itt
p ered
r ace
s ac
s ive
s ure
s light
s leep
t re
t alk
t imes
u ated
v ar
w oman
w orship
y ear
y ellow
Ġ âĢ
Ġt a
Ġt umbled
Ġa fore
Ġa str
in ch
in able
Ġo cto
re ason
Ġw ist
Ġs ands
er a
Ġb or
Ġb olt
Ġm ix
Ġf ug
Ġf umes
Ġc raft
Ġc ipher
on ado
it age
ar led
Ġd y
Ġd ed
Ġd ome
Ġd ru
as tern
an ned
Ġin accessible
Ġp ity
Ġp ub
Ġl awn
ic ip
Ġha ven
al d
ow ds
Ġbe lf
Ġg ust
Ġe ther
ut ions
im ental
im itable
Ġre ign
et ing
ere ly
ĠT el
ir med
Ġfor b
ter ns
Ġan ew
Ġan no
Ġan throp
ain able
ous ness
th ick
all s
and a
Ġse ed
Ġv amp
Ġv ines
Ġv arying
em pl
em ons
em pted
Ġy esterday
ol a
ol ine
Ġr ide
Ġr uled
Ġme gal
um inous
ra bs
Ġun pl
Ġsp ied
Ġex agger
Ġex ternal
ĠW ade
un ks
Ġcon e
Ġcon flict
ant ation
ĠC ast
ĠC orey
ĠM u
Ġso cial
han ging
Ġno stri
ct ly
ag raph
Ġsh ine
Ġsh ops
ious ness
ĠB ab
ĠB uffalo
Ġar ter
Ġbl urred
art ment
Ġqu alities
ĠN one
Ġsc ale
ĠG othic
Ġcl atter
Ġold est
ĠHe ad
Ġgr at
ment ed
Ġtr uck
Ġtr aded
Ġbr ushed
Ġbr isk
Ġam ple
Ġam monia
be ings
be arded
Ġgl en
Ġgl ory
ĠR ic
end ously
Ġhor rified
for d
Ġper ception
Ġper pet
Ġfl aming
ex istence
ps wich
Ġapp ears
Ġpre tern
Ġpe er
Ġhand some
Ġch ron
Ġev idences
iv al
ĠY og
Ġcr ouching
Ġint ently
Ġgo es
ĠK lenze
ĠK eziah
br ain
ene alog
Ġend lessly
Ġreal ized
Ġgu ards
ang led
with in
Ġret ired
Ġmind less
Ġdisc har
Ġland ed
Ġsw im
cl aimed
Ġkind s
Ġfew er
ĠTh us
ron ing
enc ies
Ġext ract
Ġext ending
Ġbur ying
Ġrel ic
cle ar
Ġblo ss
Ġinter view
Ġcare less
Ġexpl ored
Ġind ist
Ġind iff
iss ue
Ġsleep y
Ġsleep er
In nsmouth
ier ce
Ġwater y
cha ir
Ġcoll ection
Ġcontin ent
Ġconf irm
Ġir ony
Ġgrey ish
Ġfig ured
Ġpol ar
night m
cend ing
Ġcreat ed
Ġsecret ly
Ġyouth ful
Ġprof essor
Ġappro xim
Ġ2 5
Ġpan elling
Ġshri ll
Ġdisapp ointment
sing ular
after noon
plic ations
Ġprom pt
Ġprom pted
Ġabnorm ally
great er
Ġspir al
Ġtit le
bur st
Ġmus ical
Ġmus cular
ĠBe yond
Ġexam ination
On ly
Ġshriek s
Ġbox es
them selves
Ġhist orical
bec ome
Ġround ed
Ġremember ing
Ġmanuscript s
Th us
oura ged
Ġpull ing
Ġfurn ish
part s
Ġemb al
Ġid ols
Ġprop he
Ġden y
Ġhierogly phed
Ġmach inery
Ġprec ious
Ġprec aut
Ġearli est
disc overed
Ġpost ure
Ġwax ed
Ġbright er
Ġrap id
Ġfurt ively
Ġavo ided
Ġaband on
Ġling ering
Ġpract ical
Ġpract iced
Ġprison er
Ġleg ion
Ġreluct ance
Ġer r
Ġcorrespond ence
Ġwear y
Ġfate ful
mark ed
Ġbank s
Ġartic ulate
Ġoffic ials
Ġfung ous
Ġgn aw
Ġfat ig
Ġav ail
ums ily
Ġsubter rene
Ġaston ished
Ġschol ars
Ġbran ch
Ġrequ ired
Ġharm less
Ġceremon ial
vill age
Ġproport ions
mad ness
Jo hnson
Ġdiscover ies
Ġmeth od
Ġabhor red
Ġprin cipal
Ġarrange ment
Ġdevelop ment
Ġfool ish
Ġrespons ible
Ġrepl aced
stant ial
creat ure
Ġtort ure
ĠLook ing
Ġpolic y
Ġna ow
Ġunivers al
Ġpreced ing
mis sed
ĠAcc ordingly
Ġrecoll ection
whe ther
ĠBet ter
ĠPres ently
shew ed
Ġintellect ual
Ġunaccount able
Ġenv ironment
Ġfoc us
Ġelabor ate
glimp sed
Geor gina
tha a
Ġoverwhel ming
Ġanx iety
ĠChar ging
necess ary
crown ed
Ġprecip ice
Ġacce pted
Ġrenew ed
Ġworshi pped
Per haps
ogene ous
Narg ai
ĠâĢ ¢
Ġnostri ls
E N
E ve
G reat
I T
L et
L ake
S omething
U p
b ag
c ro
c old
c ult
c ylind
d one
e han
f il
f old
f aint
f urt
g ot
g ive
h ours
i ams
l iness
m ic
m antel
p at
p ress
p read
r ich
r owing
s le
t ight
t ried
w ar
w ide
w inged
w alking
y ub
y outh
Ã ¶
Ġ ic
Ġt ip
Ġt iar
he ar
in ha
in is
Ġo ak
re rs
Ġw ound
Ġs ite
Ġs igh
Ġs ons
er ment
Ġb att
Ġb ased
Ġb ade
Ġm ail
Ġf ed
Ġf olded
Ġc ud
Ġc attle
it a
it al
it ches
or ter
or ations
ar i
Ġd ub
Ġd aring
Ġd rifted
as ions
Ġin eff
Ġp or
Ġp ig
Ġp ouring
Ġp yramids
Ġl ent
Ġl amps
Ġl oung
Ġn ic
Ġh omes
ic eless
ic ism
ic iently
st ate
al c
al so
ow ered
ow ering
Ġg enealog
Ġe er
Ġe aten
im medi
ac ter
Ġre duced
ur ther
Ġst ub
Ġu d
Ġit ems
ro ok
ro duced
am idst
ĠT y
ĠT ran
ĠT hibet
ir p
ir gin
Ġas h
ight s
all ic
Ġse ated
Ġse ize
il i
Ġv owed
Ġv esse
em an
ol ted
Ġr aces
if ted
qu ick
qu ire
Ġun thinkable
ĠS und
ĠS hip
ĠS kai
res co
ĠH aving
Ġsp y
Ġsp acious
ĠW ed
ĠW olf
Ġab str
ĠC ent
ĠC ould
ĠC oll
Ġde emed
ĠM er
ĠM en
Ġup set
ven ient
ĠB ugs
ĠB ishop
ab by
Ġli br
hing ton
Ġwor ry
li er
ĠIt al
Ġar ouse
Ġbl essed
Ġbl aze
ĠD ark
ĠD av
Ġpro long
Ġpro sa
ĠN igger
Ġag ree
ĠG edney
Ġgr inning
Ġover come
Ġtr ained
ĠE nd
ĠE ll
ĠF oster
be y
be ast
Ġgl ancing
ove l
sp ecul
ĠR ose
ĠR ice
ens es
for mer
for bid
Ġfl ound
Ġfl ames
ink ling
Ġapp lied
ĠJ enkin
Ġpo le
act ic
act ions
ne igh
Ġimp ressive
Ġatt ained
Ġblack ened
gr ow
gr otesque
Ġcr acked
Ġcr owds
Ġcar av
Ġsur ge
Ġvis iting
Ġvis ibly
ret urn
Ġent ry
Ġent ries
av in
Ġexp lo
ĠSt ation
Ġres idence
Ġret ained
Ġhead less
Ġreg arded
Ġsk ies
Ġco ach
Ġdisc ussed
umb ered
Ġact ions
Ġopen ly
Ġland l
oud ed
Ġsw arthy
Ġdet ailed
Ġposs ibility
Ġposs ibilities
ung ent
Ġread er
Ġsil k
Ġcor rel
cept ions
Ġstud ent
Ġext inct
Ġbur nt
Ġdel usion
imp ressions
Ġcomp osed
Ġrel igious
Ġrel atives
Ġinst antly
Ġref erence
Ġmem brane
vel iness
Ġri pp
Ġsing ing
Ġbel t
Ġcare lessly
what ever
ĠU ltimate
ans w
pro v
Ġdev ast
Ġsqu atters
ides pread
Ġdiff erence
Ġsupp ressed
Ġmonstrous ly
bl asphem
Ġgi ves
Ġsecond ary
fe atures
Ġcoll oqu
Ġchar m
Ġru le
Ġir relev
Ġdr own
Ġtow ering
resh old
cend ed
Ġground s
Ġlegend ry
Ġaff ection
Ġchild ish
Ġund ec
Ġprof ession
Ġinterest s
Ġinterest ing
Ġstand ard
Ġce ase
ext reme
Ġpar ap
Ġpar agraph
Ġfoot falls
Ġhall way
Ġprev ailing
cur iously
Ġmod er
Ġsteep ly
Ġstart led
Ġsuper ior
Ġcrypt s
rec ord
ĠWith out
Ġ18 4
Ġconst ell
Ġconst ruction
Ġfac ing
Ġorigin ally
Ġty pes
Ġobsc ene
ĠAm ong
roll ed
Ġconv entional
Ġ17 7
oc ene
sur v
Ġscient ist
Ġforbid ding
Ġblind ly
odd ess
Ġtele path
Ġglo om
ĠWil mar
Ġcryst all
Ġlink age
ĠWhatele ys
Ġsli p
Ġmort als
Ġid le
Ġid ol
Ġtravell ed
Ġarri ve
ĠWas hington
Ġrevel ations
Ġinvestig ate
Ġemot ional
Ġmain ly
Ġacqu aint
Ġcommun ication
rehen sion
cor rid
scri bed
Ġhorizon tal
Ġghost s
Ġghost ly
cul able
Ġshr ines
Ġlif eless
Ġdecad ence
horror s
agon al
hie ld
Ġdetect ives
Ġexplore rs
Ġmood s
Ġgas oline
Ġcontr ary
brid ge
Ġforeign ers
Ġfragment ary
ste ep
nes ia
Ġess ence
ache te
Be fore
dire ction
Ġregret ted
Ġlat est
Ġuns uspected
ĠDes pite
Ġparaly sed
Ġtend ency
Ġgest ures
complete ly
ĠaÃ« roplane
Ġcred it
Ġsear ched
ĠEurope an
gener al
Ġengulf ed
Ġbull et
Ġcollap se
Ġpier ced
Ġshout ing
Ġmonstros ities
Ġdizz ily
Ġven geance
frag ments
Ġgal ax
Ġramb ling
Ġcaut iously
ĠSat an
Ġglist ening
Ġchuck le
Ġprecise ly
Ġtechn ique
Ġpropert ies
Ġsid ewalk
plan et
Ġcolle agues
Ġwre ck
Ġsevent eenth
Ġundert aker
count ry
Ġalc ove
ĠDob son
Ġawaken ing
Ġseam en
Ġuneas iness
cosm ic
incred ible
ĠCle arly
ĠArcha ean
doub t
sequ ences
Ġbree ze
Ġinev itable
Ġprosa ic
ĠWilmar th
? âĢĶ
A keley
D alton
E x
E ven
H thaa
M A
M arsh
O h
O ther
P res
R andolph
S e
V I
W al
Y n
b ank
b by
c a
e ke
e qu
f ree
f arm
f erence
g n
g ar
g ro
h oles
h ills
i as
i ge
i pping
l ad
l est
l aw
m or
m ock
m ountain
n est
n erv
o ge
p ublic
r ate
r ated
r ise
t es
t le
t ically
u ell
u pe
u ously
w ight
x es
Ġt um
Ġt rop
Ġt akes
Ġt ables
Ġt ubes
Ġa de
in o
in ate
in ating
in ction
in osity
Ġw are
Ġw icked
Ġs am
ou is
ou thern
ou ghed
Ġm aps
Ġm asters
Ġf est
Ġf ishing
Ġf ires
Ġc art
Ġc ord
Ġc unning
Ġc ousin
es tering
ar range
Ġd arted
Ġd ignity
as eless
Ġto ler
at hed
at ural
Ġin ert
Ġin form
Ġin formed
Ġin jected
Ġp acked
âĢ ²
Ġl ic
Ġl imp
Ġl ane
Ġl acked
Ġl ittered
Ġn avig
om a
om ar
ic kness
Ġha ow
Ġha gg
Ġha ze
ly sm
st ran
al ty
ow ley
Ġg utt
ld on
Ġe th
Ġe ase
se ll
Ġhe d
ac ement
Ġre ven
ur g
ur ied
Ġwh im
Ġwh ine
âĢĻ âĢĶ
ro bor
Ġse xt
ul sed
il ies
ill ars
ĠA nt
ĠA ustral
ĠA rabs
Ġv ag
Ġv ine
Ġy ell
Ġsu cked
Ġwere n
ĠS am
ĠS ally
ĠS ign
ĠS pr
ĠS everal
ĠH aines
lo ved
ear ly
ear thed
ist urbed
our ished
ĠW or
ĠW ay
ĠW ood
Ġcon ceived
Ġcon fined
her s
ĠC o
ĠM erc
ĠM organ
Ġso ap
ong rel
ate ful
os ure
ag o
ag ing
Ġkn ob
Ġpl aster
ĠB al
ĠB ol
ĠB enefit
ĠB atta
ĠO b
ĠO oth
ud ge
Ġro de
led ges
Ġbl azing
ĠD is
Ġqu iver
ĠP ri
Ġag g
Ġsc ru
Ġdis aster
ĠG ll
Ġcl inging
Ġcl umsily
Ġsha mbling
cc ess
ĠE arth
ĠE phraim
ĠE vidently
old s
ick ety
Ġgl ac
Ġen sued
sc ene
Ġper p
Ġfl utes
Ġfound ations
ink ed
ph osphoresc
Ġapp reci
Ġher itage
Ġrec on
Ġrec overed
Ġpr ism
Ġsl umber
act ually
ild erry
Ġsec l
Ġinc al
Ġch lor
Ġev oked
Ġcont ours
ĠY es
Ġint ol
Ġacc ent
Ġtri ump
Ġtri vial
av our
str icken
Ġnew com
Ġrep et
Ġrep uted
Ġrep orters
Ġrep utation
Ġflo at
Ġflo ors
ĠSt ate
Ġchan ces
Ġchan nel
Ġwork s
Ġcha otic
Ġreg ained
Ġco inc
Ġco herent
Ġco hort
Ġact ive
Ġact ivity
Ġsw ore
Ġsw ear
Ġsw ung
Ġsw elled
Ġfright fully
Ġread ily
utter ly
Ġpers piration
Ġplan ning
me as
ĠTh omas
com mon
Ġrest ing
Ġrest ored
Ġlow ered
ren ched
ĠWhat ever
Ġmet allic
Ġbur y
Ġbur row
Ġdel ivered
Ġrel ent
Ġrel ations
Ġrel atively
Ġdep ended
sh r
sh udd
Ġinv ent
Ġref uge
Ġinter min
Ġinter vening
over nor
Ġkeep s
ĠZ enas
rif ying
Ġdire cted
hor ribly
yl on
yl um
Ġgener ation
fe el
Ġwar n
Ġsol itary
Ġconf ronted
oun ce
Ġdr am
Ġdr ums
Ġtow ered
pre pared
Ġmark ing
Ġvar iety
des ert
des ign
des cri
Ġill um
Ġass igned
Ġtrans fer
Ġtrans ferred
Ġalien ists
Ġund ul
itch ing
otes queness
Ġphys icians
Ġmag az
asion ally
Ġcond u
Ġgrave ly
Ġsteep les
Ġlim its
Ġexist ing
Ġreve aling
Ġspect ators
Ġod or
inc ing
rec alled
Ġcut ting
Ġfac ial
vis ion
vis ited
Ġsusp ended
Ġhair y
Ġpain ting
Ġmove ment
omin ie
Ġdest ruction
bel ow
sur round
Ġtouch ing
Ġelect rical
Ġvol can
Ġconce ivably
can not
Ġgrow ths
Ġsculpt ured
olute ly
Ġlean ing
Th ough
Ġpal aces
Ġdisturb ance
Ġident ify
Ġgrass y
Ġmarvell ed
Ġmarvell ously
Ġcylind rical
go ing
Ġ3 0
Ġpuzz le
pass ing
abb led
Ġbrief ly
Ġghast s
ĠCapt ain
Ġseek er
Ġremark ed
Ġlan terns
Ġpictures que
chan ged
Ġwhar f
Ġunus ually
Ġgrand mother
Ġmalign ant
Ġstup or
Ġcommun ic
Ġcommun ity
Ġknock ing
Ġpract ice
Ġinflu ences
Ġclaw ing
Ġremo val
Ġreluct antly
folk s
Ġer ud
Ġdiv ine
Ġcorrespond ing
nor th
Ġlack ing
Ġhat red
Ġhabit ation
ĠAfric an
Ġmis sed
mark s
Ġbewild ering
ĠHer bert
Ġdescript ions
det ermined
Ġgran ted
Ġhesit ate
Ġslab s
lim inary
Ġav id
Ġhang ing
Ġdeliber ately
Ġintellig ent
Ġanaly se
ĠSp rague
ĠMexic an
Ġcomb ined
book s
mag n
Ġcy cles
Ġplun ge
Ġtroub les
Ġestab lished
Ġstick y
exper ience
Ġcurt ains
Ġgest ure
Ġinsect s
Ġintr ud
Ġnewspap ers
Ġham let
Ġautom atic
Ġrev ived
Ġascend ed
Ġapprehen sion
Ġawa ited
Ġwitness ed
Ġsatisf ied
care fully
Ġna ive
ĠGu ide
frag ment
ĠCor onado
gram me
cry st
Ġintens ity
Ġcatac ombs
Ġcobwe bs
Ġscramb led
Ġfanc ies
Ġhalluc ination
Ġbrill iant
legend s
ĠTem pest
Ġunexpl ained
escap e
Ġrelie ved
Ġmead ows
peri od
ker chief
Ġremn ants
Ġsyll ables
Ġwander ings
ĠFrancis co
Ġnorm ally
Ġfacult ies
wat ers
Ġunfortun ate
gard ens
ĠHop kins
Ġalpha bet
Ġineff able
ĠSund ay
ĠWed nes
Yn n
oge an
upe f
. .
. âĢĻ
1 0
1 2
2 0
A gain
C E
C om
D on
D enis
F inally
H aving
M ur
O R
R ogers
W he
a en
b ow
c er
c ities
d og
e ur
f o
f ed
i ber
k au
l an
l od
l aid
m us
m ake
n on
n ant
n one
n ake
p her
p led
r im
r ings
r ally
r usted
s lo
s ought
s ick
s ky
t end
t ts
u v
w ings
w orn
w atch
y gen
z o
z ing
z ra
Ã ±
Ġt on
Ġt ast
Ġt urban
Ġa pe
Ġa ided
Ġa rab
in ear
Ġo ars
re vel
Ġw ing
Ġw ard
Ġs agging
Ġs ledges
ou gl
ou rers
Ġb red
Ġb ough
Ġb ats
Ġm aze
Ġf iss
Ġf iled
Ġf ulf
Ġf ading
Ġf ountains
Ġc ared
it ated
it iveness
or ig
an ed
at re
Ġp un
Ġp iled
Ġp yramid
Ġp owder
Ġp ungent
Ġl ust
Ġl ions
Ġl ift
Ġn et
Ġn est
Ġh overing
ĠI pswich
al together
Ġg aps
ot er
ot hered
se em
Ġth umping
Ġth reshold
im age
id ance
Ġre nt
Ġre dd
Ġre fin
Ġwh ining
Ġwh ipp
Ġst er
Ġst or
Ġst able
Ġst urdy
am ily
Ġan at
Ġan ch
Ġan gu
ec ho
Ġnot ing
Ġnot withstanding
Ġse vere
ke pt
od orous
Ġr ings
Ġr ural
Ġr ush
Ġr isk
Ġr ickety
if orn
um ption
ind oo
Ġun real
Ġun bear
ĠS ound
ĠH olm
Ġor nam
lo st
us sy
Ġsp i
Ġsp at
Ġex it
Ġex ult
un s
Ġcon fin
ant iqu
ĠC ath
ĠC orn
Ġde fe
Ġde eds
ĠM uch
ĠM nar
Ġso ber
ig s
ig uous
pt ical
Ġup right
Ġout s
Ġout fit
os is
Ġman gled
Ġsh ift
Ġsh oggoths
hed ron
Ġpl ung
Ġpl atform
Ġwe alth
ak ers
Ġdo zen
ab led
ĠO onai
ort s
Ġro bed
of ten
Ġbl azed
ĠD el
Ġqu ar
ĠP eck
Ġpro b
Ġpro gramme
ĠN obody
Ġag ony
The ir
Ġsc re
Ġsc ant
Ġsc rawled
Ġany where
Ġdis missed
Ġcl ad
Ġcl icking
Ġcom mer
Ġover looking
Ġover looked
ment ioned
Ġtr im
Ġtr unk
ĠE ach
Ġj oke
Ġdes ired
Ġfe ast
Ġbr ide
ĠF riday
ĠL af
ness es
Ġam id
old er
Ġgl aring
Ġgl ances
Ġgl orious
Ġgl acial
hi er
hi ps
ĠR owley
for ced
Ġlong ing
sc attered
Ġfl owed
Ġfl ashes
ex am
ex cept
Ġob stru
Ġare as
ps y
oll en
ĠJ ack
Ġpr int
har p
Ġrem inis
Ġpre y
Ġsm oking
con cl
con vers
Ġk illing
Ġdream ers
Ġoff ering
ach ment
ach use
Ġcont our
Ġatt acks
Ġatt racted
Ġatt empted
iv orous
gr owing
Ġcr ash
Ġcr ouched
gg y
Ġsur ged
Ġdark er
ĠK ilderry
Ġad o
fin able
read ing
but ius
Ġend ing
ons ense
Ġchan ging
att ention
Ġown er
Ġres ent
Ġres ignation
ĠAs ia
Ġhead lands
Ġvo ids
Ġhar b
Ġdisc us
Ġthink s
Ġact ing
Ġact ivities
Ġcle ft
Ġste alth
Ġkind ly
com ed
Ġrest oration
Ġdeep est
Ġhideous ness
cept ible
Ġtre asure
pr int
ĠV al
ĠV alley
imp ort
imp ression
Ġcomp ared
Ġcomp rehe
Ġdep ression
Ġref r
Ġshew s
Ġda is
ug ues
Ġart ists
Ġart istic
clo sing
Ġexc ess
Ġshould ers
Ġsens ible
bl ue
dis appear
Ġsecond s
Ġcoll ected
Ġins anity
Ġchar red
ev olution
Ġmin eral
Ġdr unken
Ġdri ll
pre hens
arce ly
des cript
min ate
Ġcount less
Ġcount enance
co at
Ġve h
Ġalien age
Ġturn s
aster y
human s
Ġ2 2
Ġprev ent
Ġdisapp ointed
Ġsto le
pri ate
Ġdam age
Ġide al
Ġspot s
plic ably
ask et
?âĢĿ _
Ġfac ade
hand ed
Ġcell s
Ġinf re
Ġspir its
Ġpa using
long er
Ġmus cles
Ġchurch yard
Ġequ ipment
Ġexam ine
Ġexam ining
Ġaccur ate
Ġmorbid ity
Ġrad ical
tw ilight
Ġfle xible
nat urally
nam ed
Ġarch ways
Ġhop ing
Ġprot est
iment ary
ĠMan uscripts
mo ving
Ġswe ep
Ġsand stone
Ġsucc ession
Ġble w
Th rough
sec rets
ĠHow ever
Ġshore s
Ġguard ian
Ġident ified
Ġrust ic
Ġabnormal ities
unt arily
Ġmouth s
Ġvac ation
St ill
Ġdem ands
Ġanim ation
Ġdeg rees
ĠDe ath
Ġconsider ably
Ġmould ed
Ġobt ain
Ġhung ry
Ġstro ke
Ġphot ograp
ĠPo e
Ġconcl usions
Ġobser ve
col our
fall en
Ġling er
Ġ5 00
Ġinstinct ively
Ġfirm ly
dam n
Ġcoffin s
Ġbal d
Ġdiv ided
Ġparticular ly
imm ered
Ġterr ace
Ġlum inosity
Ġwitch craft
ĠOther s
organ ic
fright ened
Ġadvent urous
Ġbewild erment
ĠOut er
Ġoffic ers
Ġgn awed
Ġcho ose
shad owed
Ġrub ber
ĠLat itude
grand mother
Jo hn
rad ually
Ġfail ure
Ġloc ality
whis pered
Ġarrange ments
Ġthrong s
conc ert
Ġexchan ged
sil ent
sol id
ĠaÃ« rial
suggest ion
Ġtom orrow
Ġpond erous
Ġtransp ortation
dra wn
Ġuncom fortable
Ġscra ps
Ġdistingu ished
Ġsumm its
fig ure
pict ure
Ġliqu or
Ġpenetr ate
Ġpenetr ated
ĠWal ter
wond er
happ ened
Ġobl ig
Ġobserv ation
bury port
eal ous
lab yrin
Ġweed y
Ġcaut ious
Ġdecor ative
Ġresc ue
Ġphr ase
Ġphr ases
Eng land
Eng lish
cond ition
Ġinsp ired
Ġtemper ature
Ġperman ent
Ġretic ence
Ġneat ly
Ġdeaf ening
ĠPort ugues
fab ulous
Ġhudd led
Ġnit rous
Ġdecre pit
itud es
hell ish
Ġnour ishment
ĠSec ond
ĠAtlant is
Ġtacit urn
ĠWa ite
ĠFry e
bew ild
Ġdru gs
nightm are
Ġdevast ating
ĠBol ton
ĠWednes day
Mur do
kau ba
Ġarab es
ougl as
Ġwhipp oorwills
iforn ia
achuse tts
ĠPortugues e
2 9
C apt
D en
E rmengarde
H er
I s
M ost
N yarlathotep
O U
O ur
S uch
W here
Y og
a ire
a har
b as
b ad
b ir
b led
b any
d ared
d ied
d rew
d ogs
e ing
f urn
f resh
f ires
g ly
g ods
g rew
h t
h ol
h um
l at
l our
l ap
l ines
m ble
m erely
n od
n ate
o e
r ud
s outh
s oul
s urely
t all
t oms
u pp
u let
w ord
w ife
y les
z ily
Ġt ied
Ġt ors
Ġt averns
he nt
in al
Ġo aks
re ally
re ach
Ġw et
Ġw omen
Ġw idespread
Ġs illy
ou st
Ġb ill
Ġb oring
Ġm ul
Ġm alevol
Ġm achete
Ġf ought
Ġf angs
Ġc ache
it ute
or al
or iously
is ly
is ions
is man
ar ms
ar ians
Ġd in
Ġd re
Ġd ress
Ġd umb
Ġd orm
Ġto ps
an throp
Ġin no
Ġp ace
Ġp uff
Ġp ushing
Ġl aun
om atic
le ans
le ading
st ir
st ars
st rang
st retched
Ġg ale
Ġe con
Ġe po
Ġe gress
Ġhe aps
ent inel
ac qu
ve t
id al
ion e
Ġre ct
Ġre igned
ur rying
Ġst umble
et eenth
Ġit em
ad el
am ble
ce mber
Ġan ted
ous ing
th r
th under
il it
ĠA c
ĠA zathoth
Ġv ic
Ġv ile
od es
ol ve
Ġr ay
Ġr ite
Ġr ouse
Ġr acing
Ġr ushing
Ġme ll
Ġbut ler
ra ge
Ġun he
Ġun rest
Ġun ique
Ġun mentionable
ĠS chool
el se
res ist
Ġwhe el
Ġwhe ez
est ic
ĠH art
ĠH indoo
lo g
Ġsp ade
Ġsp lit
Ġsp asm
ast ered
Ġall ow
Ġex erc
ĠW ing
ĠW ater
ĠW hile
ant ations
ust ere
ĠC ome
ĠC ap
ĠC airo
ĠM ark
ĠM evana
Ġal ter
Ġout spread
Ġsa ving
ack ing
Ġpl acid
ĠB ay
Ġdo ings
ond ay
Ġwor thy
Ġro ar
Ġro bes
li ved
Ġar c
Ġar med
Ġbl ur
Ġlo veliness
ĠD en
ĠD ouglas
ĠP hil
ap id
Ġpro visions
Ġdis like
Ġdis miss
ĠG round
Ġcl ub
Ġsha me
Ġfe ature
Ġam p
Ġam used
be ams
ĠR ou
ĠR ue
sc r
Ġfl ag
Ġfl ashing
Ġfound ed
ph it
ph ot
ru ck
Ġform ation
hen ce
Ġrec ently
har med
man uscript
Ġpo ols
Ġpre ferred
Ġpre liminary
ber ing
Ġlight er
ord er
Ġpart itions
Ġch orus
Ġcont ro
Ġcont ag
Ġnor theast
te le
te br
te enth
ĠY e
ows ki
Ġcr amped
Ġsur ging
Ġwell ed
Ġtri al
ĠK n
Ġad min
str own
br ous
Ġdec aying
Ġreal isation
Ġsub sequent
Ġsub sided
Ġflo ck
Ġgu idance
ĠSt an
my ster
Ġres erve
Ġpres erve
Ġpres ervation
Ġwr ist
Ġtell s
Ġdisc erned
umb ers
az z
Ġcour ts
Ġcle aring
Ġsw arm
Ġste al
Ġdet ected
Ġaw akened
Ġmoment arily
Ġbu y
ped ition
ener y
ey e
Ġplan k
ĠTh ousand
Ġrest lessness
Ġlow est
Ġsle nder
Ġcor pses
Ġlater al
vers ing
Ġinde finite
no xious
Ġmar ch
Ġrel ics
sh ot
cle us
olog ic
raw l
Ġem inent
ĠU ll
Ġexpl orations
Ġsn ap
Ġind ust
Ġfore father
rew d
iss ion
some where
pro of
Ġshad es
Ġsudden ness
Ġexc ite
Ġexc use
Ġsupp lement
Ġwood land
Ġmere st
Ġuse ful
let on
Ġser iously
Ġtra verse
fe eling
ĠWill iams
Ġconf ident
alt es
Ġ19 30
aut hor
Ġpol it
Ġcre ep
Ġvar i
Ġadd ress
min ating
Ġve ter
Ġsecret ive
Ġlab oured
Ġprof usion
set se
Ġbas ic
Ġmag ical
ĠYou ng
Ġche cked
ĠNew port
Ġfell er
Ġescap ing
ax on
Ġ2 3
po or
reg ion
Ġpan or
pri ests
Ġorgan ised
Ġpat ches
Ġ18 7
fort ably
oles ale
Ġpa ved
Ġgro ped
Ġopp ressive
Ġdra gging
Ġmorbid ly
Ġsett lers
dist inct
ump led
Ġconv iction
Ġarch ives
Ġhop eless
Ġhop elessly
Ġconce ive
pres ented
wood s
Ġdw ar
Ġblind ing
Ġmir age
Ġdesert ion
Ġswe eping
Ġlangu ages
Ġang led
Ġfif th
Th ose
Ġhur ry
Ġdisp os
unt il
unt ary
Ġte eming
part y
Ġ3 00
Ġsli pping
cr umbling
Ġprop osed
Ġsail or
Ġbreath less
bo x
Ġvivid ly
Ġtang led
Ġproc ession
Ġsurv ive
Ġeight eenth
Ġetern ity
bes ide
nal ia
Ġclut ch
Ġemer g
Ġthunder storm
ĠPo er
Ġinvestig ations
Ġfort ress
Ġfort une
Ġconcl usion
Ġscr atching
Ġinqu iry
Ġoutl ined
Ġpip es
Ġperil ous
Ġeager ly
dec ided
Ġsuc ceed
Ġhieroglyph ics
Ġfast ened
vil inear
Ġhon est
Ġalarm ing
Ġterr ain
Ġlif et
Ġlif ted
imag ination
tran sp
Ġann ihil
Ġsurround ings
Ġpsych ology
Ġsou theast
Ġfun ction
Ġexplore r
Ġcust oms
Ġgas ped
Ġteleph oned
Ġgn arled
Ġpray er
hist ory
Ġsad ly
Ġhesit ated
Ġadm iration
Ġtong ues
Ġhang ings
ĠMore over
Ġshiver ing
occ urred
Ġsway ed
Ġrequ ire
Ġwhir ling
Ġvig orous
Ġceremon ies
Ġdut ies
near ly
Ġcy cle
Ġmel ted
ĠEgypt ian
Ġloc ation
Ġoccup ied
mpt oms
Ġdise ased
ĠPr att
Ġchemical s
recogn ised
Ġpedest als
Ġaven ue
Ġaud ible
ortun ately
Ġenem ies
creat ures
Ġgovern or
Ġsumm ons
fig ures
foll owing
Ġyield ed
Ġawa iting
pict ures
Ġdizz ying
friend s
Ġcam era
Ġperplex ed
Ġrept iles
bus iness
Ġbi ological
ĠLong itude
Ġglist ened
Ġcelebr ated
Ġlog ical
spir it
Ġsket ches
Ġpropert y
Ġmathem atical
Ġmathem atics
Ġmurder ous
heav y
ĠSw ami
fac et
Ġinspect ion
ĠCount y
Ġhypnot ic
Ġnur se
ĠRh ode
Ġreverber ations
Ġseiz ure
Ġexhib ition
agr ams
Ġpron ounced
Ġpresum ably
proport ion
Bl ack
ĠHal f
Ġscri pt
inex plicable
beaut y
Ġassist ant
Ġpadd ing
Ġunlo ck
Ġshru bbery
consider able
Ġcrab bed
accom pl
Ġabomin able
Ġweap on
ĠBrid ge
Ġimpass able
grou p
obsc ure
Ġindep endent
Ġox ygen
ĠLi brary
Ġintric ate
tent acles
Americ an
fail ure
fasc inated
Ġwist ful
Ġbelf ry
Ġmegal ith
Ġexagger ated
Ġpretern atural
Ġprecaut ions
Ġfatig ue
Ġavail able
Ġtiar a
Ġdub ious
ĠTran s
blasphem ous
Ġtelepath ic
Ġhagg ard
Ġsext on
ĠSpr ing
ĠBal butius
prehens ible
ahar na
Ġepo ch
1 7
A A
B ook
C an
C thulhu
E E
M arch
M any
M iskatonic
M arceline
R oman
S T
S urama
S quire
a es
b olt
c if
c aut
d ent
d ened
e as
e us
e lder
f ted
f ears
f ixed
g or
g ers
g ate
h undred
i age
l ow
l ined
l oud
l ah
m ot
m ound
m echan
n ivorous
o ir
o ves
o cean
p oke
r Ã©
t im
t ry
t ale
u ke
v ard
v ity
w are
y d
Ġt ar
Ġt rag
Ġt icking
Ġt avern
he aven
Ġa pt
in side
in flu
re pt
re pe
re aching
Ġw in
Ġw iz
Ġw ailing
Ġs od
en ith
Ġb rave
Ġm a
Ġm ig
Ġm orn
Ġm ines
Ġm ourn
Ġm ongrel
Ġf et
Ġf ert
Ġf oss
Ġf resco
Ġc ore
Ġc res
it i
it ter
it ched
or ously
is p
is ations
ar an
ar ri
Ġd ens
Ġd omed
Ġd ots
Ġd ressing
Ġd roning
Ġto ols
an ke
an ak
ll er
at ches
at eness
Ġin ject
Ġin ky
Ġp urely
Ġl id
Ġl ure
Ġl att
Ġl apping
Ġn onsense
Ġh ue
Ġh ook
om ination
le aving
st ell
st ers
st ream
Ġbe aten
Ġg ang
Ġg oddess
Ġe ll
se ized
se eking
ut able
ent in
id able
id dle
Ġst ained
Ġst raw
Ġst ern
ver ing
Ġu l
Ġu lt
Ġu gly
ad ays
ad ox
am orph
ter ror
ay ette
ore al
ul ating
ĠA k
Ġv ice
Ġy ours
Ġr otten
Ġr owers
Ġr ises
ard man
Ġme al
ind ict
Ġun used
Ġun told
ĠS urely
ĠS imon
ĠS altes
res olved
Ġor deal
Ġor nate
ist ered
Ġsp ire
ast rous
Ġall eg
ĠW ich
ĠW ind
ĠW estern
un ting
Ġcon ical
Ġcon str
Ġcon venient
ĠC ertain
ĠC rown
ĠC ape
Ġde ceased
ĠM ary
ĠM ason
ĠM err
Ġso ared
Ġso ciety
Ġal armed
ig hed
ate ur
Ġ. _
os cop
ag re
Ġman ia
Ġsh rank
Ġsh oes
Ġsh rewd
Ġle af
Ġpl astic
ĠB ruce
ab normal
ep hen
ĠO uk
Ġthere by
ort on
are t
are ts
li que
li brary
Ġar ches
Ġar can
Ġbl otted
Ġlo af
ĠD agon
ĠD wight
ĠP ol
fore st
Ġpro str
Ġpro voc
ĠN ile
ĠN either
Ġag on
Ġag ency
ĠG awd
pl ayed
Ġcl ing
Ġcl ues
Ġgr asped
Ġgr isly
ment al
ĠE astern
ĠE zra
Ġbr u
Ġbr ass
ĠF ear
ĠL avin
ĠL omar
Ġam az
Ġam iss
Ġam use
Ġam nesia
old en
ater nal
sp ic
sp awn
ĠR es
ĠR ussy
end icular
Ġper verse
Ġfl ies
ru ins
ru ctions
Ġcur vilinear
Ġher ds
Ġher mit
Ġfar mer
Ġfar ms
Ġrec ur
Ġrec esses
Ġpr ow
Ġpr one
Ġsl ain
ĠIn n
ĠIn st
Ġpo ets
Ġpo ignant
Ġdist ances
de f
de v
Ġbo ast
ys on
act ive
Ġpe al
ne ed
Ġstill ness
Ġimp ious
anc est
int endent
aw ful
Ġhand kerchief
Ġch urning
Ġev as
ĠY ek
Ġblack est
not es
Ġcr umbled
Ġcr imin
Ġcr umpled
Ġacc um
Ġsur g
Ġvis cous
Ġtri be
Ġad just
Ġdec k
ĠSt range
Ġchan ted
Ġac ted
Ġac rid
ip ing
att ic
Ġca ved
ific ations
Ġsw am
Ġstr ata
Ġmoon beams
Ġpers istence
Ġocc asions
me aning
com p
vers ions
pr ous
Ġdel ic
Ġcomp et
Ġfoll ows
ane ous
Ġrel ig
sh op
Ġtalk s
cle arly
Ġlay er
Ġinst itution
Ġref usal
Ġblo ck
Ġblo cked
Ġinter val
Ġinter mitt
Ġda emons
Ġem iss
Ġcare er
Ġeff aced
pro found
Ġshad owed
Ġdev oted
Ġsqu ares
Ġcons umed
ĠAll ister
ĠZ kauba
Ġtran qu
Ġant icip
Ġlear nt
Ġfriend ship
Ġcoll ect
uff ed
Ġconf essed
Ġconf erence
imal ay
ev ent
Ġpict ured
Ġir rit
Ġhapp ening
Ġdr astic
Ġdr unk
lt ered
Ġfr own
Ġwat cher
emon ium
Ġill usions
Ġadd ressed
Ġclim ate
Ġbar bar
Ġass ume
co very
Ġve ined
Ġve iled
Ġtrans ient
Ġap ex
Ġshock ingly
Ġce aseless
Ġpar lour
ĠShe ehan
mouth s
reg ions
Ġhall s
she lves
cur iosity
Ġmod e
Ġtable t
amb a
sing le
after ward
Ġorgan isms
Ġsuper nal
Ġmed ium
Ġbri ers
Ġpat he
Ġcommon place
Ġrecogn ition
Ġinf erior
ĠAl so
Ġsearch light
Ġincre ase
Ġrepe ating
ĠAm idst
Ġtrave ls
Ġsuff iciently
tw isted
Ġdest ined
Ġra ising
vi olet
sur pr
Ġhop es
Ġdawn ed
rit us
pres ence
olph ins
Ġprot ection
Ġsubt ler
rop olis
certain ly
sub ject
sub stance
Ġsand y
odd ing
Ġglo omy
ĠOr leans
Ġtrad ers
Ġmotion less
Ġdisp ers
Ġnecess arily
Ġrid ing
Ġrust ed
Ġrust ics
pha s
Ġancest ry
Ġdem aterial
ĠUn cle
pass age
Ġsnow y
Ġgle am
Ġunderstand ing
Ġneg lect
Ġremark s
Ġpock ets
Ġforest s
Ġz enith
Ġaccom pany
Ġdef ence
Ġpost p
Ġpill ared
Ġemer ge
met al
serv ants
Ġcop ies
Ġcop ied
Ġpi ec
Ġstrugg led
Ġinqu is
Ġge ologic
Ġeast ward
col oured
Ġdamp ness
Ġmagn etic
Ġclass ic
Ġclass ify
cor pse
cor respond
Ġalt ars
Ġalt itude
Ġvit ality
Ġsick ened
Ġleg ions
conce aled
bro od
Ġbelong ing
Ġsuccess ful
Ġfiend ishly
Ġdisappear ances
Ġinex plicably
Ġann ounced
Ġchim neys
Ġwel comed
Ġcott ages
Ġcontr ast
Ġartic les
far ther
Ġcru el
Ġrhythm ic
Al ert
ĠEx ham
Ġmeaning less
Ġcro aking
Ġceremon y
mind s
mind ed
Ġclust er
dire ctly
pur g
âĢĶâĢĶ âĢĶ
Ġvist a
Ġflood ed
Ġritual s
Ġlaugh ing
Ġshif ted
Ġtrick le
build ings
sens es
Ġaim lessly
Ġrece ive
Ġconqu er
Ġpoet ry
ĠMc Murdo
close ly
Ġsplend our
Ġlabyrin ths
sa fe
Ġprecipit ous
Ġdiam ond
coll ege
foll owed
Ġcollap sed
Ġbell s
tor ch
Ġlun ch
Ġisol ation
post s
Ġgall e
Ġthreat ened
Ġrept ilian
Ġclam our
Ġphilosop h
Ġphilosop hy
Ġemplo y
bod ied
Ġcatac lysm
Ġhurried ly
Ġidi ot
shock ing
Ġpad locked
Ġbeck oning
Ġwhit ish
Ġramp art
Ġmajor ity
signific ant
signific ance
Ġexter ior
Ġdoc ument
ĠOri ab
Ġcompl ained
Ġsymp athetic
Ġsom bre
Ġpercept ibly
Ġ190 8
fash ioned
Ġaur a
Ġachie ved
Ġreanim ation
Ġarrest ed
clot hes
Ġpalae ogean
mach ine
ĠFe ldon
Ġstif ling
artic ulate
begin ning
Ġincom prehensible
reve aled
Ġhoney com
ĠGard ner
ĠRem ember
Dan forth
Ġaesthe tic
Ġfare well
Ġpand emonium
Ġhered itary
Ġraven ous
Ġorg ies
Ġ169 2
Ġocto p
ĠTel oth
Ġunpl umbed
Ġindist inct
Ġgnaw ing
Up on
furt ive
Ġic y
Ġtip to
Ġvesse l
ĠCent ral
ĠColl ege
Ġprolong ed
ĠEll ston
forbid den
prov ided
Ġcolloqu y
Ġirrelev ant
eke li
arrange ment
stran ger
Ġgutt ural
Ġreven ge
Ġincal culable
Ġintol erable
uv ian
Ġbough s
Ġspi ky
Ġouts ider
Ġplung ing
ĠLaf ayette
convers ation
Ġcomprehe nd
descript ion
Ġlifet ime
cif ix
ĠMerr itt
ĠOuk ran
Ġarcan a
ĠYek ub
! âĢĻ
. )
A I
A R
A use
B oston
G o
H ad
M ar
M ay
M art
N ight
O G
O r
R e
T ig
T wo
V ery
W h
a is
b est
b ones
b bered
b urning
c ere
c amp
d ig
d led
d ang
d rag
f a
f ut
g ra
g own
g raph
h ung
i pe
k lah
l one
l atter
m und
m aster
n in
n ib
o ce
p ening
p uzz
r owed
r ison
r hythm
s al
s ized
s now
s harp
t ings
t averns
u h
u an
u ate
v ig
w ear
w alk
w atched
w atching
Ã ¦
Ã ¼
Ġ rom
Ġ ich
Ġ âĢĿ
Ġt act
Ġt ail
Ġt ents
Ġt roll
Ġt ested
Ġt iers
Ġt setse
he ro
he ight
Ġa ug
in us
in finite
in oc
Ġo ily
Ġw ounded
Ġw iped
Ġs ed
Ġs ly
Ġs cho
Ġs ession
Ġs ections
er ving
ha ir
ou ter
ou rag
en ced
Ġb ra
Ġb othered
Ġm umbling
Ġm amm
Ġm antel
Ġf und
Ġc ard
Ġc av
Ġc ours
Ġc ounted
it ors
or ian
or ie
is ive
Ġd iver
Ġd irt
as ked
Ġto il
an ning
an ek
an cho
at han
Ġin her
Ġp ert
Ġp ark
Ġl ux
Ġh ing
Ġh ut
Ġh ind
Ġh uts
Ġha ouse
le vel
st re
st ar
al ive
al though
Ġbe et
ot ch
Ġe ating
se y
Ġhe v
Ġhe wn
Ġhe eded
ut ted
ut her
ut ting
Ġth o
ent ered
ent ially
ac cursed
ve get
id oscop
Ġre in
Ġre el
Ġre actions
ur ches
ur itan
Ġst ately
Ġst uck
Ġst alked
Ġst unned
et z
et rable
ĠT H
ir ling
ter ogeneous
Ġas ylum
Ġan alog
the st
Ġhis sing
Ġnot able
rom atic
Ġse al
Ġse lect
Ġse lected
ke ys
il uvian
ch im
em por
od ay
Ġr ug
Ġr acked
if ting
ard on
qu ality
Ġbut t
ra oh
Ġun end
Ġun human
Ġun iversity
Ġun speak
ĠS ch
ĠS ime
ĠS ub
ĠS aid
ĠS arg
ĠS cience
pp led
el iness
el come
est ones
est ead
ĠH a
Ġor char
lo ve
our ce
ast y
Ġall owing
ĠW is
ĠW ild
Ġcon es
ell ery
out ing
Ġde w
ĠM ic
ĠM un
Ġso ph
Ġal b
os a
Ġsh ield
Ġsh iny
Ġsh ovel
ĠB o
ĠB oth
ĠB apt
ĠB oyle
ĠB rook
ond er
ort ing
Ġro ot
op ular
Ġmore over
Ġbl ight
Ġbl own
Ġbl uff
Ġbl asts
ĠD ay
ĠD ec
ĠD utch
ĠD ominie
ĠD yson
Ġqu ant
ĠP le
Ġpro s
ĠN ir
ĠN aturally
Ġany way
Ġdis concert
ath omed
ĠG amba
pl ateau
Ġgr otesqueness
Ġover grown
Ġover wrought
Ġover mantel
Ġsha ky
Ġthan ked
per ate
per man
Ġtr act
Ġtr unks
Ġshe ep
ĠE le
Ġj elly
Ġdes p
Ġfe ed
Ġfe bri
Ġbr ush
ĠF ore
ĠF rance
ĠL ouis
ick s
be a
be it
be gun
Ġgl ared
Ġgl ided
Ġwhere ver
ci er
ft en
Ġen ig
Ġlong ed
sc arcely
Ġknow ed
Ġfl ow
ph s
ph one
Ġcur ling
Ġform idable
Ġpr ice
Ġsl id
Ġsl am
ĠIn to
wh y
wh om
Ġour s
de velo
de fined
Ġpre fer
Ġbo bbing
Ġter m
Ġmo ist
Ġmo aning
ild ed
ple as
ne k
Ġnever theless
Ġoff ensive
Ġgre ed
elt y
Ġinc o
Ġhand le
iv ation
Ġmon astery
gr ace
gr ass
Ġcr one
Ġcr ime
Ġint ention
ars on
mb led
ict ory
Ġwell s
Ġent ertain
Ġad orn
fin ally
Ġdec ade
ting u
Ġsub mer
Ġsub sequently
ĠSt ar
ip hered
Ġres igned
Ġret ain
Ġca uses
Ġco il
Ġco ok
ek ed
Ġlet ting
Ġjust ice
Ġsw ine
Ġste althy
cl ut
cl iff
Ġaw aking
Ġstr ay
Ġstr aining
Ġread ers
ale idoscop
ob t
ĠAt wood
Ġwa ving
Ġhere abouts
Ġcor usc
Ġinde finitely
Ġfo am
su ccess
Ġsun rise
enc ing
pr im
pr imal
Ġsight ed
Ġext end
Ġcent uried
Ġdel ved
Ġcomp rehension
Ġcol ony
Ġlar gest
Ġrel ative
Ġdep icted
sh ut
sh ots
Ġem itting
Ġdoub led
ank s
Ġind ul
Ġwild ness
Ġneed le
fl ung
Ġdev ised
Ġdev ote
Ġpur sue
Ġdiff erences
Ġlead s
Ġtem pest
Ġsy mmet
yl van
let ters
Ġsent ry
Ġins ol
uff ling
ĠNo va
Ġpoint ing
Ġcre v
Ġed ged
Ġed ges
Ġill imitable
Ġunc han
Ġunc outh
Ġview s
under stand
Ġpri ory
ĠInd ia
Ġund en
Ġund isturbed
spect ral
Ġaut hent
Ġche er
Ġche ck
Ġche eks
ĠNew buryport
Ġfather s
Ġfre ak
Ġeas ier
Ġcast ing
vo iced
po id
reg ational
Ġconc ave
Ġspeak s
Ġpan els
sha ven
sha ken
even ing
tr acks
Ġorgan ism
Ġmist aken
ands on
plic ity
plic ated
aff ected
Ġprom inent
ĠWith in
Ġpat ri
sm elling
Ġfarm ers
Ġbre aking
Ġbre eding
uth in
Ġthick er
Ġbest ial
ann ah
gu ess
Ġsusp ense
Ġbreat hed
Ġinf ant
ĠAl ways
ĠAl bany
ograph s
ograph ical
Ġmass ed
Ġtop most
down ward
dist urbed
dist ingu
Ġcult ure
Ġmaterial s
Ġfant astically
Ġsuff ering
Ġconv ince
vi ol
Ġfan atic
Ġfan atical
af raid
aim ing
Ġprot ecting
Ġempt ied
odd ly
Ġobscure ly
dream er
car ved
car ried
Ġpal m
Ġpublic ity
Ġfab ric
Ar thur
Ar mitage
Ġweird ly
Ġpleas ing
Ġemb od
Ġemb arked
cr owd
Ġanim ated
Ġbreak fast
Ġvault ing
Ġradi ant
ĠDe cember
might y
Ġunf olded
Ġjud gment
Ġetern ally
belie ved
Ġpot ential
bu ilt
stru ck
stru gg
Ġthunder ous
ĠCom pany
serv ant
hel p
Ġtrem endously
Ġpursu ed
Ġpursu its
Ġstation ed
Ġmat ches
Ġassoci ate
Ġassoci ations
Ġmock ingly
Ġmock ery
Ġbold ness
Ġinstinct s
Ġinstinct ive
Ġuncann ily
Ġtim id
lar nek
Ġjour nal
Ġ191 5
Ġ191 9
Ġbal ance
Ġcorrespond ent
Ġshr ine
tran sl
Ġhabit ual
sect ing
Ġsquat ting
Ġmeas ured
Ġextreme ly
Ġgri ef
Ġcro cod
Ġpet rif
Ġlad en
ĠMore house
Ġsuspic ions
diff icult
occ up
ste in
Ġrever sed
Ġtreat ment
Ġwhir l
hipp ers
An other
Ġmult i
Ġmult ip
usp ic
Ġbark ed
spe ech
Ġhappen ings
Ġcurt ain
ĠFen ham
Ġshant aks
Ġunw illing
ĠDo ctor
Ġmesseng ers
ĠQu entin
Ġreck oned
Ġimper fect
ĠRom nod
Ġlap se
ustr ated
supp ly
Ġautom atically
appro ached
Ġtowns folk
Ġwis dom
Ġpier cing
Ġking dom
Ġreflect ing
Ġlun ar
Ġven om
wond ered
Ġcup board
Ġreass uring
Ġsilhou ette
lab oratory
pa ved
Ġliter ally
Ġsurviv or
Ġsurviv al
Ġpositive ly
Ġluck y
Ġrecoll ections
xim ity
Ġgasp ing
Ġsket ch
vague ly
gold en
Ġscept ical
Ġnin eteenth
Ġwhist ling
Ġperman ently
Ġdepos it
sat isf
Ġing en
Ġtal isman
oz o
child ren
ĠCal ifornia
Ġprepar ation
Ġduplic ate
fre quent
Ġtough ness
Ġbord er
Ġlon ge
Ġdoc uments
corn er
lear ned
Ġga it
Ġsoot hing
Ġpurcha sed
Ġridic ule
Ġbubb les
Ã¡ n
Ġment ally
Ġinscript ion
Ġinscript ions
ĠTan ner
Ġank les
thro poid
Ġunimag inable
ĠSte ve
Ġsurm ounted
Ġdrows y
Ġdegener ate
pap er
Ġbond s
Ġgeomet rical
mill ion
Ġoo ze
Ġmaid en
Ġhal ting
Ġconj ured
Ġshutter s
perfect ly
Ġamb iguous
Ġimpat ient
ĠQue en
Ġprinci ple
Ed ward
ghoul s
ĠOs born
Ġincess ant
hemist ry
Ġopportun ity
ĠHor ror
ĠMass achusetts
Ġmagnific ent
Ġvamp ir
ĠCast ro
Ġscholars hip
Ġloung ers
Ġgenealog ical
Ġeer ie
ĠMer win
ĠItal ian
ĠDav is
grow th
Ġacquaint ance
Ġade quate
Ġeth n
ĠAustral ian
Ġquiver ing
ĠPri ory
Ġprism atic
Ġsecl usion
Ġdram atic
cryst al
Whe ther
Ġton ight
Ġredd ish
ĠCath uria
hier ogly
Ġveh icle
Ġinfre quent
Ġphotograp hed
yles bury
Ġtors o
Ġmell ow
Ġforefather s
repe ated
Ġwiz ards
Ġhoneycom bed
Ġoctop us
Ause il
klah oma
ancho ly
ĠSarg ent
Ġfebri le
. âĢĶ
: âĢĶ
A re
A cc
B ar
C H
C h
C y
C ur
D un
E T
E l
E ING
G ood
H ar
J ames
L ook
M ad
N ever
S ee
T ha
a Ã«
b i
b ab
b right
c at
c ious
c ru
c avern
d ling
d iv
f ly
f ever
f light
f urther
g at
g ressed
h ig
h uge
i el
i ery
j ar
k ill
l ower
l angu
m ile
m ult
m useum
m ma
o on
o ard
p ot
p ain
p ents
p ros
p ron
p osition
r r
r un
s hat
s ong
s pl
s ave
s ides
t is
t ot
t ion
t ong
t rying
t alked
u in
u ity
u pper
v ious
v ised
v alley
w ed
w ave
w ors
y man
z a
Ġ Ã
Ġ urban
Ġ version
Ġt ene
Ġt ug
Ġt attered
Ġt ests
Ġt ainted
Ġt ugged
Ġt issue
he me
Ġa ustere
in str
in els
in arily
Ġthe e
re port
re semb
Ġw ha
Ġw ants
Ġs ord
Ġs uthin
nd ing
ha ired
ha bea
ed ly
ed ge
Ġb one
Ġb attered
Ġb enefit
Ġb enches
Ġm it
Ġm arsh
Ġm uddy
Ġf ol
Ġf ence
Ġf aun
Ġf iles
Ġf umbled
Ġf illing
Ġf rig
Ġf uel
Ġc ure
Ġc asket
on ted
es e
or se
or ia
is c
is l
Ġd om
Ġd inner
Ġd azz
as ies
an ge
at has
Ġp ic
Ġp ious
Ġp atch
Ġp acing
Ġp ulse
Ġp awed
Ġp ione
Ġl ull
Ġh ood
Ġh unted
Ġh ipp
om br
om eness
ic i
Ġha n
Ġha il
Ġha ff
le ast
st ra
st ep
st op
st air
st ories
al p
ow en
Ġbe acon
Ġg erm
Ġg arg
Ġe h
Ġe re
se l
se x
se ven
Ġhe y
Ġhe ath
ut ral
ve iled
Ġre du
ur ably
Ġwh olesale
Ġst umbling
Ġst aff
Ġst upef
ro e
ro dden
ĠT w
ĠT ha
ĠT ell
Ġas certain
ec hes
th od
th ird
th ousand
Ġnot icing
all ow
all owed
and y
and om
ul ent
ul ity
il ted
il ment
ill er
ĠA ylesbury
Ġv estig
ĠThe od
em er
od our
ol ed
ol ated
Ġr he
Ġr ash
Ġr umbling
Ġr attle
Ġr agged
Ġr andom
Ġsu ic
Ġun ner
Ġun ison
Ġun even
Ġun earthed
Ġun harmed
ĠS or
ĠS le
ĠS nake
ĠS entinel
pp ling
el ong
ĠH ist
ĠH ell
ĠH ope
ĠH ills
ĠH imalay
ĠH annah
Ġor b
lo cal
ist ency
us ual
Ġsp ades
Ġall e
Ġall ied
ĠW ise
un seen
un conscious
un mistak
Ġcon g
her man
ĠC ur
ĠC hand
Ġde ed
Ġde em
ĠM ed
ĠM on
ĠM ac
ĠM ess
ĠM il
ĠM ather
Ġso ck
Ġal co
pt uous
Ġout rÃ©
Ġsh immering
Ġle prous
Ġis le
Ġis let
ran ging
Ġpl acing
Ġpl aza
Ġwe athered
ĠB ed
ĠB aharna
ĠO dd
ĠO ften
Ġro bbed
are rs
Ġyou ths
li x
li est
Ġar che
led ged
Ġbl ess
Ġbl ows
Ġbl owing
ĠD et
Ġqu art
ĠP ress
ĠP urdy
ĠP illars
ap sed
Ġpro jected
Ġpro ceeding
ĠN ar
Ġsc are
Ġsc atter
Ġsc reen
Ġim plications
Ġim meas
Ġany how
Ġdis astrous
ĠG overnor
pl er
pl ing
pl ain
ish ness
Ġgr ows
Ġsha bby
Ġnow here
Ġtr u
Ġtr ump
Ġtr usted
ĠE m
Ġj u
Ġj er
Ġj ar
Ġj ob
Ġj ade
Ġj umped
Ġj umble
Ġfe vered
Ġbr ow
ĠF inding
ĠF ortunately
ĠL o
ĠL ess
ĠL ast
ĠL ife
ĠL ie
ĠL aw
Ġam ulet
Ġam ateur
be held
Ġgl ories
ft s
sp oke
ens ity
sc ale
Ġfl ute
Ġfl ower
Ġfl apped
Ġfl abby
ex act
ex isted
ex pect
Ġapp e
Ġapp ointment
oll ow
ire less
Ġform al
Ġcan nib
Ġfar thest
Ġrec overy
Ġrec eded
Ġpr aying
har bour
Ġday time
Ġpo ised
Ġpre m
Ġpre jud
Ġbec omes
ber gen
Ġback s
Ġpe ep
Ġpe ering
Ġpe asant
Ġpart ies
Ġsomet hin
Ġthought ful
Ġimp ly
Ġimp ress
ult an
Ġsec urity
Ġinc line
Ġhand led
Ġch urches
Ġey ed
Ġcont empl
Ġnor therly
ĠY anke
Ġblack s
not ice
gr asp
ub itably
Ġint rodu
Ġcar go
Ġcar pet
Ġunder gone
Ġgo at
Ġtri but
ĠK anak
Ġnear ness
Ġnew er
br other
Ġrep air
Ġdec ayed
Ġsub jected
Ġgu g
Ġac know
att ened
Ġwork shop
Ġcha ined
Ġhead quarters
Ġca using
erv oir
umb lings
Ġjust ified
Ġstone work
Ġnothing ness
Ġopen ings
Ġsw itch
Ġsw ollen
Ġdet er
cl ad
Ġaw oke
Ġstr own
Ġstr ide
ib on
ib ule
ob ile
ins hield
get ting
Ġless ened
me an
me ans
com pan
Ġcor oner
ither ing
Ġfam ilies
eng er
eng ers
su es
Ġsea ward
Ġsun less
pr in
pr ison
Ġext rem
Ġcol or
Ġdep ressed
olog ically
arr ow
Ġref erred
Ġinter stell
Ġri ot
Ġes p
Ġes oter
ĠU nder
Ġeff ig
cent re
Ġneed less
Ġmyst ics
Ġcons erv
ef ully
bl azing
dis appeared
dis covery
Ġsent ries
Ġsent iment
Ġsent inels
asp ect
Ġexper imental
Ġwar nings
hy p
form ul
wor th
ev idence
alt ered
ĠAn n
ĠAn athas
Ġhapp iness
Ġutter ance
Ġmin ing
Ġdr inking
Ġcre aked
Ġdro ps
Ġaff ect
Ġunc ounted
Ġass ign
Ġass urance
Ġve ered
ĠInd ies
Ġenc ro
Ġenc ourage
Ġtrans mit
Ġhelp ing
spect or
sy mb
Ġtor ment
Ġhear th
Ġcirc uit
pan ic
pan elled
Ġ2 4
Ġ2 8
Ġslo ping
place able
Ġbes poke
po ints
she nd
Ġshri velled
Ġmod est
Ġtable ts
Ġho oves
pri v
ilt on
ĠSome how
Ġspect acled
Ġsim ultaneously
Ġvan ish
tr ue
ĠCl ark
ĠTo bey
Ġguess es
rest ed
rec all
Ġbre ed
Ġbre ast
Ġeffect ive
Ġserv ices
gu ise
Ġmess ages
great est
Ġincl ude
Ġinf erred
ĠAl most
Ġty ped
ae ons
ĠBe hind
Ġcal am
Ġfever ishly
Ġgro cery
Ġexcept ion
Ġlur id
Ġcult ivated
Ġfant asy
Ġsuff erer
Ġdest ination
Ġconv ulsed
Ġest imate
Ġhint ing
Ġstret ching
ĠAb ove
Ġjo int
Ġbound less
wr itten
Ġuncle an
Ġeng aged
Ġtele gram
dream ing
Ġble nd
car ven
Ġdisturb ingly
ĠMo on
Ġguard ing
Ġburst ing
go in
Ġdem anded
mar vell
Ġden ied
Ġtravell ing
Ġunf athomed
hyth ms
Ġcap ital
Ġstorm s
chan ce
Ġstrang est
Ġpot ter
Ġecho ing
ĠRe is
Ġtext ure
Ġresemb ling
Ġstar fish
ĠPo le
Ġmuseum s
Ġrepeated ly
jo ining
Ġmechan ically
expl an
Ġspecial ist
Ġpi pe
Ġstrugg les
Ġstup id
Ġpursu ers
Ġmagn itude
Ġassoci ation
Ġfasc inating
Ġloud ly
Ġweak er
Ġproper ly
Ġpret ended
Ġbottom less
bre aking
Ġtim bre
Ġleg al
Ġbal ustr
ribut ed
Ġwear ing
imm ers
Ġstuff ed
Ġpeace ful
char acter
Ġregular ity
Ġdestro ying
Ġsou therly
Ġphenomen al
Ġmyth ology
Ġbrother s
Ġdetect ive
Ġbelief s
eded iah
Ġfil thy
Ġchill y
Ġfight ing
Ġstag nant
Ġcru cifix
Ġvirt ual
Ġ15 4
Ġoffic er
Ġfat al
Ġphant asy
ĠTer ra
Ġcharacter istic
lim ited
sugg ested
Ġwarm th
Ġaston ishment
Ġpop ulation
ĠSp ain
dimens ions
Ġwhir ring
Ġsor row
Ġclust ers
Ġcomb ination
Ġlit ter
Ġmel ancholy
spec imens
Ġpoison ous
Ġmult itude
Ġskull s
Ġsymbol ism
ĠMart in
dep ths
Ġrespect ive
Ġmanifest ations
Ġtrick led
Ġdevelop ments
sil ence
Ġdil ated
stud y
recogn isable
TH E
Ġrav ings
Ġattend ant
Ġsear chers
Ġsavage ly
pal is
Ġlap sed
Ġham mer
Ġuncom mon
Ġattribut es
Ġapprehen sive
Ġintense ly
Ġwis hes
ĠSha pes
Ġsatisf action
vas ive
Ġmer ged
Ġexhaust ive
zt ec
Ġoper ations
Ġunivers es
Ġexec ut
Ġexec ution
Ġperf ection
Ġperf umed
Ġobserv ations
Ġindividual s
sun set
Ġliter ary
ĠTown shend
Ġtempor arily
Ġtransl ation
Ġemplo yed
fr antic
Ġspr ung
list en
Ġcrag s
Ġhom estead
Ġlog ic
Ġintens ified
jud ged
west ward
Ġrud imentary
Ġsen ior
Ġscept icism
phys ical
Ġdepos its
Ġcobwe bbed
Pro f
Ġtur rets
Ġtap ering
Ġobe yed
Ġsevent een
Ġscramb ling
Ġmurd erer
ĠBel ow
Ġhalluc inations
dest ro
vert is
Ġremot eness
Ġgreet ed
Ġsymp athy
Ġcalcul ated
respons ible
Ġwra pped
archa ic
Ġnu cleus
street s
Ġreward ed
Ġsepulch re
Ġproduct s
Every thing
fash ion
ij ah
ĠCong regational
intellig ence
prop ert
Ġtraff ic
Ġtraff ick
Ġdiabol ic
Ġrespond ed
Ġstragg ling
Ġphantas ms
fan cied
Ġtour ists
Ġmil itary
Ġfis hes
Ġpul sing
ruct ive
Ġrecl use
Ġgorge ous
trem endous
Ġbab el
Ġfain ting
Ġcher ished
Ġdisintegr ation
struct ure
Ġestablish ment
cross ing
swe pt
inst inct
sto pped
Ġsev enth
liz ards
ĠPha raoh
Ġkins hip
Ġeduc ation
Ġpest il
Ġstal act
Ġconve yed
ĠClo se
Ġjew ellery
clim bed
elect ric
var ious
Ġta own
Ġfug itive
Ġdy nam
Ġded uced
Ġforb ade
Ġgrat itude
ĠRic hard
Ġchron icle
Ġbloss oms
Ġindiff erent
Ġembal ming
cylind er
mic ircle
Ġbatt les
immedi ate
Ġabstr act
neigh bour
Ġcarav an
Ġlandl ord
Ġmembrane ous
answ ered
Pres ently
ĠWood s
Ġagg rav
Ġperp endicular
Ġrepet ition
Ġrelent less
Ġfiss ure
Ġangu ish
Ġunbear able
psy ch
Ġado pt
Ġharb oured
Ġstealth ily
import ant
Ġarabes ques
ĠStan field
myster ies
Ġpanor ama
Ġdispos al
gor ge
Ġtrag ic
ĠCrown inshield
Ġamuse ment
Ġrelig ion
Ġemiss aries
Ġpathe tic
purg is
Tig he
inoc ulars
ourag ing
ĠMun roe
pleas antly
Ġinco herent
tingu ished
ozo ic
gat here
Ġsord id
ombr owski
Ġarche ty
Ġinterstell ar
. ]
1 6
B rown
C ome
C amb
C ertainly
E mma
G az
H H
I L
J oseph
N yl
O I
O ver
P ri
S c
S l
S u
T eg
W ar
W il
W eed
b urn
c as
c red
c ong
c ord
d a
d em
d read
d aughter
f ing
f ro
f les
f av
f air
f ix
f iend
f amily
g le
g ent
g lo
g age
g ged
g ained
g ulf
g hast
g entle
h ur
h ope
i os
i ents
i antly
j orie
k al
k et
l antic
m id
m ant
m ond
m ath
m ine
m ove
m atic
m eth
n u
n umbered
o i
o is
o ors
p y
p to
p hi
p arent
p ier
p henomen
r as
r at
r acked
s and
s cience
s ource
t reat
t urn
t ick
t ree
t unnel
u ble
v ict
w an
w ark
w rigg
x agonal
y n
y al
y ield
z anek
Ġ urb
Ġ idly
Ġ urns
Ġt is
Ġt un
he wn
Ġa ching
Ġa jar
in f
in ings
in ently
in vol
in stead
Ġo aken
Ġo wing
re ar
re ality
Ġw ider
Ġw ishing
Ġw agon
Ġw ipe
Ġs ore
Ġs art
er ning
en ingly
en etrable
Ġb id
Ġb ind
Ġb ust
Ġb ag
Ġb ass
Ġb ath
Ġb abbled
Ġb inoculars
Ġm ural
Ġf em
Ġf ix
Ġf ired
Ġf ierce
Ġf estering
Ġf olds
Ġf ht
Ġc ac
Ġc ad
Ġc um
Ġc ant
Ġc ages
it ar
is ance
is hable
ar ling
ar oused
Ġd ial
Ġd anc
Ġd ict
Ġd ining
Ġd iverse
Ġto s
Ġto re
an ic
an aly
Ġin scribed
Ġp ir
Ġp ine
Ġp ail
Ġp aying
Ġp ush
Ġp unct
Ġp arson
Ġl am
Ġl air
Ġl asted
Ġl osing
Ġn aught
Ġh ound
om ical
ic it
Ġha z
Ġha ts
Ġha pless
le ave
le ather
st at
st ery
al bergen
Ġg arr
ot a
Ġe gg
Ġe rect
se par
Ġhe irs
Ġth ir
ent rance
im au
im ately
im ilar
ac re
ac er
ac hable
id a
Ġre eling
Ġwh or
ver ty
ad ian
am mal
ce ive
ce iving
ĠT ra
ĠT oward
ri ver
ri ous
ri ers
ri ff
ir able
ir ts
Ġfor cing
Ġas p
Ġan thropoid
ay er
ain e
th reat
th orough
Ġse ll
Ġse ared
Ġse mb
ul ses
il ess
il ant
il ings
ch uck
ill age
ĠA head
ĠA unt
Ġv aster
Ġv ulg
em eter
od ak
od ies
od erm
Ġy el
Ġy ew
ol as
Ġr am
Ġr ude
Ġr ugged
Ġsu stained
Ġme agre
Ġbut cher
um ps
red s
ind e
ra gan
Ġun b
Ġun ident
Ġun lighted
Ġun placeable
ĠS ur
ĠS ix
ĠS even
pp ings
el ier
est ing
est ruck
our ces
Ġsp rawled
ast on
Ġall iance
Ġex ert
Ġab ated
Ġab omination
un ch
un account
un namable
Ġcon sequences
ant al
her nalia
to ps
ĠC ab
ĠM e
ĠM in
ĠM is
ĠM at
ĠM ount
ĠM anton
ĠM onday
Ġup hill
Ġout set
ven ed
Ġkn oll
Ġsh ines
Ġsh ots
Ġsh uttered
Ġle is
ide a
Ġpl ants
Ġpl oughed
Ġwe igh
ĠB rit
ĠB urns
ĠB owen
ab norm
ep he
ĠO F
ĠO orn
ĠO klahoma
Ġli vest
ort ality
Ġne bul
Ġne utral
Ġbl and
Ġbl ame
art ificial
âĢĿ !
ĠD E
ĠD O
ĠD ick
ĠD ombrowski
Ġqu al
Ġqu ote
ĠP an
ĠP et
ĠP ower
fore ign
Ġpro ximity
Ġpro gressed
ĠN ith
Ġsc or
Ġsc ore
Ġsc ared
Ġsc rap
Ġsc urrying
Ġsc enery
Ġim pl
Ġim itation
ĠG e
ĠG ize
Ġcl oth
Ġgr ating
Ġgr ade
ark able
ood oo
ine a
Ġshe ltered
ĠE ver
Ġafter math
Ġj ealous
Ġdes erved
Ġbr ittle
ĠF our
ĠF ate
ĠF orm
ĠF alls
Ġam azing
Ġgl am
Ġgl immering
Ġwhere abouts
ater n
ci pl
ci vil
sp ring
sp lend
sp oken
ĠR uell
Ġhor des
Ġper vasive
Ġfl ows
Ġfound ation
ink s
ru ly
Ġare n
Ġcur ves
Ġcur sing
Ġher s
Ġform ations
Ġrem ove
ile ptic
Ġsl aughter
Ġpo verty
Ġbo arding
oss ibly
Ġmo cked
Ġ1 4
Ġsm elled
con qu
con cent
con tr
Ġk itten
Ġk aleidoscop
Ġimp elled
Ġimp rison
Ġimp ulses
atter y
anc he
ult ure
ach t
Ġsec urely
ĠThere after
Ġinc ense
Ġinc iner
Ġinc antations
Ġhand ful
Ġhand bag
Ġch in
Ġev olved
Ġclo ak
Ġclo aked
ĠAnd erson
Ġcont empt
not e
gr im
gr aded
Ġcr it
Ġcr acks
Ġcr ashed
Ġint ended
Ġcar riage
Ġcar nivorous
Ġacc ordingly
ars hes
Ġsur ve
Ġsur passing
Ġgo in
Ġtri angular
Ġdark est
Ġdark ening
av itt
Ġthen ce
ĠK now
Ġad ult
str ained
br ids
we pt
Ġrep ug
Ġrep elled
Ġrep rodu
Ġdec ent
Ġdec iphered
Ġsub way
Ġsub urb
Ġsub stantial
Ġgu inea
ĠSt ephen
my th
att empt
Ġown ers
Ġres on
Ġres isted
Ġres erved
Ġwr inkled
Ġcha s
Ġcha ins
Ġcha llen
Ġca lend
ott on
Ġvo iceless
Ġset s
Ġlet har
Ġact s
az ar
Ġsmall est
Ġsw ath
Ġsw orn
Ġdet ritus
Ġhill ock
Ġaw estruck
ob ser
Ġwa ved
Ġsle ek
Ġcor ruption
Ġcor robor
vers al
Ġdeep s
Ġmet als
Ġsight less
ĠV as
ĠV ict
ĠV irgin
Ġbur g
no cturnal
Ġdel vings
Ġcomp ound
Ġcomp are
Ġcomp artment
Ġbro ok
arr ant
Ġinv ited
Ġinv ention
Ġinv aded
Ġref er
Ġblo ated
Ġinter ment
Ġinter pre
Ġinter nal
Ġri vers
Ġbel ated
Ġem inence
Ġind ec
Ġbelie ving
Ġbelie ves
Ġgood s
pro c
pro du
pro digious
pro duced
fl ame
Ġdev ise
Ġdev otion
Ġsqu irm
Ġcons istency
ĠZ in
ĠZ im
Ġdiff ered
ien ne
Ġsens ational
Ġsy ringe
bl ind
Ġser ving
Ġsent ient
Ġsent inel
Ġfull est
Ġhard ened
Ġwar ri
Ġconf irmed
oun ge
Ġir resist
Ġroad way
Ġmin ers
Ġconscious ly
Ġdr ain
Ġdr ained
Ġdri ver
Ġpol ite
Ġrecall s
Ġcre ak
ĠStreet s
ĠJo hns
Ġview ing
min ated
co ast
co ated
under ground
Ġve ins
Ġtrans om
Ġlab our
Ġlab ourers
udd ed
Ġphys i
Ġphys ique
Ġdi agrams
sy stem
Ġstand ards
Ġwonder ful
rem ain
rem arkable
Ġ2 7
Ġ2 00
Ġver ified
reg arded
she wn
Ġten ants
Ġpan el
cur t
Ġho pped
Ġsto pping
Ġreve rence
Ġspect rally
tr ace
Ġdam aged
inc ident
Ġstrong est
Ġwatch man
empt y
umber ing
Ġbri g
rab ly
sm oke
Ġ18 6
Ġbreat he
Ġinf ancy
Ġinf amous
hold s
Ġobsc ured
bur g
iac al
Ġequ ator
Ġexam iner
Ġaf resh
Ġsix ty
Ġpain ful
Ġsett ling
Ġpassage way
acc ustomed
cont ained
Ġheight ened
Ġsuff er
Ġhist oric
Ġappear ing
Ġaspect s
ĠNor man
Ġdescend ants
rit ory
rit ual
Ġmerc y
Ġvol uminous
pres ently
pres ervation
off ic
wood en
Ġsize able
Ġbound s
Ġstat ements
ĠMan uel
Ġdesert s
mo il
istic ated
Ġempt iness
thought s
Ġeng age
Ġmiss ion
Ġdog ged
Ġtrad ing
Ġnumber less
Ġcryst als
Ġnecess ity
Ġident ical
Ġnote book
Ġrust ling
Ġgrass es
Ġnon ce
Ġbrick s
Ġspirit ual
pha lic
ĠCh ina
Ġpartic ip
soci ated
Ġtot tered
Ġhundred s
part ly
part icular
Ġemb arr
Ġbaff lement
arn ished
ĠDe ep
Ġprim ary
Ġbreath lessly
did n
Ġdwell ers
Ġign ored
Ġdispl aced
Ġvap orous
Ġ192 7
bes ides
ract ion
ĠRe ef
ĠCom te
Ġcof fee
Ġmalign ity
Ġdeterm ine
Ġsystem atic
Ġge ology
col umn
mem bers
Ġfa ery
Ġconvers ations
Ġacqu ire
Ġcommun icated
sit uation
Ġassoci ates
Ġarm ies
Ġclass es
Ġperil ously
Ġpret end
Ġtim ber
Ġsick ening
Ġchief s
Ġchief ly
ĠBar bour
vent ually
Ġisland s
Ġterr aced
Ġrevol ting
Ġdisappear ing
Ġring ing
Ġpriv ile
Ġgra ven
Ġmeas ures
Ġcru cial
Ġcru elty
rigg s
Ġgri pped
ĠTer ror
Ġprov ide
Ġlad y
Ġdeliber ation
Ġhum ble
Ġcob bl
pur pose
Ġfav ourable
Ġmel ody
spec ial
Ġcurrent s
ĠTom b
Ġovert ones
Ġestab l
whis pering
Ġmoss y
Ġener g
squ imau
roof s
ĠPl ace
Ġcurt ained
conc erned
conc erning
Ġkeen est
Ġabsor b
Ġparaly sis
sens ation
sol itary
Ġinstr ument
Ġrav ines
Ġunw onted
Ġleather y
Ġattend ants
Ġinvol untary
Ġrespons es
Ġtradition al
Ġcit izen
ĠMc C
ĠMc Tighe
Ġintr usion
mom ents
Ġreck on
Ġimper ative
Ġtransp arent
Ġpred icted
Ġuncom fortably
ĠSabb ath
Ġscra ping
Ġprecipit ated
Ġattribut e
Ġattribut ed
Ġabsurd ly
Ġengulf ing
tem ple
Â° ,
Ġascend ing
Ġspl ash
Ġoccur rence
ĠSha pe
Ġpolic eman
familiar ity
Ġcam el
Ġink well
igg ers
Ġperplex ing
Ġperplex ity
gal actic
Ġshed s
Ġthreat ening
wa iting
Ġramb les
Ġtransl ated
Ġarchitect ural
poss essed
Ġpage ant
Ġnether most
ĠSl ott
Ġwrit ings
Ġwrit hed
Ġcompanions hip
sim ilar
Ġwid th
cast le
Ġmut il
Ġgib bous
Ġverd ure
ĠHar vard
Ġretic ent
comm itt
Ġcompar ison
Ġcolle ague
fire place
sum mer
wit ness
Ġrend ered
Ġrestr aint
adv anced
Ġunaccount ably
ĠCha os
Ġvibr ation
Ġrift s
glimp se
Ġshow man
ĠDob bs
Ġprepar ations
Ġlon eliness
Ġshell s
Am mi
breat hing
pol ice
archa e
ĠEs q
beaut iful
Ġfavour ite
Ġbubb ling
Ġachie ve
unc ann
ĠMain e
Ġenjoy ed
sculpt ured
prof ession
trad ition
Ġfortun ately
pap ers
sid ers
Ġtick et
Ġbond age
Ġcul minating
Ġbitter ly
Ġprotect ive
Ġfain ter
Ġcher ish
Ġdart ing
Ġabund ance
shri eked
Ġprinci ples
Ġdilig ently
mod ern
Ġsev enty
abyss es
disturb ing
Ġstimul us
Un iversity
draw ing
Ġobst acles
Ġslack en
Ġharmon y
Ġmemor able
Ne ill
sac rif
Ġastr on
Ġpub lished
Ġapproxim ately
sle eping
tight ly
ĠTy per
Ġash ore
Ġlibr aries
corrid ors
Ġgalax y
Ġware houses
sell ius
Ġyell owed
ĠMerc y
phosphoresc ent
Ġtriump hant
Ġcoinc idence
Ġintermin able
Ġvolcan ic
Ġrefin ery
Ġster ile
Ġstor age
Ġanch ored
Ġspat ial
Ġexult ation
Ġprob ability
Ġdiscus sion
Ġrubber y
Is land
south ward
Ġanted iluvian
Ġspasm od
apid ated
tebr ate
Ġdwar fed
Ġmorn in
Ġfert ile
Ġfoss il
ĠWich ita
Ġprovoc ative
Ġinquis itive
Ġgalle on
Ġtroll ey
Ġhing es
Ġunend urable
Ġunspeak able
ĠMic hel
Ġalb ino
ĠBapt ist
Ġdisconcert ing
Ġadorn ed
ylvan ia
Ġunchan ged
Ġpetrif ication
uspic ion
Ġfol iage
ĠSle ght
Ġcong reg
ĠLie ut
Ġacknow ledged
Camb rian
Gaz ette
Teg oth
Ġtis sues
Ġsemb lance
Ġlivest ock
ĠGize h
ĠRuell o
Ġirresist ibly
A d
A round
A fric
A zathoth
E Y
G awd
J our
K ad
M rs
P r
P awtuxet
Q u
R ec
S h
S ha
S op
S te
T s
T em
T oward
V II
W hile
W alker
Y ork
_ )
a esthe
b ish
b les
b iting
b ony
b aff
b reed
c il
c aught
c rossed
c hemical
d ying
f if
f ra
f eared
f icial
g ic
g ri
g anda
h s
h ine
h ints
h urt
i ol
i ature
l ot
l au
l ances
l add
l iter
l iction
l uminous
m el
m ons
m ination
m ounted
m uffled
m otion
n oth
n umber
o v
o ol
o ys
o Ã«
p ars
p ock
p ots
p inn
p oreal
r d
r att
r aced
r acing
s or
s ort
s li
s ane
s chool
s chol
s manship
t om
t ly
t ough
t ouch
t itan
t ienne
u a
v irt
w and
w ished
w aves
w son
w alked
y oth
Ġ [
Ġ vel
Ġt ies
Ġt ier
Ġt iled
Ġt urb
Ġt ips
he rable
Ġa pes
in ers
in conceivable
in stein
Ġthe atre
Ġo rif
re qu
re asons
re present
re presented
Ġw ives
Ġw ires
Ġw retched
Ġw renched
Ġw arrant
nd s
er ves
ou ins
ou rably
en velo
Ġb ould
Ġb rew
Ġb olted
Ġm ate
Ġm ature
Ġm umbled
Ġm asse
Ġm ammal
Ġf ust
Ġf erv
Ġf ountain
Ġf unnel
Ġf ailing
Ġc ow
Ġc el
Ġc ig
Ġc age
Ġc oun
Ġc ords
it ox
or able
is hes
ar ched
Ġd iar
as semb
Ġto iled
an kness
an imal
Ġin it
Ġin most
Ġp ry
Ġp ertain
Ġp rying
Ġp anting
Ġp upp
Ġl ens
Ġl ord
Ġl ots
Ġl utes
Ġl oping
Ġl ounge
Ġn im
Ġn odding
Ġh oles
Ġh ush
Ġh unt
ic kn
ic ative
ĠI T
ĠI larnek
Ġha ck
Ġha zy
ly n
le e
hat e
st ro
st ore
st rom
st ret
st ros
al beit
Ġbe ads
Ġbe loved
Ġg ou
Ġg un
ot el
Ġe aves
se at
Ġhe ir
Ġhe ated
Ġhe ars
Ġhe aling
Ġhe terogeneous
Ġwas ted
ut y
ut ra
Ġth ie
ent er
im um
im ated
ac ab
id ol
id ered
Ġre n
Ġre lied
Ġre action
ur ian
Ġst alk
Ġst unted
ver ted
et hered
ere ner
ro sc
ro ots
ad ru
am ation
am ide
am eless
ce ase
ĠT ri
ĠT han
ĠT art
ĠT othe
ri um
ter restrial
Ġan ger
ous ers
th in
th rown
th irty
Ġnot orious
Ġse ats
Ġse vered
ul en
ul ations
ch is
ch ian
ill a
ill usion
ĠA ct
ĠA ges
ĠA ztec
ĠA sellius
Ġv indict
od ens
Ġy acht
Ġr ag
Ġr ab
Ġr au
Ġr uth
Ġr ailing
Ġr apping
Ġr hythms
if erous
qu ency
um erable
ra iled
Ġun hing
Ġun finished
Ġun veiled
ĠS ar
ĠS ac
ĠS imes
ĠS cri
ĠS eth
ĠS hall
ĠS outhern
pp hire
el f
el aire
est ial
ĠH el
ĠH ear
ĠH erm
ĠH ardman
ĠH otel
lo ck
lo cks
ear lier
ist ling
us hes
us ively
Ġsp o
Ġsp end
Ġsp ears
Ġsp ray
Ġsp inning
Ġall ies
Ġall uring
Ġex h
Ġex tinguished
ĠW ish
ĠW itch
ĠW izard
ĠW itches
un ce
un ity
un less
un natural
Ġcon co
Ġcon quest
Ġcon sole
Ġcon ceptions
ell s
out lines
ĠC am
ĠC ross
ĠC ats
ĠC ho
ĠC emetery
ĠC zanek
Ġde ity
ĠM es
ĠM ust
ĠM ag
ĠM athe
ĠM aj
pt une
Ġout come
ag ued
Ġkn ee
Ġsh orter
Ġsh ipping
Ġsa ound
Ġsa pphire
Ġle ky
Ġis sue
ran ces
Ġpl ight
Ġpl aus
Ġwe aving
ĠB ack
ĠB arn
ĠB arl
ĠB EING
Ġdo e
Ġdo cks
ect or
ab and
ab rupt
ĠO cc
ĠO pening
Ġli bert
Ġro ds
Ġro ses
Ġne ared
op er
op ening
Ġar ras
Ġlo om
Ġlo oming
âĢĿ ;
âĢĿ ?
ĠD own
ĠD oub
ĠD oc
Ġqu oted
ĠP i
ĠP at
ĠP ier
ĠP aul
ĠP ierce
ĠP uritan
ap ted
ap ort
Ġpro cl
ĠN it
ĠN odens
Ġag ents
Ġsc aled
Ġsc heme
ass o
Ġim ple
Ġdis ag
Ġdis su
Ġdis section
ath oÃ«
ĠG ot
ĠG all
ĠG ra
ĠG lend
ĠG len
ĠG radually
ĠG olden
pl aced
Ġcl attering
ĠHe y
Ġgr ant
Ġgr ateful
Ġgr andson
Ġcom pr
Ġcom mitted
Ġinto x
Ġover p
Ġover came
Ġover hanging
Ġsha lt
Ġthr owing
Ġmad house
per bore
per intendent
Ġtr aining
Ġshe riff
ĠE xt
ĠE rich
ĠE ibon
Ġj ars
Ġj ump
Ġj unction
Ġbr ace
ĠF red
ĠF ive
ĠF ij
ĠL ight
ĠL ib
ĠL yman
Ġam using
Ġam phit
old ing
Ġgl immered
Ġwhere on
Ġwhere as
ci a
Ġen han
sp r
sp ot
sp here
itt ings
ĠR ome
ĠR ound
ĠR ead
ĠR uss
ens ively
Ġtw in
Ġtw ist
Ġper ched
Ġfl im
Ġfl are
Ġfl uttered
Ġfl apping
ru ined
ru cted
Ġear nest
right edly
Ġob long
Ġcur b
Ġcur led
oll owing
ĠJ r
ĠJ edediah
dd eus
Ġcan v
Ġrec eding
har ds
Ġsl ay
Ġsl ugg
ĠIn spector
Ġdist racted
Ġdist inction
de finite
most ly
Ġwind y
Ġback woods
Ġbo asted
oss ibility
Ġter ribly
Ġlight ly
Ġlight less
Ġ1 3
Ġ1 00
pe ak
pe opled
Ġsm elt
Ġsm ugg
con spic
Ġk ilt
Ġk icked
Ġk odak
ian a
Ġpart ing
ne ither
Ġimp act
ult imate
Ġgre as
Ġke ys
aw eed
Ġmon ument
ĠY ath
ĠY ian
Ġint u
Ġint imate
Ġcar s
Ġus es
ict ions
ret ic
av age
ĠK aur
Ġad joining
Ġad apted
Ġexp ans
we ather
Ġrep uls
Ġrep roduced
Ġdec ision
Ġend e
Ġend ure
Ġreal istic
Ġsub stances
bed ded
Ġgu ests
Ġgu iding
ang les
ĠSt one
here nce
app ort
Ġchan ts
Ġpass es
Ġpass ive
ip herable
mon stros
Ġres id
Ġres ume
Ġres ervation
Ġres ources
Ġwr ath
Ġcha sed
Ġco vers
Ġco Ã¶
oub led
Ġhar vest
Ġhar assed
Ġdisc arded
Ġdisc ourage
umb ia
light ning
Ġcall er
Ġcall ous
Ġcall ers
cri bed
Ġsw irling
Ġste pping
Ġstr at
Ġstr ains
Ġstr ands
Ġbet rayed
ale ct
ob y
mer c
rag on
ĠTh ran
Ġrest oring
Ġrest aur
Ġlow ering
Ġsil ken
head s
Ġspec k
cept ive
cept ibly
Ġfo ols
su c
Ġmet amorph
Ġtre as
Ġtre acher
pr act
Ġext irp
ĠV I
ĠV OI
Ġbur rowing
no is
no ises
Ġcent iped
Ġcomp osite
Ġfoll y
Ġcry pto
Ġdep ict
Ġdep ressing
sh ining
sh ivered
sh unned
Ġinv ading
Ġinv itation
Ġinst ances
Ġinst ructions
Ġref use
Ġmem ber
Ġinter ruption
Ġsing er
Ġem itted
Ġem phas
Ġvast ness
ident ity
Ġsn iff
Ġind ubitably
Ġel ms
Ġqueer ness
Ġneed n
pro per
pro ject
Ġclear ness
Ġcons istent
Ġcons ulted
Ġsky line
Ġtran script
Ġexc iting
Ġele phant
Ġmountain ous
Ġvill ain
Ġadv ise
Ġtem pted
Ġsens itiveness
Ġsy mptoms
bl er
bl ackness
dis p
rid ge
ten ess
form less
do c
Ġimag ining
Ġimag inary
ring ed
Ġpict orial
As enath
Ġir onic
Ġhapp ens
Ġutter most
Ġmin us
Ġmin arets
pre p
day light
des pair
Ġaff irm
Ġill ness
Ġadd ing
Ġbar riers
min ute
Ġass ure
Ġve x
Ġve in
Ġpri ze
Ġcomple tion
Ġenc ouraged
cal m
Ġap ople
Ġap olog
Ġphys ically
Ġdi alect
ĠAfter ward
gl im
gl acial
oman chian
Ġled ges
Ġche cking
Ġcond em
Ġfre emen
Ġpar adox
Ġgrave yards
Ġ2 1
Ġver se
Ġbes ie
Ġran ged
reg arding
Ġten ant
sha pe
Ġho ax
Ġslight est
Ġsto op
Ġsto oped
yr ant
Ġsim plicity
Ġthin ned
Ġthin ning
Ġthin ner
Ġprep are
tr uth
Ġcomm ission
Ġcomm encing
rel ated
ĠTo o
inc ess
Ġsuper natural
rec oll
Ġcut tings
Ġpat ience
Ġpat iently
Ġple ase
Ġhy brids
awn ing
oy al
Ġreason ably
fort une
ann ian
vis it
ivid ing
room s
Ġinf at
hold ing
Ġtit tering
Ġcapt ors
Ġcapt ives
Ġtop ic
ĠBe ach
Ġcal mer
Ġopp on
Ġdra ped
Ġord ering
Ġchair man
ean our
Ġsharp ened
Ġansw ering
par aly
Ġrad ically
tw enty
Ġ17 5
rit er
Ġupper most
Ġvol ition
Ġconce aling
Ġprodu cing
asc ar
Ġactual ity
Ġnervous ness
sl anting
Ġstret ches
Ġdevelo ping
Ġlocal ities
Ġmal odorous
Ġbound aries
Ġmir acle
sub sequent
wr ong
Ġang ry
Ġdistinct ness
Ġexpect ing
Ġmyster iously
Ġtele graph
Ġsucc umbed
Ġble nded
Ġglo bu
Ġgrou ped
Th ree
Ġdisp ute
Ġmill enn
Ġrid ges
Ġte acher
Ġdem eanour
Ġmort gage
Ġthro bbing
ĠEd mund
What ele
Ġsquare ly
Ġradi ated
ĠDe acon
Ġmould ering
Ġcap acity
Ġdwell s
Ġjud ging
Ġelectric ity
Ġeight een
Ġstream ed
chan ts
real m
Ġdef ine
Ġdef ied
Ġemer ging
ĠPo or
Ġinvestig ators
Ġdiss olution
Ġgrand eur
Ġmalign ly
Ġmechan ism
Ġcra zily
Ġfort night
ĠBrown e
expl ained
Ġspecial ists
pers ons
Ġtent acled
Ġtrem ble
hill side
eter minate
Ġmagn et
Ġmagn ified
Ġmaster piece
Ġremo ving
Ġtim bers
Ġtim idity
uls ions
rap utra
Ġleg isl
lar ged
Ġsuc ceeding
ĠLe avitt
Ġdecl ined
Ġ191 0
Ġbal con
Ġbal anced
Ġshr ink
Ġshr ouded
Ġlif elong
Ġrevol ution
etr ated
Ġcab ins
ĠOl athoÃ«
ĠSh ort
Ġcavern ous
Ġcust ody
Ġcontr ad
Ġsuperst itions
Ġiv y
Ġoffic ial
Ġminute ly
Ġcalm ly
Ġpall or
Ġsad ness
Ġadm ire
hideous ly
lim it
shad ows
Ġamount s
Ġsubter rane
occ asionally
Ġhyp oderm
bar rier
Ġess entially
Ġtest ing
Ġlaw yer
Ġhum our
Ġrub ies
Ġrub bish
Ġunconscious ly
Ġdepart ment
dire ctions
Ġmel ting
ĠSil va
Ġblank et
Ġgar ments
urt is
Ġovert aken
Ġaver red
Ġloc ated
ĠGreen wich
Ġoccup ant
whis pers
Ġsal ts
Ġsal ient
Ġgrim ly
dep art
Ġ7 5
Ġec li
sil ently
Ġtend er
Ġaim less
ĠBen ijah
Ġaccess ible
Ġtyp ew
ĠStill water
Ġrespons ibility
Ġdanger ously
Ġze bra
Ġcit adel
Ġchis el
Ġskelet ons
Ġpond er
Ġpond ered
exc ited
pal palis
hard ly
supp ose
Ġhyster ia
tem ples
Ġstol id
Ġyield ing
nec k
Ġshout s
conv entional
Ġacute ly
Ġpolic emen
aud elaire
Ġcam els
ĠWal purgis
Ġflee ing
Ġaccompl ish
Ġder ived
Ġnegro es
grave yard
sun ken
Ġbub ble
Ġraid ing
Ġraid ers
Ġjung les
Ġcustom ary
cry ptic
Ġanomal ies
ĠAcc ording
Ġsullen ly
ĠSl owly
Ġproject ing
Ġproject ion
Ġproject ions
Ġdisgust ing
Ġresc ued
Ġsold iers
Ġweather ing
ĠPres ident
interest ing
lor ida
Ġverd ant
Ġsen sed
Ġnin th
unct ure
ĠKe ulen
comm un
Ġshuddering ly
How ever
Pro vidence
Ġtal ons
Ġtur moil
ĠBell ows
Ġexpert s
Ġdecipher ing
Ġdiscern ible
Ġmeasure less
Ġramp arts
ĠRh oby
Ġprime val
incre ased
incre asingly
sn ake
Ġwo ven
ĠTem ple
Ġseam an
ĠApp arently
ĠApp leton
Ġsparse ly
ĠOri ental
Ġremot er
strong er
proport ions
Ġ193 1
Ġuneas ily
Bl ake
Ġwra ith
Ġsom n
Ġmutter ings
Ġsepulch ral
Ġmead ow
ĠHal sey
Ġawkward ly
Ġpurcha se
Ġridic ulous
Ind ian
tra il
Ġtear ing
Ġnit re
Ġank le
ĠCong o
Ġaltern ately
sculpt ures
Ġinterpret ation
Ġafford ed
Ġarchae ological
Ġarchae ologists
Ġfortun ate
daemon iac
Ġdemon str
Ġheed less
accom pan
Ġweap ons
ĠBur ial
ĠGl ancing
Ġrelax ed
Ġrelax ation
Ġgeomet ry
Ġsolemn ly
Mo ore
Ġhal ted
abs olutely
Ġincom ple
grad ually
ĠQue er
cra zed
Ġsan ct
Ġgli bber
Ġgli bbered
Ġeman ation
Ġliber al
ĠDa habea
Ġincess antly
Ġdisclo sed
Ġopportun ities
circum stances
ĠGrand ison
Ġstimul i
uer ile
Ġmars hy
Ġfathom less
ĠPark er
ĠNe ptune
Ġobst acle
prot ected
ĠHallow e
Ġobliter ated
Ġenthusi asm
Ne il
dwell ers
jour ney
Ġbor ings
Ġbor rowed
Ġgust s
Ġconflict ing
ĠBab ylon
Ġperpet ual
Ġdischar ge
Ġdischar ged
Ġconfirm ation
Ġstub born
Ġflound ering
Ġsurge on
Ġcorrel ated
Ġprofession al
Ġmoder ate
Ġconstell ations
ca used
farm house
mor bid
nerv ous
Ġtum ult
Ġtrop ical
Ġcart ouches
âĢ² ,
ĠAnt arctic
ĠWor ld
Ġsoap stones
ĠOb viously
Ġnewcom er
Ġrelations hip
shudd ered
Ġmagaz ines
Ġcondu cted
Ġerud ition
Ġtroubles ome
Ġintrud er
lod ged
Ġornam ents
Ġconfin ement
antiqu ity
Ġcommer ce
Ġobstru ctions
Ġrefr ained
Ġexcess ive
disappear ance
Ġoblig ed
labyrin ths
strang eness
ĠWing ate
ĠMark et
Ġindust rial
Ġepoch s
eas ily
Ġfresco es
Ġult imately
Ġprostr ate
Ġcrimin al
brood ing
fut ure
oce phalic
Ġich or
Ġmamm als
Ġcours es
empor ary
osa urs
Ġcrev ice
Ġauthent ic
Ġpatri arch
Ġlonge vity
langu age
Ġtene brous
instr uments
ici ency
stair case
Ġstupef ying
thod ox
ĠSor cier
unmistak able
ĠYanke e
Ġgoat ish
ĠKanak ys
Ġconserv ative
hyp not
priv ate
propert ies
Ġstalact ites
gathere rs
Weed en
Ġbath room
Ġfht agn
Ġdanc ers
Ġvulg ar
ragan sett
Ġchas ms
Ġchallen ge
Ġcalend ar
Ġengage ment
Ġestabl ishing
committ al
Jour nal
pars amide
Ġvel vet
Ġcel estial
acab re
erener ian
adru ped
Ġrau cous
ĠHerm es
ĠMathe wson
Ġleky th
ĠBarl ow
ĠGlend ale
Ġamphit he
Ġtreacher ous
Ġglobu le
! !
, âĢĻ
A H
A L
A ug
B ur
B atta
C al
C ity
D es
D am
D erby
E C
E D
E urope
F ar
H o
H ill
H ouse
H ave
I ts
I ON
K ing
K uranes
K EL
L ate
L eng
M al
M alone
O l
P ickman
R es
S w
S ur
S ometimes
S OTH
T han
T hor
T ekeli
_ ),
b an
b at
b all
b are
b ite
b old
b hi
b ub
b ene
b urned
b ird
b ush
b road
c ad
c our
c of
c ob
c over
c iled
c rit
c erer
c rawled
c ircle
d y
d ry
d are
d ue
d amp
d uring
d azed
e ved
f ate
f led
f ung
f ane
f inger
g iv
g iving
h int
h oul
h inted
i ably
j ourn
k a
l u
l ough
l ime
m its
m iles
m ask
m akes
m asonry
m aj
m atters
n um
n ect
n ause
n ett
n ext
n ourished
n arrow
o om
o ly
p id
p ical
p atter
p ably
p ainted
p ache
p igs
r ising
r ush
r ational
r otting
r ament
r unning
s ou
s hed
s ures
s hant
s ardonic
s uspected
s hippers
t in
t ower
t ext
t elling
t aste
u ing
u ce
u ber
u fact
v it
v ac
v ation
v ist
v ably
v ae
w reat
w ish
w arm
w hipp
w estern
y a
y ote
Ġt ha
Ġt ing
Ġt ab
Ġt ub
Ġt aint
Ġt iles
Ġt ugg
Ġt ube
Ġt ittered
Ġt antal
Ġt arnished
Ġt ethered
he art
Ġa th
Ġa qu
Ġa ught
Ġa val
Ġa version
in finitely
Ġthe ore
Ġthe osop
Ġo ce
re land
re ceived
re vol
Ġw ou
Ġw ail
Ġs ie
Ġs ledge
er ich
ha ust
ed uc
ou thed
en ic
en ched
Ġb ac
Ġb ars
Ġb owed
Ġb inding
Ġm our
Ġm aimed
Ġm oust
Ġm aternal
Ġm acabre
Ġf ri
Ġf og
Ġf ile
Ġf ib
Ġf itting
Ġf iery
Ġc ri
Ġc ack
Ġc ows
Ġc ured
Ġc ope
Ġc amps
Ġc emeter
on ian
it ives
es is
is ode
ar c
ar us
Ġd ual
Ġd ip
Ġd ash
Ġd ement
Ġd ates
Ġd aze
Ġd uly
Ġd rank
Ġd ividing
as a
as elessly
Ġto ol
an xious
ll us
ll ers
at res
Ġin fl
Ġin ability
Ġp up
Ġp airs
Ġp she
Ġp ump
Ġp uls
Ġp icking
Ġp omp
Ġl y
Ġl ime
Ġl enses
Ġn ephe
Ġh ull
Ġh iding
ic able
ic les
ic ago
ĠI N
ĠI mp
le x
le an
st ick
gh ost
al ready
al ded
al coat
ow ler
Ġbe e
Ġbe ha
Ġbe ware
Ġg y
Ġg ame
Ġg au
Ġg ases
Ġg aud
ot hed
Ġe t
Ġe bony
se ated
se ek
se ason
se ems
Ġhe ating
Ġhe aving
Ġhe mis
ut land
ut eness
ut iny
Ġth ickness
ac ular
id n
Ġre b
Ġre nder
Ġre verse
Ġre appeared
Ġre view
ur day
Ġon ct
Ġst ove
Ġst ress
Ġst inking
ro de
ro spect
ro chers
ad ers
ad mir
am en
am an
ce iled
ĠT rave
ĠT ues
ĠT owers
ĠT ege
ĠT avern
ir ations
ir arde
ter a
Ġan ent
ec d
ec cent
ain ts
ain ments
Ġnot ify
all oy
Ġat ro
Ġat omic
ore llus
Ġse es
Ġse micircle
Ġse aport
ke l
ill us
ĠA ng
Ġv icious
Ġv oodoo
em y
Ġy r
Ġy er
ol ving
ol ts
ol oured
Ġr ic
Ġr ot
Ġr aving
Ġr uddy
Ġr apport
Ġsu s
Ġsu nd
qu ant
kn ife
ind y
ind escribable
ra a
ra ised
ra its
Ġun its
Ġun wise
Ġun earth
Ġun opened
Ġun visited
Ġun naturally
Ġun named
Ġun recognisable
Ġun accustomed
ĠS y
ĠS had
ĠS now
ĠS axon
ough ing
el o
el uct
el ids
el strom
res ult
ĠH I
ĠH im
ĠH az
lo s
ist r
ist en
us a
Ġsp ed
Ġsp an
Ġsp rawling
Ġall usions
Ġex hi
Ġex ists
Ġex erted
ĠW ord
un com
un ching
Ġcon ver
Ġcon ced
Ġcon verse
Ġcon gen
ers ion
to othed
ĠC old
ĠC ave
ĠC raw
ĠC otton
ĠC erenerian
Ġde fin
Ġde alt
Ġde ceived
Ġde fined
ĠM al
ĠM other
ĠM att
ĠM ountains
ĠM iddle
ĠM Ã¼
han g
ong ru
Ġno ses
Ġup land
Ġup heav
Ġout sk
Ġout rage
ven ue
ag ent
ag ascar
ok es
ok ris
Ġman or
ack et
Ġle e
Ġis sued
Ġpl ates
ĠB u
ĠB lo
Ġdo z
Ġdo in
ab a
Ġwor shippers
ort ham
Ġro aring
Ġro pes
Ġne ur
op es
op ted
op ers
op sy
op olis
Ġar isen
Ġtheir s
art ist
Ġlo com
Ġlo cks
âĢĿ âĢĶâĢľ
ĠD yer
ĠD aemon
Ġqu ays
ĠP ers
ĠP sych
ĠP omp
ĠP aine
ĠP ossibly
ap ed
ap le
Ġpro pped
Ġpro ceed
Ġpro dig
ĠN ear
ĠN ath
ĠN ortham
The unis
Ġsc ented
Ġsc anned
Ġsc anning
ass umed
Ġdis em
Ġdis may
Ġdis secting
Ġdis guise
ĠG irarde
Ġcl ang
Ġgr in
Ġsha l
Ġmad dened
Ġtr ousers
ĠE n
ĠE aster
ĠE arl
ĠE ventually
ĠE squimau
ĠE tienne
ĠE instein
Ġj am
Ġj uncture
ĠF riend
ĠF lorida
ĠL ate
ĠL ane
ĠL uke
be at
Ġgl and
Ġgl iding
Ġgl ittered
Ġwhere of
ci le
ci ble
ci ation
ft on
Ġnight ly
Ġmust n
Ġen m
Ġen vis
Ġen larged
hi pped
sp aces
ĠR han
ĠR oss
ĠR evolution
ĠR oyal
end ages
Ġhor n
for get
Ġlong est
sc ar
sc ra
sc ap
Ġtw itching
Ġper for
Ġfl our
Ġfl uttering
Ġfl anked
Ġfl ourished
Ġfl attened
ph ilosop
Ġob noxious
Ġob lique
Ġcur ator
Ġapp lic
Ġapp eal
ĠJ udge
Ġrec over
Ġsl it
Ġsl its
Ġsl iding
Ġsl ums
Ġsl umped
man s
man ner
Ġpo ise
Ġdist ort
Ġdist ributed
ber g
ber ish
Ġbo ot
Ġbo ards
Ġmo b
act ory
act ual
pe zo
Ġsm art
con ception
con sequences
Ġk ings
ord inate
ian ces
iz ing
iz ation
ne eded
ne arer
ather on
ng the
Ġimp ost
Ġimp art
Ġimp osed
Ġsin uous
ach ments
Ġke er
Ġinc antation
Ġinc ongru
aw aken
Ġlast ing
Ġhand ling
Ġch oke
Ġatt ested
Ġatt ending
Ġop ales
iv als
Ġwill ows
Ġhouse keeper
ĠY a
ĠY othic
gr at
Ġcr ushing
Ġcr ashing
Ġunder current
Ġsur passed
Ġtri o
ĠK ent
Ġad apt
Ġad opted
ject ure
Ġexp and
Ġexp ressions
Ġexp osure
br own
br inging
Ġrep aired
Ġdec line
Ġdec omp
Ġreal ising
Ġsub marine
Ġgu ides
ĠSt ud
app arent
app rehen
Ġpass ion
Ġac ad
Ġac res
Ġown ed
Ġres ented
Ġres ounded
Ġret ire
ering ly
ĠAs h
ĠAs ian
Ġhead ing
Ġsk illed
Ġco ils
Ġdisc s
so ever
Ġjust ify
ating ly
az es
ty pical
Ġsw o
Ġsw inging
Ġsw armed
Ġsw immers
Ġste eds
Ġste aling
cl aw
Ġfright en
Ġmoment ous
ob serv
ĠAt t
ĠAt lantic
mer chants
Ġwa fted
Ġpers isted
up stairs
ĠTh raa
com pany
ron ts
Ġrest lessly
vers ity
Ġdeep ened
Ġinde finable
eng ths
Ġmet ropolis
pr ise
ĠV ast
ĠAr k
imp ossible
Ġlar vae
Ġcry ing
Ġmar gin
Ġrel ish
Ġrel ating
sh rill
cle ared
cle aning
Ġinv ari
Ġinst all
Ġinst ance
Ġblo nd
Ġri bb
ute e
Ġque erest
Ġpast ures
ĠU ganda
Ġsn atches
Ġeff ulg
Ġind oors
ans as
Ġel apsed
ric ious
ric ulture
some how
ade quate
Ġfur s
pro ceeded
Ġshad y
by gone
fl ash
ĠWe bb
Ġsqu ire
iet h
Ġshould n
Ġfeel s
Ġsupp ort
hor izon
Ġant itox
bl own
dis played
yl ons
Ġgener ous
Ġser pents
mal ign
rid ged
Ġmot ive
und ered
Ġcoll ar
Ġins ist
Ġchar t
Ġchar ms
do es
Ġconf ess
Ġconf ront
Ġconf erred
ĠAn che
Ġsum mar
Ġsum ptuous
Ġmin iature
Ġdr um
pre viously
Ġpol es
Ġput res
Ġput ting
Ġput rid
Ġfr action
Ġcre ation
Ġcre ate
Ġcloud ed
Ġed ition
des per
des cending
des cended
Ġaff liction
Ġaff rightedly
Ġnorth west
Ġadd ressing
ern al
Ġcold ly
Ġcold ness
Ġass ert
Ġass ass
Ġass umption
Ġcomple ted
Ġtrans ition
Ġtrans cend
Ġund e
Ġund o
Ġap athy
udd ing
Ġ( _
Ġappro priate
Ġaut opsy
asion al
gl asses
Ġled ge
ser iously
Ġunt rodden
ah s
rem ained
rem ote
rem oved
Ġlist less
Ġlist lessly
would n
vo ices
Ġslo ped
Ġbes et
Ġsat in
Ġport s
Ġport ion
she er
she et
Ġten ement
Ġmod el
Ġnec rom
Ġho ard
amb ul
amb ered
Ġsim ian
Ġsim ultane
tr ouble
Ġbod iless
Ġorgan isation
ĠCl aes
Ġcomm anded
rel atively
Ġspot ted
Ġprom ises
Ġprom inence
Ġcommon ly
Ġple a
Ġimm ensity
Ġimm ortality
Ġrecogn ising
Ġthick ened
Ġshar per
vell ing
Ġbrain less
Ġtit les
Ġcapt ains
wind s
Ġhaun ts
vol ume
Ġbul ge
Ġbul ky
Ġbul bous
Ġtop ics
ĠBe acon
Ġopp osition
Ġlur ched
Ġlur ks
Ġequ ipped
Ġaccur acy
Ġsix th
Ġpain ter
Ġord inarily
dist orted
On es
Ġmove ments
acc han
cont aining
omin able
Ġrad ius
Ġsuff oc
Ġdifferent ly
tw ice
Ġfle eting
Ġconv ulsive
Ġconv incing
Ġtomb stone
Ġ17 4
Ġ17 8
bel ong
sur viving
Ġforth with
ush ion
Ġmerc ifully
Ġcat alog
Ġsouth west
sl im
Ġprot r
Ġprot ected
ĠAb yss
Ġmal ady
ĠSe ems
ĠSe eing
ĠSe fton
Ġsculpt ure
Ġstat us
certain ty
sub tle
Ġeng ra
Ġexpect ation
Ġwan ed
Ġheart s
Ġheart ily
Ġble ached
ĠOr der
Ġtrip ods
Ġdisp el
Ġblasphem ously
ĠâĢĶ âĢĶâĢĶ
than k
Ġte ach
Ġpartic ulars
Ġfurn ace
Ġpleas ures
Ġthro ats
Ġbreak down
Ġradi o
Ġradi ating
Ġden izen
bo ards
uc ination
Ġobt aining
Ġtang les
Ġarri ving
Ġseek ers
All en
stead y
Ġpurpose ful
Ġz est
Ġign ore
hall ucination
Ġpen manship
Ġcolour less
real ised
Ġrain y
Ġdef y
Ġgod like
rep itude
rep orted
ĠPo ly
ĠPo int
Ġdiss imilar
expl ore
Ġconcl ude
Ġscr atch
Ġscr utiny
Ġavo iding
Ġinqu ired
Ġlot os
Ġge ological
Ġge ologist
Ġdeal ings
Ġspecul ate
Ġpursu er
Ġapert ures
Ġ.âĢĿ _
Ġacqu is
Ġacqu ies
fall ing
Ġling u
Ġclass ified
Ġperil s
ĠKad atheron
Ġ5 0
Ġwon t
Ġholl owness
Ġgentle men
Ġfirm ament
folk lore
ĠMay be
ĠBar on
Ġdecl are
Ġdecl ares
vent ure
ĠSu pp
cul es
Ġloathsome ly
Ġur ging
Ġrout ine
Ġdecad ents
Ġwit hered
Ġhat ches
Ġregular ly
na a
ĠSh ining
Ġfun ny
Ġstair way
Ġstair cases
Ġcontr acted
Ġiv ied
Ġfine ly
Ġstag ger
Ġvirt ue
Ġrhythm ically
ĠHer re
ĠEx pedition
Ġphant oms
Ġhesit ancy
Ġrele v
Ġcho osing
Ġav idly
Ġshiver ingly
Ġforeign er
eg ible
Ġexped itions
With out
dimens ioned
Ġbehold ing
Ġwhir led
amps hire
Ġunconscious ness
Ġcomb at
Ġcob bled
Ġbaffling ly
pur ple
mad den
Ġtask s
Jo e
spe aking
Ġcourt es
whis per
Ġstick iness
exper iments
Ġritual istic
squ are
Ġtaste ful
Ġnumb ered
Ġuns olved
ĠSop hy
ĠDes rochers
ĠPl ainly
Ġwinds wept
Ġkeen ly
Ġmaint aining
Ġdomin ated
stud ies
ĠBen nett
Ġclean ed
Ġmaj estic
Ġattend ance
Ġrepl en
Ġrepl acement
ĠTr ue
ĠMc Neill
suggest ive
Ġaud ience
Ġtom es
Ġcler ks
Will iam
Ġbatter ies
Ġpred ec
Ġpred omin
Ġgor illa
Ġscra ped
Ġmonot ony
Ġcomplex ion
Ġtort ured
incl ined
Ġgrace fully
Ġshaft s
Ġmadden ingly
Ġaccident al
appro priate
Ġretreat ed
Ġirregular ly
fortun ately
Ġwitness es
conv incing
Ġsupposed ly
care ful
tor ches
Ġfra il
Ġdisord er
Ġwilder ness
Ġecst atic
Ġgruesome ly
circ ular
Ġoper ating
Ġwrigg led
Ġcas ually
Ġcup ola
Ġgall ery
Ġrept ile
Ġreass ure
Ġunpre pared
Ġdeb ate
green ish
pa used
Ġliter ature
Ġpreced ed
fr antically
poss ession
Ġtro ph
Ġresist ance
Ġcontinu ing
Ġcontinu um
find ing
list ening
sim ultaneously
Ġtechn ical
Ġwid ow
Ġbend ing
Ġunre ason
Ġclaim s
Ġhowl ings
devil s
bal anced
Ġmut ation
Ġtemper ament
Ġrepresent ing
material s
Ġpengu in
Ġwhist le
ĠHar ley
ĠCount ry
ĠKe ep
Ġchap el
Ġchap ters
cloud s
Pro bably
Ġbeck on
Ġtrust ing
Ġimpro ve
Ġimpro ved
Ġvibr ations
ĠChrist mas
cut ting
Ġmurd ered
Ġfanc iful
Ġinj ury
Ġnur ses
Ġscar red
Ġscar let
scream ing
Ġduplic ated
bon ius
bri ef
dest ruction
Ġwo efully
Ġban ish
Ġanx iously
Ġseiz ing
Ġrank s
Ġunexpl ainable
Ġexhib ited
ĠCol umbia
Ġattract ion
Ġ193 2
breat h
corn ers
peculiar ly
ĠIm ash
Ġrelie ve
peri ods
ĠEs sex
Ġpercept ible
incred ibly
Ġwake ful
Ġbat hed
Ġment ality
Ġpadd ed
Ġreanim ated
Ġvest ige
Ġvest ibule
Ġunimag ined
ĠHy perbore
erson al
ĠCar roll
Ġshru bs
ĠPh ilosop
Ġremn ant
prop he
Ġstragg lers
Ġphantas mal
fell ows
mach ines
Ġfis her
Ġsuns hine
Ġtramp ing
ĠRo ad
Ġimpass ive
Ġstrict ly
Ġconceal ment
Ġessential s
Ġoo zed
lead ers
Ġstif led
Ġcomfort ably
grou ps
sole te
Ġpersu asion
Ġpersu aded
Ġindep end
Ġelev ation
Ġdimension al
investig ation
Ġdilig ence
dust y
Ġsne er
Ġfond ness
ĠIbid us
liz ard
ĠDa albergen
Ġthank ful
Ġeduc ated
Ġ188 3
circum stance
refle cted
Ġpink ish
othe tical
Ġrul ing
Ġrul es
Ġungu arded
ĠSer annian
Ġconve x
ĠChe pache
Ġjew els
Ġpoly hedron
Ġintim ated
arring ton
ĠHallow mass
cab in
lur ked
slight ly
Ġcraft y
Ġforb ears
Ġanno yed
ĠMu Ã±
ĠBab son
ĠRic ci
Ġindiff erence
singular ly
fil o
Ġpig ment
ĠThibet an
ili ations
former ly
Ġripp les
Ġdrown ed
Ġundec ayed
extreme ly
Ġparap et
Ġparap hernalia
corrid or
Ġgalax ies
Ġwreck age
doubt less
MA N
Ġtum ul
Ġsam ple
Ġnavig ation
Ġwhim s
Ġknob s
Ġscru b
Ġglac iation
Ġrecon ciled
Ġnewcom ers
Ġchannel s
shr ouded
design s
descri be
Ġmagaz ine
Ġcondu ctor
Ġerud ite
Ġintrud ers
mus ical
revel ation
Ġfulf ilment
orig inally
Ġlust rous
Ġdefe at
Ġquar ries
Ġscre ened
Ġresent ment
damn able
bewild ered
bir ds
Ġdorm ant
Ġinno cent
Ġecon om
thr ong
Ġunhe althy
Ġexerc ise
Ġalter ation
ĠDen ys
Ġamp ly
ĠRou let
Ġcontro vers
Ġcontag ion
Ġsnap shots
Ġconfident ial
Ġvari ants
Ġveter an
transp arent
influ ence
Ġma elstrom
Ġmig ration
Ġcres cent
Ġlatt ice
ĠLavin ia
Ġrecur rent
Ġdelic acy
Ġcompet ent
Ġpostp one
Ġpiec ed
correspond ence
ĠOukran os
Mart ense
puzz led
Ġaug mented
Ġinher ited
Ġlux ur
Ġbeet ling
veget ation
etz alcoat
Ġsoph isticated
ĠBrook lyn
Ġpros per
perman ent
Ġmoist ure
Ġsubmer ged
cliff s
Ġindul ged
Ġdevote es
Ġembod ied
transl ation
Ġcrocod ile
Ġingen ious
Ã¡n filo
Ġvampir ism
Ġethn ologist
hierogly phs
Cy clopean
hig her
pron ounced
uin eness
ĠÃ Ĺ
Ġhipp ocephalic
Ġhan ged
Ġvestig es
ĠChand raputra
ĠMac Neil
ĠMess rs
Ġsock ets
ĠBed ouins
ĠNar ragansett
Ġcannib al
Ġprem ature
Ġprejud ice
Ġesoter ic
Ġeffig ies
Prof essor
neighbour hood
Ġaggrav ated
Pri est
War ren
vict im
yield ing
itar ium
Ġparson age
Ġthir teen
ĠCab ot
Ġkaleidoscop ic
Ġwarri ors
profession al
Kad ath
Sop hie
ladd na
ickn ell
Ġgou ged
Ġren ted
Ġruth less
ĠScri bonius
Ġplaus ible
Ġlibert y
ĠPi eces
ĠPier re
ĠNit okris
Ġdisag ree
ĠVOI CE
Ġminus cules
glim pses
Ġinfat uation
Whatele y
Ġmagnet ism
Ġsubterrane ous
Ġhypoderm ic
accompan ied
Ġglibber ing
SOTH OTH
cof fin
giv ings
rament o
whipp oorwills
Ġtugg ing
Ġaval anche
Ġoce ans
Ġcemeter ies
Ġpshe nt
Ġnephe w
ĠTues day
eccent ric
ĠCraw ford
ĠMÃ¼ ller
Ġoutsk irts
Ġlocom otion
ĠGirarde au
pezo hedron
Ġinvari ably
ĠAnche ster
Ġsimultane ous
ĠChepache t
ĠMuÃ± oz
etzalcoat l
1 3
2 5
2 8
3 9
A N
A pp
B ruce
D own
D av
D ragon
E r
E arly
F rancis
F ederal
F riday
G un
G ho
G hatanothoa
G radually
H al
H ey
I m
I sh
K ingsport
L ee
M ans
M iss
N granek
N aturally
O M
O T
P e
P h
P abodie
R A
R E
R ace
S p
S everal
S axon
T on
T ake
U L
U Z
U na
U lthar
V ad
V ig
W a
Y ig
Y addith
a ign
a que
b red
b os
b ull
b rance
c it
c ise
c ause
c rest
c apped
c alling
c rawling
d il
d ens
d iss
d awn
d ouble
d ignity
e ly
e au
f al
f ood
f ated
f ren
f ancy
f irm
f rey
g a
g all
g ather
g ip
g aze
g igantic
g usted
g ambrel
g ilded
h ot
h ost
h oped
h ollow
i ors
i astic
i ptical
k ily
k ingly
k ets
l ive
l ations
l ict
l ins
l eness
l uck
l aughter
l apping
l asm
l inked
m at
m ur
m un
m ate
m end
m ists
m ixed
m outhed
n et
n ine
n ance
n obody
o ch
o ons
o oned
o vable
p he
p ous
p ill
p os
p oll
p aint
p ale
p owers
p hants
p owder
r am
r ain
r and
r aces
r ushed
s se
s sy
s anity
s ultan
s uspicion
t ro
t ask
t oned
t echn
t omb
t angible
t oday
u um
v ic
v ap
w art
w orm
w rit
w aste
w anted
y ance
y ns
z er
z il
Ġ Â
Ġ âĢĿ.
Ġt ed
Ġt ears
Ġt ouches
he aring
Ġa x
Ġa is
Ġa ra
in j
in tering
in formation
in stant
Ġo st
Ġo unce
re ch
re cent
re aches
re bus
Ġw ove
Ġw ears
Ġw ars
Ġw oke
Ġw ield
Ġw add
Ġw inking
Ġw iping
Ġs ul
Ġs ighed
nd oubtedly
er as
er ms
ha g
ha bit
ed y
ed in
Ġb ure
Ġb read
Ġb aza
Ġb holes
Ġm ills
Ġm ias
Ġm astered
Ġm asked
Ġm azes
Ġf id
Ġf ist
Ġf ours
Ġf ade
Ġf aster
Ġf altered
Ġc il
Ġc li
Ġc ens
Ġc owed
Ġc ordial
Ġc hemistry
on gh
it ant
it eness
it utions
or ite
is ons
is ances
is ba
is olated
ar o
Ġd ur
Ġd ating
Ġd ashed
Ġd olphins
as ide
as cended
an po
ll ables
at in
at to
at able
at mosphere
Ġin ane
Ġin herent
Ġin suff
Ġin laid
Ġin organic
Ġin articulate
Ġp in
Ġp our
Ġp ag
Ġp hi
Ġp end
Ġp ried
Ġp aled
Ġp ains
Ġp iles
Ġp oring
Ġp uerile
Ġp ylons
Ġl ured
Ġl urch
Ġl ax
Ġl akes
Ġn as
Ġn ation
Ġn ailed
Ġn iggers
Ġh ol
Ġh ip
Ġh inged
Ġh ospit
om er
om ach
om orph
ic ut
ic ts
ic emen
ĠI V
ĠI mag
ĠI reland
Ġha ue
Ġha iled
Ġha lt
Ġha mp
Ġha cking
ly de
le k
le br
le aves
hat red
st im
st all
st age
st aking
st up
st itution
st uffed
st udded
al us
al tern
al ike
Ġbe a
Ġbe in
Ġbe es
Ġbe ars
Ġbe ats
Ġg em
Ġg el
Ġg able
Ġg ory
Ġg its
Ġg ross
Ġg ifted
ld ame
ld eb
se arches
Ġhe arer
Ġhe aved
Ġwas hing
Ġth ud
ent ry
ent ities
im ps
im als
im ony
im ented
ac al
ac ters
ac iated
id ian
ion age
Ġre li
Ġre side
Ġre place
Ġre bell
Ġre versal
ur us
ur ings
Ġon coming
Ġwh ip
Ġwh ipped
Ġst ain
Ġst ake
Ġst ains
Ġst aying
Ġst alking
Ġst amped
Ġst rolled
Ġst umps
ver ber
ver tebrate
et ch
et us
et ies
Ġu gl
am orphous
am pering
ce lebr
âĢĶ âĢĻ
ĠT or
ĠT ert
ĠT urn
ĠT ales
ĠT yrant
ri a
ri ly
ir is
ir regular
Ġwith held
Ġwith draw
Ġwith drawn
Ġwith drew
ay ers
ec o
ec st
ess ions
ous ands
th orn
th rill
th ousands
Ġnot ified
Ġat om
ich olas
Ġse aring
Ġse asons
Ġse aweed
ul ary
il ib
ch in
ch ron
ill imitable
ĠA ge
ĠA li
ĠA venue
ĠA poll
em br
em uria
em esis
od ge
ol n
ol ic
ol ves
ol ting
Ġr is
Ġr ans
Ġr ains
Ġr idden
Ġr apt
Ġr abb
Ġr otted
Ġr acial
Ġr ushes
Ġsu cking
qu ake
Ġme als
Ġme ets
Ġme eping
um at
kn ock
ind er
Ġun to
Ġun ending
Ġun affected
Ġun paved
Ġun pleasantly
ĠS A
ĠS lo
ĠS ona
ĠS herman
el ab
res ults
est ate
ĠH and
ĠH oll
ĠH uman
ĠH amp
ĠH aven
ĠH ampshire
Ġor ch
Ġor gy
Ġor ange
lo ath
lo omed
ist ant
ist ics
us sp
us ia
our ge
Ġsp ur
Ġsp ies
Ġsp ared
Ġsp hin
Ġsp anned
Ġsp hero
Ġall iances
ĠW id
ĠW all
ĠW and
ĠW orm
ĠW ords
Ġab err
Ġab oard
un w
un ivers
un belie
un wholesome
un pleasant
un familiar
own er
ant arctic
ust ace
ers man
out s
out ly
to ad
ĠC iv
ĠC ons
ĠC hap
ĠC ircle
ĠC omanchian
ĠC lyde
Ġde an
Ġde fect
Ġde graded
ĠM a
ĠM i
ĠM t
ĠM ight
ĠM od
ĠM ine
ĠM atter
ĠM oses
ĠM ont
ĠM agn
ĠM iller
ĠM aple
Ġso ci
Ġso aked
Ġso jour
Ġal ighted
ate g
ct ing
Ġout cro
Ġout posts
ag u
ag reed
Ġkn ots
ok an
Ġman if
Ġman sions
Ġman ufact
Ġsh od
Ġsh uffled
Ġsh ipped
Ġsh uffling
Ġsh reds
ost atic
Ġsa iling
Ġle er
Ġpl ant
Ġpl odded
Ġwe althy
ĠB ok
ĠB ern
ĠB orellus
ĠB acchan
ak y
ak us
Ġdo ll
ab as
ep h
ep ed
ĠO cean
ally lough
Ġwor my
Ġwor ms
Ġro b
Ġro ok
Ġro ared
Ġro amed
Ġro dent
are st
op otch
op lasm
Ġar gu
Ġar ranging
Ġwhat soever
Ġbl ot
Ġbl unt
Ġbl inked
Ġlo ad
Ġlo am
Ġlo ving
ĠD ust
ĠD ead
Ġqu ota
Ġqu adruped
ĠP al
ĠP ot
ĠP art
ĠP ap
ĠP ue
ĠP ublic
ĠP eter
ĠP Ã¡nfilo
ap ert
ap ham
Ġpro pri
Ġpro claimed
ĠN a
ĠN ext
ĠN icholas
Ġsc ales
Ġsc attering
Ġsc ores
ass ic
ass ured
Ġdis proportion
Ġdis gusted
ĠG et
ĠG ener
ĠG riggs
pl anes
Ġcl attered
Ġcl ambered
ĠHe h
ĠHe i
ĠHe aton
Ġcom a
Ġcom plicated
Ġover sight
Ġover nourished
Ġthr ones
Ġthan ks
per se
Ġtr ash
Ġgreat ness
ake a
ĠE N
ĠE ff
ĠE lt
ĠE arly
ĠE rebus
Ġj un
Ġj ave
Ġj utting
Ġfe eding
Ġbr ute
Ġbr icked
ĠF re
ĠF ord
ĠF olk
ĠF ollowing
ĠL inc
ĠL ady
ĠL uther
be hold
Ġgl itter
ci ple
Ġen jo
ĠR en
ĠR ec
ĠR ich
ĠR ep
ĠR ood
ĠR ob
ĠR ev
Ġdown town
ens itive
ign antly
ign ified
sc roll
Ġknow e
Ġper me
Ġper usal
Ġfl ared
ph is
ex ceed
Ġob solete
Ġcur ses
ĠâĢľ .
ĠJ uan
Ġcan y
Ġcan al
Ġcan ine
Ġfar my
Ġfar noth
Ġrec om
Ġrem orse
Ġsl owness
Ġsl ithering
ĠIn j
man kind
man ifest
wh ilst
Ġpre mon
Ġbo ats
Ġbo ots
Ġter ritory
Ġmo an
Ġmo le
ys ical
Ġsm iling
con es
Ġk y
Ġk ick
ord in
ord ers
ild y
ne ath
Ġimp orted
Ġimp ending
Ġimp eded
Ġimp ossibility
Ġimp ersonal
ult en
Ġcertain ty
int ill
int ered
int ense
Ġsec h
Ġsec uring
Ġdoor bell
aw a
aw are
Ġey elids
Ġcont acts
Ġcont emporary
Ġwill ow
Ġmon arch
Ġblack ly
not ed
Ġcr ud
Ġcr ush
Ġcr isp
Ġcr unching
Ġint on
Ġcar ic
gg led
Ġsur f
Ġvis ibility
Ġent om
Ġent reat
Ġtri als
ĠK ulten
Ġad verse
str ac
Ġexp ense
we ek
we ird
Ġrep r
Ġrep lying
Ġrep orter
Ġsub side
Ġflo pping
Ġflo cks
ĠSt ates
Ġpass engers
Ġsound ing
den se
mon ths
mon olith
Ġwall ed
Ġres ort
Ġres ervoir
Ġpres erving
Ġret iring
Ġhead stone
Ġhead piece
Ġco herence
Ġhar ass
Ġdisc ouraged
Ġdisc ouraging
light ly
Ġjust ly
ns w
Ġland ward
lie ved
ific es
Ġcle arer
Ġsw ord
Ġsw elling
Ġsw itches
Ġsw allowed
Ġste er
Ġhill y
cl ust
cl oth
cl awed
Ġstr ongh
Ġfear ing
Ġfear fully
Ġread just
ob viously
Ġmoon less
Ġbu ck
Ġbu ff
Ġbu ying
Ġbu ggy
Ġbu oys
Ġwa ist
Ġwa its
Ġwa vering
Ġfind s
Ġkind er
Ġless ening
Ġplan ks
ĠTh ok
ĠTh ird
com es
com pl
ron ed
Ġlow ly
ither to
Ġdeep ening
Ġmay be
Ġsun ny
Ġfin an
Ġfin est
Ġtre nd
Ġext ension
ĠV e
ĠV is
ĠV eg
ĠV illage
Ġbur lap
Ġcent red
Ġdel usions
imp ass
Ġcomp ass
Ġcomp osition
Ġcomp osure
ane ously
Ġmar ched
Ġmar ching
Ġmar iners
Ġbro ods
sh ore
sh one
Ġfloor ing
Ġinv asion
Ġinv iol
Ġinst ruct
ele ment
ele ments
Ġsign ed
Ġpast ure
ĠU pton
ĠU kal
Ġexpl aining
Ġsn ows
Ġeff ected
cent ral
Ġind eterminate
ric ate
ural ville
pro ved
pro blem
ines e
fl ashed
Ġart ific
clo ser
Ġpur ged
Ġpur port
Ġabs ences
In ganok
any one
Ġexc uses
Ġsupp er
Ġtem pt
** **
Ġsy n
Ġfaint est
bl asted
dis quiet
dis gust
dis integr
Ġfull er
Ġtra iled
Ġtra versing
Ġtry parsamide
mal ignant
fe eb
ten anted
und ers
und oubtedly
Ġcoll ecting
Ġye ares
Ġcontin ually
Ġchar lat
form ing
Ġsol ved
Ġsol utions
oun tering
ev ents
alt ar
alt ation
Ġru inous
men ace
men acing
ger ies
Ġroad side
Ġdr ow
Ġdr ama
pre cipit
night s
Ġmark et
Ġed ging
Ġwat ches
Ġaff lic
Ġbus hy
nce y
Ġill ustr
well ed
Ġunc over
Ġunc ertainly
Ġunc overing
Ġcount ing
Ġass uming
co herent
Ġpri or
Ġcomple teness
Ġenc irc
Ġtrans m
Ġtrans mitted
Ġtrans mission
Ġalien ation
Ġlab oriously
Ġprof it
otes ted
Ġdon ned
Ġbas es
Ġphys ics
Ġdi orite
Ġmag ician
Ġappro pri
house hold
aster ly
rough ly
Ġsuggest s
gl ist
Ġcirc led
Ġcirc ling
ground s
Ġche ering
Ġche ek
Ġce ilings
Ġyear ned
Ġunt ouched
ext ent
ext ra
ext ravag
ext irp
rem ind
Ġpar ody
Ġlist ener
Ġfresh ly
Ġfresh ness
Ġgrave l
ĠPro spect
vo y
vo ys
lic hen
Ġver ily
Ġver min
Ġver anda
Ġver tically
Ġbes pe
po ol
Ġmor al
Ġmor ph
Ġport raits
Ġpower less
Ġhall ways
Ġwhisp erer
Ġpan elled
Ġshri lly
Ġred olent
sha king
Ġho of
Ġsteep led
Ġsteep ness
Ġfact or
Ġreve llers
ĠSome one
Ġspect rum
Ġspect acular
yr ac
Ġsim pl
Ġvan ishing
Ġthin ly
tr aces
ĠCl ub
Ġpat ients
Ġimm obile
Ġimm ovable
Ġrecogn isable
sm ith
Ġfarm houses
Ġ18 5
Ġthick est
Ġconst itution
Ġfac et
Ġfac eless
gu ard
gu arded
hand writing
Ġincl ines
Ġinf er
ĠAl together
ĠAl bert
eed s
ograph y
bur den
Ġhast en
Ġmus cle
ĠBe ing
Ġchurch yards
Ġcal med
Ġcal ming
Ġcamp ed
Ġcamp aign
Ġrum ble
Ġequ ilib
Ġaf oot
Ġpain fully
Ġpain staking
Ġcult ures
acc ording
cont ents
cont rol
Ġviol ated
Ġdest ructive
add ed
Ġhist ories
Ġra ound
Ġglad ly
nat ives
Ġbed s
Ġfut ility
oc r
oc ations
sur ve
uct ions
Ġfan ged
Ġelect ro
Ġincred ulity
Ġvict ory
off icial
Ġscient ists
Ġdesign ed
sl aught
inter vals
inter pret
inter vening
Ġjo ys
medi ately
Ġbound ed
Ġbound ary
Ġmir ac
ĠMan uxet
sub ter
sub conscious
wr ite
wr ote
Ġexpect ant
Ġexpect ations
Ġexpect antly
world ly
Ġsucc umb
Ġmeet ings
Ġglo ssy
Ġtrad er
You ng
car vings
Ġpal pably
Ġstri pped
Ġstri kingly
sec ure
Ġexpression less
Ġguard ians
Ġdisp elled
Ġdisp osition
reed om
Ġwand erers
Ġrust le
flu id
Ġbrick work
Ġsignific antly
Ġlink s
ĠCh icago
Ġshudd ers
Ġdrag on
Ġvac ancy
Ġ3 4
Ġmort uary
Ġgen uineness
entle men
Ġstir rings
cr ude
cr usted
pass ages
Ġshun ning
abb al
Ġbreak ers
Ġbreak water
Ġradi ations
Ġscientific ally
Ġsail s
Ġcrowd ing
bo ys
Ġunf ast
Ġobt use
Ġneg ative
Ġantiqu ities
Ġantiqu arians
Ġeight y
Ġetern ities
Ġvent ures
real ms
quest ioned
disc over
disc ourse
disc ussed
Ġ192 5
Ġ192 6
Ġpot ency
ĠRe id
ĠRe vere
Ġrevel ry
Ġresemb lances
ĠMar inus
ĠMar jorie
ĠMar cia
Ġdiss ip
Ġdiss olve
Ġdiss olving
Ġcra zed
Ġpress ing
Ġsystem s
pers u
hel ped
Ġcop ious
Ġspring ing
Ġscr atched
Ġscr amble
Ġtrem or
Ġtrem ulous
Ġfurt iveness
Ġthousand fold
Ġinqu ire
Ġstup idity
Ġdeal ing
Ġspecul ated
Ġbig ger
Ġfa ound
new spap
Ġmaster y
Ġpatter ing
Ġknock er
cor rel
Ġweak ened
Ġexcited ly
Ġholl owed
Ġbackground s
Ġinsane ly
cons ul
ĠLe e
conce ivably
Ġ191 3
Ġ191 6
Ġcorrespond ed
flo ating
nor thern
Ġwear ily
Ġalarm ingly
Ġshr inking
Ġloose ly
Ġpeace fully
Ġbelong ings
born e
foot ed
foot steps
Ġur gent
imag inative
Ġprocess ions
char acters
Ġpriv acy
che my
Ġpsych ic
Ġpsych ologists
rug ged
Ġelement al
Ġconnex ions
Ġdig est
Ġmyth ical
Ġ16 8
Ġwel fare
Ġdull ed
Ġcontr asted
Ġresult ing
Ġciv ic
Ġnois y
Ġcru elly
Ġrhythm ical
Ġenorm ously
Ġ15 0
aver age
Ġfung oid
ĠEx eter
Ġphant asm
Ġgri eved
Ġhesit ant
Ġstraight ened
Ġunlike ly
Ġsuspic ious
Ġintellig ently
occ ult
Ġschol arly
Ġrever ted
Ġhyp othetical
Ab ove
Ġlaw less
Ġhum ped
Ġrub y
Be yond
Ġplay er
Ġcolon n
mag ic
Ġfav ourably
Ġcy n
Ġep ic
Ġep isode
Ġsole ly
spec ies
spec imen
Ġemp ire
del icate
del iber
Ġovert urning
Ġaver ted
ĠGreen land
Ġdiscover ing
Ġoccup ation
Ġmotor man
Ġlisten ers
inv olved
Ġwise ly
ĠWh ilst
ĠMart enses
exper ienced
Ġflood ing
Ġdelight ful
Ġchest s
blo cks
blo ss
ĠArab ic
ĠArab ia
ĠDes ert
Ġthrong ed
Ġabsor bing
sil ver
town s
Ġaim ed
Ġmaint ain
stud ied
stud ents
Ġeld est
Ġstore s
ĠFen ners
high ly
Ġpoet ic
recogn ise
aemon iac
Ġrav ine
Ġarg ue
Ġarg ument
Ġinvol ve
moon light
ĠQu etzalcoatl
cy cle
Ġbow els
suggest ing
suggest ions
Ġfal ter
Ġcost ume
Ġnause a
Ġreck lessly
Ġblast ing
Ġproblem atical
Ġimper ceptible
Ġcler ical
exc use
Ġcrown ing
Ġcool ing
dra ught
gener ally
Ġrich ly
Ġattribut ing
coll e
foll ow
sk ill
sign s
tem per
incl uded
Ġgoss ips
Ġdoct r
Ġapprehen sions
appro aching
Ġretreat ing
Ġawa it
Ġwis ps
omb asa
conv inced
Ġbuzz ed
aud ible
Ġmer ry
storm s
appear ance
Ġsimilar ly
Ġ176 1
Ġfearsome ly
Ġstagg ering
Ġwrigg le
happ y
sea ward
Ġdeb ased
bul ging
pa ul
wa ited
Ġpinn acle
ĠAd vertis
Ġramb led
Ġclam my
Ġclam bering
large ly
mess enger
Ġtro d
Ġbi ology
ĠSat urday
ĠCan adian
Ġchuck led
Ġdecor ations
Ġextravag ance
Ġsqual or
Ġcontinu ity
Ġcontinu ously
list ened
tri p
Ġcelebr ants
Ġhom ogeneous
Ġunre ality
ĠBet ween
ĠJohan nes
small er
cond itions
Ġinsp iration
Ġgib berish
ĠSw amp
Ġperform ance
Ġverd ict
Ġinspect or
Ġpist on
ĠSc ott
ĠHar bour
Ġkne eling
phys ician
ĠKe ene
Ġcompar ative
sum mon
Ġing ots
Ġpave ments
Ġpaw ing
Ġbeck oned
Ġrestr ained
Ġwhit eness
adv antage
Ġmaniac al
ĠPn ath
Ġimpro vised
Ġfoc ussed
Ġelabor ately
person al
person ality
Ġhypnot ised
Ġfru its
Ġinj uries
Ġheap ed
Ġvort ices
Ġspark ling
scream ed
incre asing
Ġbrill iantly
Ġreverber ated
Ġwed ding
ĠCol ony
ĠMem bers
Ġremot est
Am ong
Ġnu isance
lear nt
lear ning
Ġthread ed
oph ony
Ġawkward ness
Ġassist ance
Ġhoarse ly
effect s
Ġaur ora
ĠTan arian
ĠBook s
Ġflick er
Ġflick ered
Ġflick ering
Ġproud ly
intellig ent
Ġsteam er
clot hing
Ġdrows iness
Nor rys
dro pped
mir ror
Ġwolf ish
Ġsque ez
Ġcounter part
Ġgrav ity
Ġgrav estone
Ġunp opular
Ġexquisite ly
Ġabomin ations
ĠRo erich
Ġfacult y
itud inous
Ġhun ting
Ġabund ant
Ġconj unction
Ġgrotto es
class ified
Ġelev enth
question ing
struct ing
cra zy
trave lled
uit zil
Ġhoney comb
ĠPha ler
Ġkins folk
Ġ188 9
pi pe
pi eces
Ġmars hes
Ġpand aemoniac
Ġstamp ing
ĠPark s
Ġdimin ished
Ġengine ering
Ġdemand ing
capt ain
lur king
sac red
talk in
Ġfug itives
Ġswim ming
Ġprompt ly
Ġprophe cy
press ure
war ned
Ġpor th
Ġpor ch
Ġnic he
alc ade
immedi ately
quick ly
specul ations
Ġcarav ans
Ġparagraph s
record ed
Ġconstell ation
surv ived
Ġcrystall ised
nerv ously
uell a
Ġware house
Ġfest ival
Ġsoap stone
Ġappreci ate
Ġchlor ate
Ġchlor ine
Ġintermin ably
descri bed
Ġundul ant
surround ing
surround ings
Ġcommunic ating
.. .
fo et
tend ency
Ġtast es
Ġturban ed
Ġnet work
echo es
Ġconfin es
Ġcommer cial
Ġreminis cent
concl usive
ĠVal usia
Ġrefr ain
bas alt
bir th
furn ished
Ġmul es
Ġmul atto
Ġlaun ch
acqu aint
Ġrect angular
Ġvic inity
Ġwheez ed
log ical
Ġamp hib
ĠKn owing
Ġthunderstorm s
Ġhonest ly
accompl ish
Ġmegalith s
Ġmegalith ic
ĠTrans ylvania
loud ly
mechan ical
yd ney
Ġtar paul
iti ative
Ġdens er
ĠAk lo
Ġalleg ory
aret te
ĠPol ice
Ġamaz ingly
Ġamaz ement
ĠInst itute
Ġevas ive
Ġsurg ical
Ġintermitt ent
Ġintermitt ently
Ġtranqu il
Ġanticip ated
Ġirrit ating
Ġbarbar ous
Ġdispers ed
Ġdematerial isation
Ġscho oner
Ġfund s
ĠSime on
Ġorchar d
Ġshield ed
ĠEle azar
ĠFore ign
develo p
Ġcorusc ations
prim ordial
Ġinsol uble
Ġunden iably
distingu ished
strugg le
Ġvenom ous
Dun wich
El wood
Look ing
report s
Ġfrig id
Ġpic ters
Ġredu cing
Ġsuic ide
Ġunner ved
ĠHimalay as
Ġalle ged
ĠMil ky
Ġalco hol
ĠOdd ly
ĠEm ily
ĠLaw rence
exact ly
Ġtribut e
prin cipal
marvell ous
explan ation
Ġbalustr ade
Sl owly
Wil bur
fles h
fix er
gulf s
mid night
parent s
pier ced
treat ment
Ġurb ane
Ġbid ding
Ġcac ophony
Ġtos sed
analy se
Ġpir ate
Ġgarr ison
Ġwhor l
ĠTra pezohedron
thorough ly
inde finitely
Ġunident ifiable
ĠMin ot
Ġleis ure
ĠBrit ish
Ġnebul ae
Ġglam our
atern ity
Ġimprison ment
ĠKnow ledge
Ġsuburb s
Ġreson ant
Ġlethar gic
ĠVict oria
ĠVirgin ia
Ġbrook s
ĠMcC omb
Ts ath
fra grant
pock et
yoth n
Ġbould ers
Ġvindict ive
Ġunhing ed
ĠCho yns
abrupt ly
Ġloom fixer
Ġimple ments
Ġflim sy
Ġslugg ish
ĠKaur an
Ġrepuls ively
Ġstrat um
suc ceeded
Ġcentiped e
Ġemphas ised
recoll ection
Ġlegisl ature
Ġtypew riter
Ġincomple te
Ġlekyth oi
KEL EY
cour tyard
nect icut
wreat hed
Ġsie ge
Ġmoust ache
Ġcri ppled
alloy ed
Ġsus ceptible
Ġexhi bit
ĠWord es
Ġcongen ial
Ġupheav al
Ġdoz ens
Ġopales cent
apprehen sions
Ġacad emic
ĠAsh ton
observ ation
Ġantitox in
Ġdrum ming
ĠSupp ose
ĠHerre ro
Hal f
Pe ople
Una ussp
rech lichen
Ġbure au
Ġmias mal
Ġhospit ality
omorph ic
Ġhamp ered
ldeb aran
Ġugl iness
ĠTert iary
Ġrabb its
ĠHoll and
ĠHamp den
loath some
ĠCiv il
opotch li
Ġargu ing
ĠPue blo
Ġpropri et
ĠLinc oln
exceed ingly
Ġfarmy ard
ĠVeg a
ĠUkal a
feeb led
Ġafflic ted
Ġencirc led
Ġequilib rium
ĠRevere nd
bloss oms
uitzil opotchli
ĠChoyns ki
Unaussp rechlichen
0 1
1 4
3 2
4 5
9 8
A rab
A ny
A udrey
B o
B el
B ell
C ol
C lo
C ong
C ertain
C ampbell
D a
D id
D ip
D ob
D ON
E ast
E li
E gypt
E phraim
F e
F rank
G E
G ard
G ate
G old
G entlemen
H el
I N
J ack
J une
J ermyn
K lenze
L A
L e
L ittle
L ondon
M c
M ater
M evana
N ahum
N obody
O S
O ri
O rabona
P l
P ol
P ope
R ef
R iver
S m
S ir
S ec
S ub
S ince
S urely
S hort
S imon
T om
T illinghast
V III
V anderhoof
V ictory
W as
W ater
W ashing
Y uggoth
Z ING
Z enas
[ _
a o
a ust
a ided
b ang
b ung
b ility
b attered
b oot
b ench
c am
c ott
c atch
c hant
c aves
c rop
c ourt
d w
d ate
d ress
d ict
d ressed
d rown
d omin
d ivers
d ata
d usk
d iam
d roning
d uty
e ld
e ve
e ast
f at
f un
f ine
f umbling
f ooth
f ountains
f lying
f reedom
g re
g it
g ist
g ings
g li
g ie
g over
g azed
g rop
h ical
h ued
i ating
i ope
i ates
i asm
i rie
j u
j eh
k o
k ar
k ers
k illed
l ain
l amp
l ude
l ifted
m ph
m elt
m ined
m umbled
m ounting
m atical
m aker
m ourn
m ortal
m alevol
n ation
n ment
n ative
n akes
p ad
p all
p op
p ert
p ine
p ick
p itch
p ressed
p oles
p illars
p iping
r ion
r ide
r ite
r amp
r ons
r ade
r aying
r ays
r alled
r acts
s om
s us
s ust
s que
s up
s ister
s ailed
s ize
s kelet
s oph
t est
t ig
t ort
t ips
t rap
t aro
u able
u per
u cked
v or
v ous
v ort
v ivid
v ainly
w ra
w aking
w itch
w agon
w aning
x ter
y th
y ry
y gian
y awning
z if
Ã ¨
Ã Ń
Ġ urn
Ġ vers
Ġ ---
Ġt at
Ġt ame
Ġt ex
Ġt inted
Ġt aut
Ġt icked
Ġt rench
Ġt ipped
Ġt arry
Ġt aunt
Ġt uh
Ġt ilted
he althy
he aved
he xagonal
Ġa romatic
in ine
in oid
in fant
Ġthe t
Ġo h
Ġo aths
Ġo strac
re ns
re cl
re anim
re searches
re verber
Ġw ain
Ġw ag
Ġw ink
Ġw its
Ġw rest
Ġs ar
Ġs ere
Ġs its
Ġs allow
nd es
nd elier
er ity
er ick
er ously
ha ra
ha med
ha pless
ha eren
ha unting
ou ver
en ant
en ig
en ings
Ġb ery
Ġb ower
Ġb owers
Ġb ills
Ġb raid
Ġb abb
Ġb ench
Ġb unk
Ġb unch
Ġm ing
Ġm es
Ġm op
Ġm art
Ġm ount
Ġm ice
Ġm oll
Ġm ax
Ġm akers
Ġm iasm
Ġof t
Ġf ir
Ġf el
Ġf ared
Ġf ret
Ġf its
Ġc in
Ġc ess
Ġc ub
Ġc ited
Ġc aked
Ġc ards
Ġc ode
Ġc oward
Ġc ateg
on ial
it as
it ent
or ce
or ially
or Ã©
or ahs
is n
is ite
is land
is ters
is ively
ar ge
ar act
ar ranged
Ġd ot
Ġd ried
Ġd wind
Ġd otted
as per
as leep
as lee
ll ated
at ories
at inous
at isf
Ġin ad
Ġin te
Ġin action
Ġin hib
Ġp ter
Ġp ound
Ġp ose
Ġp ew
Ġp ouch
Ġp ounded
Ġp angs
Ġp ardon
Ġl ut
Ġl ass
Ġl amb
Ġl add
Ġl ids
Ġl umbered
Ġl umbering
Ġl engths
Ġn od
Ġn ave
Ġn ail
Ġn uzz
Ġn ational
Ġn asty
Ġh ove
Ġh ides
Ġh ogs
Ġh olt
om ers
ic iously
ĠI rem
ĠI onic
ĠI wan
ĠI lek
Ġha uled
ly mp
st able
st ared
st ock
st umbled
st upef
al id
al ted
al arm
Ġbe fall
Ġbe aker
Ġbe ldame
Ġg ag
Ġg raph
Ġg urg
Ġg ilded
Ġe lix
Ġe asterly
se as
se cted
se ldom
se mble
Ġhe els
Ġwas ting
ut ive
ut ations
ent ation
ent ity
ent ering
ent iful
ent worth
im per
im mem
im son
ac ke
ac cur
id ers
id iously
Ġthat ched
Ġre jected
Ġre lique
Ġre ceptive
ur o
ur ry
ur age
ur ingly
ur ances
ur ris
Ġst ack
Ġst ature
Ġst roll
Ġst omach
ver ness
et in
et on
et ting
et yl
Ġu m
âĢĻ .âĢĿ
ro st
ro bed
ad er
ad ise
ad mit
ad venture
am in
am er
am ish
am ents
ce iling
ĠT ir
ĠT aking
ĠT urning
ĠT aran
ĠT ekeli
ĠT ilton
ri ved
ri ages
ir am
Ġfor ged
ter rifying
Ġan a
ec ing
ec his
ain ting
th inking
th rust
Ġhis s
Ġnot oriously
all ingly
and al
and est
Ġse qu
ul ace
ke en
il ation
il ful
il bar
ch Ã©
ch osen
ill ar
ill um
ill ity
ĠA f
ĠA th
ĠA ran
ĠA nsw
ĠA ldebaran
Ġv ow
Ġv ale
Ġv irgin
em p
ble ms
od ed
Ġy ore
Ġy arn
ol st
ol ence
ol ished
Ġr ack
Ġr use
Ġr ider
Ġr umblings
if ier
Ġsu ction
ard ly
qu ented
qu alities
qu asi
Ġme phit
um in
um br
ind ep
ind iff
ind icated
ind ividual
ra il
ra ggled
Ġun sc
Ġun att
Ġun lit
Ġun anim
Ġun remembered
Ġun moved
Ġun limited
Ġun numbered
Ġun peopled
Ġun related
Ġun protected
Ġun tenanted
Ġun alloyed
ĠS a
ĠS en
ĠS im
ĠS ol
ĠS um
ĠS cha
ĠS leep
Ġwhe e
Ġwhe eled
est ab
est able
ĠH as
ĠH at
ĠH ay
Ġor thodox
lo bed
lo ss
ear ch
ist le
ist led
ist ocene
us ation
us ually
Ġsp right
Ġsp utter
Ġsp ices
Ġsp ider
Ġsp uttering
Ġsp ont
Ġsp attering
ast ing
Ġall us
Ġall usion
Ġall oy
Ġex iled
Ġex iles
Ġex altation
ĠW in
ĠW ere
ĠW onder
ĠW entworth
Ġab ility
un ion
un real
un holy
un broken
un earthed
un ciation
Ġcon ning
Ġcon cept
Ġcon geries
ant ine
her d
her alded
out ward
to fore
to pped
ĠC a
ĠC r
ĠC ro
ĠC hi
ĠC ret
ĠC hor
ĠC rane
ĠC urtis
ĠC arrington
Ġde eming
Ġde xter
ĠM or
ĠM ate
ĠM enes
ĠM atters
ĠM aen
ĠM orton
ĠM arshes
ĠM laddna
ĠM ombasa
Ġso aking
Ġso aring
Ġso bbing
Ġso journ
ace ous
ig er
Ġno bility
Ġno ndes
ew ed
ew ing
ct agonal
Ġup ro
ven erable
os it
os om
ag urris
Ġkn it
Ġman ners
Ġsh y
Ġsh owed
Ġsh ivers
Ġsh ingled
Ġsh immered
ost ered
ost led
hed ule
Ġle nd
Ġle ers
Ġle ague
Ġpl us
Ġpl umb
Ġpl ump
Ġpl antation
Ġwe bbed
ĠB ear
ĠB land
ĠB ib
ĠB eneath
ĠB road
ĠB audelaire
ak in
Ġdo ze
ab in
ab und
ĠO x
Ġli z
Ġli ed
Ġthere of
ud ged
nt on
Ġro ving
Ġro py
Ġro yal
of t
are l
op ot
op her
li qu
li ocene
Ġar d
Ġar ise
Ġar du
Ġar ousing
Ġbl ade
Ġlo y
Ġlo os
Ġlo gs
Ġlo osed
Ġlo bby
âĢĿ _
ĠD ow
ĠD am
ĠD ream
ĠD ev
ĠD ogs
ĠD utee
ĠP as
ĠP ast
ĠP owers
ĠP arg
ĠP ilbar
ĠP liocene
Ġthem e
ap ing
ap se
ap artment
Ġpro se
Ġpro ving
Ġpro bed
Ġpro vis
Ġpro sec
Ġpro blems
ĠN i
ĠN ug
ĠN eed
ĠN arg
ĠN ameless
Ġag itation
Ġag encies
Ġag riculture
Ġsc orn
Ġsc ope
Ġsc iences
Ġsc ourge
Ġim it
Ġim min
Ġim bedded
Ġdis o
Ġdis place
Ġdis rep
Ġdis organ
Ġdis connected
Ġdis grace
Ġdis illusion
Ġdis perse
ĠG ree
ĠG ib
ĠG ateway
ĠG alp
pl ant
pl ish
pl ates
pl acid
Ġcl ump
Ġcl andest
ĠHe aven
ĠHe ald
Ġcom ers
Ġcom ments
Ġcom rade
Ġover fl
Ġover hear
Ġover shadowed
Ġsha ggy
Ġsha mbled
ark weather
Ġnow adays
Ġthr ice
Ġthr ows
og a
ine ff
per ies
per ceived
Ġtr acing
Ġshe pher
ĠE ve
ĠE ight
ĠE dd
ĠE vil
Ġafter no
less ed
Ġj aw
Ġj ott
Ġj ug
Ġj arg
Ġdes ires
Ġfe ather
Ġfe ats
Ġfe asted
Ġfe igned
au va
Ġbr im
Ġbr ings
Ġbr ushing
ĠF ound
ĠF ort
ĠF right
ĠF ield
ĠF urther
ĠL ow
ĠL ost
ĠL ying
ĠL emuria
ĠL uella
Ġeven ings
ick i
be am
be ard
be ats
Ġgl ows
ater oom
Ġmust iness
Ġen s
Ġen light
Ġen clo
Ġen large
Ġen closed
Ġen abled
Ġen voys
Ġen feebled
sp ell
sp ied
sp ired
sp eed
sp ires
itt y
itt ens
ĠR um
ĠR un
ĠR ex
ĠR ather
ĠR ef
ĠR utland
ĠR akus
ĠR uralville
end ers
end less
end lessly
for ces
ull en
ling ing
ling ly
sc re
sc reen
Ġtw ent
Ġtw isting
Ġtw ilit
Ġper v
Ġper mission
Ġfl ush
Ġfl owering
ink ly
ink le
ink les
ex ion
ex erc
ex otic
ex ception
ex hal
ex isting
ex changed
ex pedition
ru id
Ġob tr
Ġcur ve
ps ing
Ġapp ly
Ġapp alled
Ġapp lying
Ġapp ointed
Ġapp endages
Ġapp arel
ĠJ er
ĠJ ew
ire ctly
Ġcan e
Ġrec o
Ġpr incess
Ġpr otested
har m
Ġrem on
Ġsl aying
Ġsl ashed
Ġsl anted
Ġsl umbers
ĠIn c
man n
man sion
wh ither
de b
de gener
Ġpre ached
Ġpre car
Ġpre hens
Ġbo on
oss al
Ġmen aced
ress es
Ġlight house
Ġlight nings
act ivities
Ġsm eared
con fin
con ceived
con trad
con jecture
Ġpe als
Ġpe eling
Ġk en
Ġk icking
Ġk idn
ian us
Ġimp ot
Ġimp lying
Ġsin cer
Ġsin cere
anc ies
Ġoff ers
ult ing
ie u
int u
int on
int rud
ĠThere fore
Ġdoor step
Ġinc isions
aw esome
Ġhand y
Ġhand ic
Ġch illing
hes it
Ġcont ented
Ġcont ract
Ġcont ribut
Ġworld ly
Ġatt ach
Ġatt acked
Ġatt achment
Ġatt ainments
Ġop aque
te eth
ĠY our
ĠY uk
Ġblack er
not withstanding
Ġcr imes
Ġcr ates
Ġcr inoid
Ġint ensive
Ġint roduced
Ġcar riages
Ġacc ord
ret reat
Ġtri es
av oured
ĠK ur
ĠK oth
Ġad vers
Ġad vert
ject s
Ġexp anded
we eds
Ġrep ose
ual ity
ene vol
ase ous
Ġsub du
Ġflo ods
ĠSt ygian
app ar
app rehension
my st
Ġchan ced
Ġac etyl
Ġac rost
att end
mon ot
Ġres ur
Ġres ident
Ġret aining
Ġret race
Ġret rospect
Ġwr ists
Ġwr ites
Ġwork man
like wise
Ġtoward s
Ġcha l
Ġcha se
Ġcha mp
Ġsay e
ĠAs aph
Ġreg al
Ġtell in
Ġco ating
Ġco pper
Ġco yote
land l
land ish
land scape
Ġhar sh
Ġdisc red
Ġdisc oloured
light ing
so il
Ġact ors
Ġact ively
az in
Ġcour sed
Ġcour te
oul ton
Ġland mark
oud s
Ġcle avage
Ġsw ing
Ġsw ell
Ġsw amps
Ġsw itched
Ġste ed
Ġste ered
Ġste ering
Ġdet erred
Ġdet erior
Ġdet achment
eless ness
Ġstr aying
Ġread iness
ale nds
ob vious
ins istent
Ġbu nd
up ward
ĠTh ur
ĠTh ink
com er
ron ic
ron ting
Ġrest s
Ġcor pul
Ġcor poreal
su ing
su it
su itable
enc ountered
Ġtre ason
ĠV II
ner ves
ĠAr m
Ġdel ayed
Ġdel icious
imp osed
imp enetrable
Ġcomp ens
Ġcomp act
Ġcomp ressed
Ġcol ors
Ġrel ished
sh udder
sh ifting
Ġinv ite
Ġlay ers
Ġodd s
Ġodd ities
Ġinst itutions
Ġblo ody
vel s
Ġri fle
Ġda res
ute ous
Ġem inently
ĠDr s
Ġpast or
ĠU ndoubtedly
arch itect
Ġyoung est
Ġright ly
Ġsn out
Ġsn outed
Ġsn arling
Ġeff iciency
Ġind icate
Ġel im
Ġel bow
ric ally
rew ed
iss ance
some one
Ġfur ore
Ġfur iously
pro ve
pro gress
fl ames
Ġmyst ically
Ġdev ious
Ġdev ising
ug ly
Ġsqu int
Ġcons ol
Ġcons ented
Ġcons isting
ĠAll an
ĠZ ar
ĠZ eth
ĠZ eb
ĠZ eal
Ġdiff er
In to
iet ies
Ġsky ward
Ġfeel ers
Ġele phants
Ġsupp orted
hor se
where in
Ġvill ager
Ġadv isable
Ġwood work
hem ists
Ġsens ory
Ġant agon
Ġrock ed
xt ap
bl ank
dis cipl
Ġsent iments
Ġtra iling
Ġtra ppings
Ġfriend liness
mal odorous
rid ic
rid den
rid dled
Ġmot if
Ġmot ivation
fe ited
cha os
could n
Ġcontin ents
Ġins ight
Ġins erted
Ġins istence
Ġchar ged
uff s
form ations
wor ks
wor thy
Ġsol idly
Ġconf idently
oun cing
ĠAn imals
Ġir responsible
Ġhapp ily
ger non
Ġgrey ness
cap able
there in
Ġdri lling
pre historic
pre cise
Ġput s
port al
port rait
There after
Ġed ifices
des cent
Ġdro pping
emon ic
Ġaff iliations
Ġcreat ing
Ġill egible
Ġbuild ers
Ġadd ition
Ġclim bers
Ġremem brance
Ġunc or
min er
Ġcount y
Ġdread ing
Ġass ail
Ġass erted
co Ã¶
under stood
Ġve il
Ġpri zed
Ġpap yr
Ġenc rusted
Ġtrans formed
Ġtrans cending
Ġfour teen
Ġnarr owed
Ġpeculiar ity
Ġpeculiar ities
Ġlab ours
Ġdistant ly
cal cul
Ġund is
Ġund ers
Ġprof ess
Ġprof essed
Ġap oc
set ting
Ġdi ving
sy mptoms
Ġtor mented
Ġappro aches
Ġnameless ly
gl ow
gl ub
gl anced
gl ittering
Ġhear ths
Ġcirc ulation
sw ear
sw amp
ser ies
ĠNew fane
Ġce asing
itive ly
aterial isation
pan es
rem ains
Ġfre quency
Ġcast les
Ġfoot ing
ax ed
Ġ2 9
And rews
Ġver bat
Ġver tig
po ly
po et
Ġchange less
Ġten ancy
cur se
cur ving
Ġmod elled
Ġmod els
Ġmod ifications
ider mist
Ġdisapp oint
ĠSome what
erc y
Ġod ious
Ġod orous
ĠCl ay
Ġide ographs
Ġmist aking
plic ation
Ġsuper ficial
Ġguess ing
Ġwatch ful
aven ues
aven port
ĠGeor gie
Ġbri er
Ġpat ted
Ġpat ched
Ġpat ron
Ġnightm ar
Ġple ading
Ġimm ac
oy les
sm iling
sm ooth
Ġreason able
Ġthick ening
Ġconst ructed
ann ihil
ĠGod frey
gu ards
vis ual
Ġshar ks
great ly
Ġcell ars
Ġfire flies
Ġinf ect
Ġinf ected
Ġinf irm
Ġinf erence
ĠAl ask
Ġty ph
Ġresp lend
ae a
Ġbul bs
Ġsearch lights
Ġcal c
Ġcamp ing
Ġgro an
Ġopp ression
Ġopp ressed
Ġexam inations
Ġdescri bing
Ġdescri bable
angu ined
Ġbore al
Ġcult ural
Ġcult ivation
acc ident
par all
par ap
Ġviol s
Ġfle x
Ġfle et
add ened
Ġbed room
Ġ17 9
oc ation
cher ished
exp ress
exp osed
rit es
Ġfly ers
Ġcat aract
Ġvol untarily
Ġtorch light
off er
off ice
Ġstre ngthe
Ġround ing
Ġblackness es
sl ate
Ġest ates
Ġprot racted
Ġprot oplasm
Ġmal formed
Ġblind ness
Ġblind fold
Ġjo ining
Ġmir th
ĠMan ly
ĠMan ning
sub tly
Ġlangu id
Ġremote ly
Ġdistinct ive
Ġble ared
Ġmiss in
Ġmiss hap
Ġglo ated
Ġglo ating
car ry
Ġstri ven
Ġstri ving
Ġpublic ly
Ġinner most
Ġdisp uted
Ġident ifiable
wall ed
ĠâĢĶ âĢĶ
Ġpit ted
ĠCh ris
ĠCh inese
Ġte emed
Ġweird ness
part ic
Ġ3 5
Ġocean ward
Ġdraw ings
Ġgen ial
ĠPer th
mar ried
Ġprop hes
Ġdifficult ies
work manship
door way
Ġvault ings
Ġradi ate
gress ive
arn ation
arn ass
bo at
bo ats
bo arded
Ġmould ing
Ġgle e
Ġgle aned
Ġunf athom
Ġval id
Ġstruct ural
Ġcap acious
Ġcap ricious
Ġdwell er
Ġdwell ings
Ġstead ied
black ened
Ġprofound est
Ġhung er
Ġeight h
Ġstream ing
Ġshut ting
Ġdispl ays
Ġprec inct
Ġprec ision
ixt ures
belie f
chan ges
real ise
Ġdef iance
disc ern
disc uss
Ġ192 3
ract ive
Ġpost marked
Ġgod less
gaun t
Ġstar ving
ĠCom m
ĠCom mon
ĠMar ia
ĠMar gar
ĠPo et
Ġinvestig ator
We ird
Ġbright ness
Ġdiss ap
Ġmalign ancy
Ġmechan ised
Ġmechan ics
Ġcra ving
cell s
expl oration
eff aced
Ġtent ative
ĠTs anpo
Ġrap idity
Ġobser vers
ĠEvery one
ĠEvery body
Ġspecul ating
Ġpursu ing
col m
col ossal
Ġcommun icate
new ly
rehen sive
Ġmat ted
Ġmat urity
Ġpatter ned
Ġpip ed
Ġsepar ately
Ġpract ices
Ġdry ads
Ġprison ed
dec re
dec ad
dec ayed
Ġvit ally
cip her
Ġtim ed
Ġtim idly
Ġer ror
ĠLe g
Ġ191 8
vent ions
Ġdiv ision
Ġdiv isions
Ġdiv orce
ribut e
Ġratt les
ĠSu perintendent
water front
Ġhon ours
imm ense
Ġsuccess ively
ez vous
foot prints
Ġfiend s
Ġlif ting
imag ine
Ġrevol ted
Ġself same
Ġdecad es
Ġapart ments
fit ted
sound ing
Ġwit ches
Ġlum ps
Ġhabit at
Ġann ual
Ġann ounce
Ġmis givings
Ġmur ky
ĠSh okan
ingu ishable
organ s
Ġfil m
Ġfil ms
Ġfil tering
Ġgas ps
gen uine
ĠAmeric ans
Ġnois elessly
Ġinha biting
Ġrail s
Al most
aver ing
Ġomin ously
Ġgn aws
comple x
det ect
det ected
det erm
det ails
det estable
Ã© s
Ã© taro
Ġfat ality
Ġrese mble
ĠEl mer
Ġadm ired
Ġav at
Ġcro ps
Ġcro aked
Ġhang s
Ġstark ly
Ġexceed ing
ĠPe aslee
diff erence
occ asional
Ġanaly tical
Ġsubtle ty
bar red
dimens ion
Ġtest ify
Ġtest imony
Ġtreat ises
Ġhum orous
Ġhum mock
Ġbehold er
Ġrequ isite
Ġrub bed
account s
Be ing
mos pher
Ġinfin ities
Ġcolon ies
Ġfav oured
Ġep ileptic
liv ity
Ġblank ly
spec ially
Ġpoison ed
del usion
del ivered
Ġfro st
Ġovert ake
Ġlimit ations
Ġsymbol ised
Ġcivil isations
Jo han
ĠDun edin
Ġoccup ancy
Ġsummon ing
ĠAgain st
ĠWh ich
exper iment
dep th
squ aw
Ġmanifest ly
Ġmanifest ation
ĠPr ince
Ġtrick ling
Ġabsor ption
Ġparaly sing
sens ible
Ġtend encies
Ġdil apidated
Ġdomin ance
stud ent
Ġrece iver
Ġstore room
Ġconqu ering
Ġaccess ories
Ġclean liness
Ġsupreme ly
Ġheat hen
Ġunw ar
Ġunw inking
Ġleather n
Ġinvol untarily
ĠTr ouble
Ġbrown ish
Ġintr ins
Ġhelpless ly
Ġexperiment ing
Ġburn s
lect ing
stant ially
Ġreck oning
Ġsear ches
Ġsear cher
Ġunexpected ly
Ġsplend ours
exc ess
exc av
Ġappar itions
Ġtransp orted
No v
creat ed
dra ped
pal ae
sa ved
Ġbatter ing
Ġpred atory
Ġlap ses
ĠEli za
Ġglim mer
Ġprecipit ately
Ġoccult ism
supp osed
Ġcomplex ity
coll ection
fant astically
fig ured
pent ry
Ġbull ets
Ġcou pled
Ġspl ashed
Ġspl ashing
Ġspl intered
Ġoccur ring
Ġcollap sing
fortun ate
pict orial
shi ps
Ġtread s
omb ard
Ġdetest ably
Ġsatisf ying
bott le
Ġstout est
Ġgrasp ing
Ġshel ters
Ġ176 6
Ġ176 8
aa aa
Ġoper ator
Ġgall eries
Ġunbelie vably
Ġexec uted
Ġrig idity
window less
Ġpotent ially
bul k
wa it
Ġmyri ads
Ġoutward ly
Ġobliv ious
Ġsurviv als
fr ame
mess ages
Ġtro dden
Ġhus ky
ĠSl umber
Ġspr inkled
Ġspr inkling
ĠNever theless
forg ot
Ġdecor ated
Ġresist less
bod ing
bod ies
ration ally
sim ple
tri umph
whe el
Ġcelebr ity
Ġhom age
Ġgasp ingly
spir its
devil ish
interest ed
Ġuncertain ty
shew ing
Ġgib bering
conn exion
opp osite
opp ortun
Ġsen ct
Ġnin ety
unct ory
ĠCon necticut
cloud ed
Ġcompar able
Ġdepos ited
Ġstartling ly
Ġaccompan ying
eight h
Ġobe y
Ġobe isances
Ġwre cked
esse llated
Ġpad lock
Ġrend ing
Ġrend ezvous
Ġclum ps
Ġenv y
ĠChrist ian
Ġmumm ified
Ġmonoton ously
Geor ge
fast ened
Ġmurd ers
Ġinj ured
Ġlod ge
Ġlod ged
Ġlod gers
Ġseet hed
child hood
Ġunutter ably
Ġspark s
Ġexcl aimed
Ġexcl amation
Ġdistr ust
Ġmeteor ite
Ġlabyrinth ine
fre quently
sn iff
Ġwed ged
Ġban ished
Ġbord ers
Ġbord ered
Ġcot ter
Ġexter mination
ĠMem ory
ĠMem phis
agr ant
Ġleering ly
Ġgreet ing
Ġcrack ing
cre aking
cre eping
corn ered
cosm os
fab led
escap ed
Ġhudd le
Ġreward s
oph on
ĠDid n
aph tha
Ġeccentric ity
Ind eed
tra versing
Ã¡ wa
usc s
Ġprecip ices
Ġacce ler
Ġsyll able
Ġpalae ont
Ġdegener acy
Ġfortun es
mass ive
Ġtax ic
Ġmil k
Ġinn umerable
Ġpra ise
Ġpra ises
Ġpra irie
search ing
church yard
Ġunp ainted
Ġnovel s
Ġnovel ty
ĠBur ying
Ġnorm ality
sett led
Ġgorge ously
trem endously
Ġhun ter
Ġhun ters
lead er
Ġrejo ice
Ġunfortun ately
Ġuniform ly
Ġabund antly
ĠMad ame
ĠMad ness
ĠMad agascar
abs ence
Ġimpat ience
grad ation
shri velled
Ġelev ated
fee ble
investig ations
aul ter
rust ations
trave l
Ġsan er
Ġsan itarium
Ġchat ter
Ġchat tering
ghoul ish
Ġeman ations
Ġliber ation
ĠRiver side
Ġexcav ations
Ġtorrent s
current s
Ġadventure r
ĠGrand ma
RO D
call in
ik ov
Ġhero ine
Ġhered ity
Ġungu essed
Ġorg iastic
Ġconcent ration
Ġconcent rate
Ġslack ened
Ġintim ations
Ġharmon ies
super st
Ġdepend s
short ly
Ġbarrel s
Ġmurm ured
shadow y
di abol
tre mbling
tre mbled
Ġastr ay
Ġded uctions
Ġpity ing
Ġpub l
Ġreign s
ĠTel oe
Ġanno ying
Ġanthrop ological
Ġanthrop ologist
Ġunpl aced
Ġbrisk ly
Ġperpet ually
Ġembal med
Ġerr and
Ġerr ands
cylind ers
faint ly
inha bited
inha bitants
Ġsigh ing
Ġnic hes
Ġeer ily
ĠTy chÃ©
ĠItal ians
Ġexplo sion
Ġlandl ady
Ġcorrel ate
Ġdrown ing
Ġundec ipherable
Ġ177 1
Ġcrystall ise
Ġacquaint ances
Ġbullet in
Ġbullet ins
Ġsidewalk s
Se ptember
equ ally
lad der
mock ing
Ġtoler able
Ġlic hen
Ġlic hens
Ġnavig ate
Ġvag aries
ĠSam uel
phosphoresc ence
Ġrecon cile
Ġbury in
Ġillum ination
fragment ary
fo am
rim med
slo pe
Ġanat omy
Ġanat omical
Ġanch or
ĠCorn ers
ĠDel ap
Ġquar rel
exam ine
Ġreminis c
Ġdiscus sing
Ġexcess ively
Ġtaciturn ity
Her bert
OU ND
bad ly
furn iture
Ġmalevol ence
Ġmalevol ently
Ġdre ary
Ġlaun ched
Ġrect angle
Ġwheez ing
ĠDen ny
Ġdismiss al
phot ograph
phot ographs
Ġcontro ls
Ġcontag ious
tele phone
Ġadmin istered
Ġswarm ing
Ġsupplement ing
Ġvari ations
Ġemerg ency
Ġannihil ated
accompl ished
fascinated ly
caut iously
heaven s
Ġmongrel s
Ġcres cend
Ġinject ions
Ġell iptical
Ġconstr aint
Ġloaf ers
Ġbru ising
ĠLavin ny
Ġevas ively
Ġaccum ulated
Ġsurg ery
Ġdelic ately
profound ly
Ġdispers al
Ġpostp oned
Ġpiec ing
Ġphilosoph ic
Ġphilosoph ical
Ġcataclysm ic
Ġtipto e
Ġtipto ed
ĠOukran ikov
drag ged
Ġrom antic
Ġcav alcade
stre ngth
ĠTH E
chim neys
Ġrug ose
ĠHa ow
Ġorchar ds
Ġquant ity
Ġquant ities
Ġslam med
Ġentertain ed
Ġswine herd
clut ched
prim itive
Ġunden iable
Ġfanatic ism
crowd ed
difficult y
occup ied
Acc ording
Bar zai
Ch rist
aÃ« rial
aÃ« roplane
bab we
shat tering
wors hipped
resemb lance
Ġfaun s
Ġdom ain
Ġdazz ling
Ġpione er
Ġhood ed
Ġgarg oyle
Ġgarg oyles
Ġhey day
ĠTw ice
ĠTha ddeus
ĠHist orical
Ġimmeas urable
Ġimmeas urably
Ġtru cks
Ġtrump et
expect ancy
Ġcontempl ated
Ġintrodu ction
mean while
prison ers
Ġextrem ity
Ġesp ionage
formul a
formul ae
Ġencourage ment
Ġcalam ity
character istic
Ġpestil ential
Ġdynam ite
Su ydam
fing ers
hur ried
meth ods
phi a
invol ving
Ġsart ain
Ġfem ale
leather y
Ġasp irations
aston ishing
unaccount ably
foreign er
ĠNith ra
civil isation
concent rated
Ġrepug nance
ĠVas ili
Ġburg esses
Ġinterpre ter
ĠZim babwe
curt ained
Ġembarr assed
ĠDeep er
Ġprivile ge
Ġcobbl estones
Ġpageant ry
archae ologists
uncann y
Ġspasmod ically
aesthe tic
lau ghed
pinn acles
tom orrow
virt ually
Ġturb ans
idol on
Ġstalk s
rosc ope
ĠTart arus
Ġrag s
ĠSar ac
ĠSac ramento
ĠCam bridge
ĠCross ing
ĠMes ozoic
ĠOcc asionally
Ġprocl aiming
asso ci
Ġdissu ade
Ġcompr ised
spr ung
ĠRuss ys
conspic uously
monstros ities
Ġresid ue
Ġrestaur ant
nois se
project ion
Ġparadox ical
Ġtenant less
ĠShort ly
limit less
Ġecli pse
commun ication
Ġsomn ambul
Des pite
Ol ney
Sw ami
Thor ndike
houl s
Ġtantal ising
Ġgaud y
Ġhemis phere
Ġreb elled
ĠTege a
ecd otes
ĠShad ow
ĠHaz el
istr ations
aba oth
ĠPomp elo
Ġdisem bodied
Ġjam bs
scap es
Ġapplic ation
ĠArk ansas
Ġribb on
desper ately
Ġsuffoc ating
Ġcatalog ue
slim y
Ġprotr uding
Ġacquis ition
Ġacquies cence
Ġcourtes y
ĠHyperbore a
ĠPhilosop her
Ġfisher men
Ġindepend ently
Ġtumul us
UZ ZING
Vig ilant
Ġted ious
Ġax e
Ġais les
Ġara ound
Ġsul ph
Ġcil ia
Ġpend ul
Ġbea uteous
Ġgel atinous
ĠApoll o
elab rum
ĠWid ener
ĠMod ern
ĠMagn us
Ġoutcro pping
Ġdoll ar
apert ure
ĠNa acal
ĠElt down
Ġenjo ying
ĠRich mond
Ġky lix
monolith s
Ġstrongh old
impass able
Ġinviol ate
remind ed
Ġsimpl est
Ġunfast ened
Ġventures ome
Ġcolonn ades
ĠAdvertis er
Ġtarpaul in
Dip tera
Mater ia
bang us
bung alow
cott age
dw elt
som n
Ġtat too
Ġtex ts
Ġbery l
Ġbabb ling
Ġmax imum
Ġinte gr
Ġlut an
Ġladd ers
ĠIwan icki
Ġelix ir
ĠTir Ã¡wa
Ġmephit ic
ĠCret aceous
ĠChor azin
ĠMaen alus
Ġnondes cript
ĠBland ot
Ġardu ous
ĠPilbar ra
Ġprovis ional
ĠGalp in
Ġclandest ine
ĠEdd y
Ġjott ings
Ġjarg on
auva is
Ġenclo sure
Ġprehens ile
Ġsincer ity
ĠYuk th
Ġsubdu ed
Ġacetyl ene
Ġdeterior ation
Ġpapyr us
Ġverbat im
Ġvertig inous
Ġresplend ent
Ġmisshap en
Ġunfathom able
ĠMargar ita
mospher ic
2 3
3 5
3 8
5 8
6 1
7 0
8 6
A S
A lf
A ng
A ugust
B r
B en
B et
B ack
B irch
B esides
B ridge
C T
C or
C ent
C har
C ult
C elephaÃ¯s
D ec
D ark
D ick
D agon
D ominie
E n
E s
E nd
E lder
F red
F eb
G reen
G edney
G rand
G loss
H or
H ist
H enry
H utchinson
H olm
I R
I S
K e
K n
K alos
L U
L i
L ast
L ouis
M en
M at
M em
M ag
M ountain
M orning
M exic
M anton
N one
N ature
N ovember
O ctober
P ar
P le
P oor
P EE
P illar
R I
R Y
R ev
R eal
R evolution
S an
S at
S pan
S abb
T ra
T ime
T aw
T was
U m
U nder
U MAN
V an
W ed
W ing
Y OG
\ .
a ure
a ult
a ether
a eras
a issance
b en
b ac
b ill
b one
b ran
b og
b ling
b ree
b ord
b ase
b ats
b uck
b oned
b aying
b uzz
b arn
b arked
b ola
b attery
c ou
c ost
c ies
c ass
c zy
c uous
c abb
c ube
c ads
c rawl
c ushion
d in
d im
d ull
d iz
d aring
d iet
d omed
d rab
d ler
d rill
d rows
d rum
d iary
d renched
d olphins
e a
e ers
e ft
e ating
e asy
f on
f ight
f red
f est
f ling
f ru
f ax
f ailed
f aded
f umbled
f itting
f acing
f rank
f umes
f lights
f olded
f resco
f ringed
f ronts
f ainting
g on
g ong
g ame
g ence
g au
g ree
g ments
g ah
g otten
g alley
g room
g rav
g irt
g rap
g athered
g oddess
h orn
i ro
i ew
i pt
i ants
j ew
j ump
j umped
j acket
k ered
k itten
k itchen
l age
l ink
l oric
m ould
m um
m ally
m ort
m ated
m uttered
m ode
m uttering
m amm
m asses
m ixture
m ousin
m akers
n ur
n ish
n als
n osed
n oph
n avig
n osis
n umbers
n emonic
o cal
p in
p il
p ond
p sed
p ull
p ave
p ause
p aid
p ests
p acked
p icked
p ushing
p unct
p archment
p opular
r out
r ish
r ary
r ised
r ained
r iting
r ats
r owers
r ushing
r otted
r isen
r uled
r acking
s an
s ail
s cept
s alt
s inc
s af
s itting
s unk
s kin
s imply
s outhern
s welled
s ullen
t ur
t ies
t ally
t har
t was
t ip
t ides
t owers
t ouched
t ension
t oric
t angled
t issue
t ruly
u ps
u cl
u cent
u eness
u ette
u Ã±
v ents
v ention
v itch
v estig
v arying
v ital
v indict
w on
w id
w ore
w ant
w ig
w ine
w au
w olf
w igs
w ireless
w olves
x imate
z es
z ab
z ie
| ---
Ã ģ
Ġ $
Ġ âĢĿ,
Ġt ens
Ġt ides
Ġt umbling
Ġt aun
Ġt apped
Ġt ails
Ġt inkling
Ġt anks
Ġt ireless
Ġt essellated
he cked
he alth
he ights
Ġa rom
Ġa ugust
in it
in ar
in th
in qu
in ward
in most
in av
in com
in form
in cal
in stru
in script
Ġthe at
Ġo pt
Ġo lf
Ġo ath
Ġo ptical
re nd
re ll
re ared
re str
re lic
re eled
re produced
Ġw un
Ġw ig
Ġw akened
Ġw estering
Ġs all
Ġs ke
Ġs han
Ġs ate
Ġs ence
Ġs ip
Ġs ores
Ġs ifting
Ġs aints
Ġs isters
er b
er ical
er ably
er Ã©taro
ha ow
ha el
ha ven
ha usted
ha gen
ha bits
ed ged
ed ges
ou ri
ou ces
en orm
en ner
en emy
en zie
Ġb er
Ġb on
Ġb ic
Ġb alk
Ġb ale
Ġb atch
Ġb ane
Ġb iting
Ġb ayed
Ġb alked
Ġb umped
Ġb hole
Ġb arring
Ġb acter
Ġm ic
Ġm im
Ġm ol
Ġm os
Ġm udd
Ġm apped
Ġm aus
Ġm ittens
Ġm nemonic
Ġf ake
Ġf for
Ġf ans
Ġf ulg
Ġf ringe
Ġf ringed
Ġf ostered
Ġc rom
Ġc able
Ġc au
Ġc ove
Ġc asc
Ġc rop
Ġc une
on to
on ts
on athan
it o
it ical
it ons
it ans
es ide
es que
es irable
or f
or ant
or used
or ists
is is
is her
ar ose
ar ius
Ġd ere
Ġd ast
Ġd ated
Ġd raft
Ġd ances
Ġd abbled
Ġd ignified
Ġd roned
as iness
as ms
as cending
Ġto iling
Ġto ss
Ġto lled
Ġto ppled
Ġto ppling
an ch
an ry
an omal
at ial
at ured
at ement
Ġin an
Ġin active
Ġin eluct
Ġin adequate
Ġin ordin
Ġin conclusive
Ġin itiative
Ġp ent
Ġp ant
Ġp aced
Ġp arted
Ġp oked
Ġp ike
Ġp ored
Ġp orous
Ġp ylon
Ġp aternal
Ġl in
Ġl en
Ġl ac
Ġl az
Ġl ung
Ġl itten
Ġl ump
Ġl icked
Ġl imply
Ġl iner
Ġl acer
Ġn om
Ġn ap
Ġn omin
Ġn ode
Ġn ipp
Ġn igger
Ġn ails
Ġh ues
Ġh oused
Ġh ousing
ic he
ic ity
ic ited
ĠI I
ĠI X
ĠI g
ĠI nt
ĠI II
Ġha in
ly s
le ch
le ction
le arn
hat h
hat ic
st out
st ark
st uff
st ayed
st umbling
st ony
st while
st enches
st ige
al ian
ow ling
Ġbe half
Ġbe fallen
Ġbe arers
Ġg ong
Ġg ott
Ġg ift
Ġg erms
Ġg aseous
ot ions
ot hes
ot land
Ġe lo
Ġe lf
Ġe ik
Ġe idolon
se ts
se cl
se aled
se vere
se pulch
Ġhe em
Ġhe ave
Ġhe xagonal
Ġhe retic
ut o
ut r
ut os
ut ies
ent ire
ent ele
im mer
im med
im ages
im itation
im plications
ac ons
ac ingly
ac cept
ac ques
ve land
Ġre ly
Ġre ds
Ġre ctor
Ġre ception
Ġre appear
Ġre union
ur ion
ur ate
ur ated
ur iously
ur assic
Ġon slaught
Ġwh ined
Ġst ations
Ġst ale
Ġst yl
Ġst enches
Ġst ateroom
et he
et le
et ings
et hing
et ty
et ern
âĢĻ _
ro it
ro aching
ad just
am og
am ie
ce pted
ce met
ce lest
ce aselessly
ĠT l
ĠT en
ĠT op
ĠT old
ĠT ower
ĠT oday
ĠT ruly
ri ve
ri ef
ri ots
ir ous
ir ck
ir ates
Ġfor k
ter rified
ter races
Ġas semble
Ġan ci
Ġan imate
the w
ec ed
ec ut
ec ause
th us
th irst
th rew
th ora
all owing
all oped
Ġat oned
Ġat mospheric
rom pt
and inav
Ġse eds
Ġse eped
ge omet
ge ological
ul ant
ul ative
ul king
ul ius
ke e
ke eping
ch oking
ch loric
ill es
ĠA I
ĠA T
ĠA e
ĠA w
ĠA ut
ĠA dd
ĠA lt
ĠA uck
ĠA bel
ĠA ND
ĠA lex
ĠA KELEY
ĠA DON
Ġv ir
Ġv owing
Ġv antage
em a
em fon
od ours
Ġy anked
ol itan
Ġr ation
Ġr ave
Ġr aw
Ġr owed
Ġr ides
Ġr ailed
Ġr aged
Ġr umbled
Ġr uffled
Ġr aging
Ġr acking
if ies
Ġsu st
Ġsu ck
Ġsu ave
Ġsu ited
ard er
qu er
qu ed
qu et
Ġme lt
Ġbut ter
um ned
ra is
ra versed
Ġun ce
Ġun str
Ġun rave
Ġun vo
Ġun err
Ġun respons
Ġun seeing
Ġun hurt
Ġun yielding
Ġun aware
ĠS on
ĠS ing
ĠS al
ĠS ave
ĠS pec
ĠS cip
ĠS hards
ĠS yrac
ĠS abaoth
el abor
res c
res ham
res pect
res umed
res ume
res isting
ĠH o
ĠH ought
ĠH aw
ĠH off
ĠH itherto
ĠH uitzilopotchli
ĠH iram
Ġor ter
Ġor ally
Ġor bs
Ġor bit
lo c
lo y
ear ance
ear thing
ist ol
ist ine
ist ocr
us ory
us sing
us band
our ishment
Ġsp un
Ġsp her
Ġsp ort
Ġsp ine
Ġsp urred
Ġsp ilt
Ġsp attered
Ġsp uttered
Ġsp elling
Ġsp inal
ast ily
ast rop
Ġex ce
Ġex ited
Ġex itement
Ġex alted
ĠW it
ĠW ear
ĠW ond
ĠW rit
ĠW inged
Ġab ate
Ġab ject
Ġab etted
Ġab odes
un ts
un iverse
un imag
un hallowed
un finished
un thinkable
un mentionable
un numbered
un fortunate
Ġcon ches
Ġcon vol
Ġcon versed
Ġcon spic
Ġcon grat
own ed
ant e
ant ique
ust om
ust ry
ers ed
to ed
ĠC ad
ĠC ry
ĠC are
ĠC ass
ĠC au
ĠC elt
ĠC hant
ĠC osm
ĠC rit
ĠC hamber
ĠC rawling
Ġde e
Ġde formed
Ġde finable
ĠM ur
ĠM ill
ĠM ater
ĠM ental
ĠM ills
ĠM eth
ĠM eh
ĠM ilton
ĠM wan
ĠM amie
Ġso bs
Ġso fa
Ġal as
Ġal ight
one ous
ig o
ig r
ig ible
ong ol
Ġ. âĢĻ
Ġout en
Ġout grown
Ġout post
Ġout doors
Ġout break
Ġout stretched
Ġout siders
ven ience
os well
os itions
ag g
ag ents
ag ery
ag mit
Ġkn ick
Ġkn elt
Ġkn aps
Ġkn otted
ok y
Ġman gan
Ġman ned
Ġman ual
Ġman hood
Ġsh o
Ġsh ove
Ġsa p
Ġsa le
Ġsa pped
Ġsa fer
Ġsa uc
ack enzie
Ġle aked
Ġle agued
Ġpl ot
Ġpl ac
Ġpl astered
Ġpl agued
Ġpl oughing
Ġpl entiful
Ġwe pt
Ġwe ep
Ġwe ave
Ġwe ighed
ĠB ull
ĠB ob
ĠB ates
ĠB oy
ĠB rav
ĠB orough
ĠB eren
ĠB rig
ĠB oreal
ĠB icknell
ĠB UZZING
ak ings
ak ery
Ġdo ck
Ġdo zed
Ġdo vet
ab e
ab ling
ab ody
ab ominable
ep ileptic
ĠO d
ĠO h
ĠO ct
ĠO ff
ĠO range
ĠO ught
ĠO wing
ĠO lymp
Ġli p
Ġli v
Ġli very
Ġli vin
Ġthere on
ud n
Ġro y
Ġro le
Ġro ved
of ty
are a
are n
Ġne gl
op f
op ic
op hy
op ulated
Ġwho ever
li gh
li ant
li ance
li ves
li hood
li kes
ĠIt ty
ĠIt aly
Ġar bit
Ġar dent
Ġar istocr
Ġbl ouse
Ġbl ankness
art ing
ert ific
Ġlo ot
Ġlo ves
Ġlo ading
ĠD em
ĠD ub
ĠD ock
ĠD arkness
ĠD oric
ĠD uke
ĠD orÃ©
ĠD ruid
ĠD avenport
ĠD irck
Ġqu er
Ġqu it
Ġqu ay
Ġqu ery
Ġqu ivered
ĠP ass
ĠP ict
ĠP oles
fore ver
fore head
fore seen
Ġpro be
Ġpro dd
Ġpro sy
Ġpro consul
ĠN eg
ĠN aphtha
Ġsc ars
Ġsc rawl
Ġsc andal
ass ment
Ġim ps
Ġdis ple
Ġdis used
Ġdis arm
Ġdis cipl
Ġdis sociated
Ġdis lodged
Ġdis inclined
ĠG re
ĠG or
ĠG ar
ĠG em
ĠG ive
ĠG ord
ĠG reg
ĠG ates
ĠG oy
ĠG houls
pl un
pl ate
pl astic
pl anted
pl anked
pl ainly
pl atform
Ġcl an
Ġcl asp
Ġcl enched
Ġgr ate
Ġgr ated
Ġgr itty
Ġcom in
Ġcom ings
Ġover took
Ġover board
Ġsha ring
cc o
og ue
og any
ine v
per p
per v
per il
per form
per version
per ceptibly
Ġtr ac
Ġtr unc
Ġtr itons
ĠE lo
ĠE ither
ĠE ric
ĠE specially
Ġj ab
Ġj aun
Ġj oc
Ġj olted
Ġj olting
Ġj ostled
Ġdes erves
Ġfe ign
Ġbr ut
Ġbr itt
Ġbr ows
ĠF le
ĠF lo
ĠF ree
ĠF land
ĠF eren
ĠF rig
ĠF OR
ĠF amily
ĠL um
ĠL ear
ĠL ud
ĠL ev
ĠL isten
ĠL arge
Ġam pl
Ġam ber
Ġam iable
ick le
be nd
be le
Ġgl ut
Ġgl ide
Ġgl ub
Ġgl azed
Ġwhere fore
Ġen gin
Ġen com
Ġen list
Ġen shr
Ġen nu
Ġen abling
sp ent
sp rang
itt in
ĠR a
ĠR ain
ĠR andy
Ġdown e
ens ible
ens ibly
for mal
ign orant
ves ted
sc ent
sc enes
Ġtw itched
Ġper force
Ġper ceive
Ġper ceiving
Ġfl ap
Ġfl int
Ġfl owing
Ġfl ask
Ġfl avour
Ġfound e
ink opf
ph or
ex hib
ex change
ex quisite
ex ternal
ex hausted
ru bbery
Ġagain e
Ġear ned
Ġear then
Ġob ed
Ġapp oint
Ġapp rehe
Ġapp rised
ĠJ im
ĠJ onathan
ĠJ urassic
ree f
Ġcan s
Ġrec ite
Ġrec overing
ile y
Ġsl owed
ĠIn utos
man ces
man aged
man iac
man uscripts
Ġhow ls
other wise
Ġdist ress
de bris
de vast
Ġpre yed
Ġpre stige
Ġwind ings
Ġback ed
oss ip
ress or
ged ies
Ġmo at
Ġlight ness
Ġlight ened
act ivity
pe ace
Ġsm ashed
Ġsm attering
Ġsm oky
con st
con stru
con flict
Ġpe on
Ġpe ons
Ġpe gs
Ġk iss
ian cy
Ġpart ition
ise ase
iz able
ne g
Ġimp ert
Ġimp aired
Ġimp enetrable
Ġsin s
Ġoff en
Ġgre ying
int r
int ess
int ricate
Ġdoor less
Ġinc ap
Ġinc ub
Ġinc oming
aw ake
aw aked
aw kward
Ġhand les
Ġway fare
Ġcome ly
Ġch ord
Ġch imes
Ġch inks
Ġch orused
Ġev oking
hes unc
Ġey eless
Ġcont est
Ġcont ains
Ġatt ire
Ġatt orn
Ġop ium
Ġop iate
iv ira
Ġmon ograph
Ġmon key
te in
ĠY ears
ĠY rs
not eb
gr ade
gr otto
gr ateful
gr otesqueness
gr image
Ġcr ad
Ġcr ouch
Ġcr usted
Ġcr inkly
Ġcr isis
Ġint oned
Ġcar boys
Ġcar rion
Ġcar pentry
Ġacc idents
Ġus hered
Ġunder world
Ġunder foot
Ġunder lying
Ġunder neath
Ġunder mined
Ġsur ly
Ġsur rept
ause way
Ġwell ing
ret urning
Ġent rusted
Ġent rances
av y
av al
ĠK ings
ĠK aman
ĠK alends
Ġad mon
Ġad judged
Ġad umbr
fin ing
fin al
Ġexp elled
Ġexp ensive
Ġexp iring
br al
br ick
br ushed
br ains
we ight
we athered
we eks
we inkopf
Ġrep osed
Ġdec ently
Ġdec isive
Ġdec repitude
Ġdec livity
had n
Ġever green
Ġearth quake
Ġend urance
Ġsub urban
Ġsub div
Ġsub ordinate
Ġsub stantially
Ġflo pped
amp ing
amp ers
amp led
Ġgu ilt
ĠSt r
ĠSt ore
ĠSt ars
ĠSt ampers
app lied
app ointed
my ths
my stery
Ġac ids
ip se
ip ated
att ribute
den ied
den izens
mon th
mon sters
Ġres in
Ġres il
Ġres orted
Ġres ounding
Ġres isting
Ġres olve
Ġpres ents
Ġret arded
Ġwr inkles
like ly
Ġmind ed
Ġcha ndelier
ĠAs sociated
Ġhead long
Ġreg aining
Ġreg iment
Ġsk ir
Ġsk unk
Ġsk orahs
Ġca f
Ġco ck
ott led
land ed
Ġvo cab
Ġhar de
Ġdisc om
Ġdisc ove
umb ent
umb ler
so aked
Ġcour ty
Ġland scapes
Ġhas n
cri es
ific ligh
Ġsw art
Ġsw ishing
Ġph leg
Ġdet ection
cl asses
Ġstr ing
Ġstr ayed
Ġstr anded
ib und
Ġfear less
ob st
Ġnat ures
ĠAt tic
mer ged
ins isted
Ġwa res
Ġpers ist
ey bos
Ġocc urs
Ġkind ness
Ġless en
Ġplan ted
ĠTh ou
com menced
Ġsle eve
ren ces
ren ching
Ġfam ed
cept ively
Ġfo e
Ġfo aming
Ġstud ious
su cked
Ġfin er
enc rusted
Ġtre eless
pr ayer
Ġsight ing
Ġsight seeing
Ġext ensively
Ġext racts
ĠV on
ĠV ague
ĠV ersion
Ġbur dens
Ġcent er
Ġcent res
ĠAr t
ĠAr cher
Ġdead ness
Ġdel ving
imp ro
imp ress
imp ressed
imp ressive
imp aired
Ġcomp elled
Ġcol oring
Ġmar ry
Ġrel ayed
sh ru
sh ook
sh uttered
sh oot
sh ogg
sh oggoths
arr ic
Ġinv iting
Ġinv aders
Ġinv ocations
Ġinv alid
Ġlay man
Ġblo ods
ash t
Ġinter rupt
Ġinter change
Ġinter rog
Ġinter vened
ele g
Ġri pped
Ġri fled
Ġes c
Ġbel ching
Ġem it
der ived
Ġsign ature
Ġque erer
Ġpast s
Ġpast imes
Ġpast urage
Ġdeath ly
arch y
Ġright ful
Ġsn ort
Ġsn atch
Ġsn oring
Ġsn apping
Ġsn arled
ank ment
Ġeff ace
Ġeff acement
cent er
Ġind is
Ġind icative
over head
over looking
Ġfore ground
Ġfore boding
ans ion
Ġel b
Ġel icited
aken ing
Ġfur rows
Ġwhis kers
Ġneed ful
Ġsleep ers
Ġsleep less
Ġchi eft
ĠWard s
by e
fl ick
fl owed
fl ute
fl ushed
fl apping
Ġdev oured
Ġdev ouring
Ġsqu atter
Ġsqu amous
Ġsqu irmed
Ġcons ent
Ġcons ort
Ġcons oled
clo ak
ĠWhen ever
ĠZ eus
Ġdiff ering
any where
any body
Ġvill a
Ġsens ibilities
Ġdim mer
Ġant enn
bl ow
bl ings
dis pl
dis liked
dis order
Ġhome ly
Ġhome ward
let te
Ġplain er
Ġplain est
Ġser um
Ġser mon
Ġser mons
ister ing
Ġsent ence
Ġsent ences
use less
Ġtra pped
Ġtra pper
Ġtra gedies
ook s
inct ured
Ġmot ors
ten ement
Ġexper imented
Ġhard y
cha p
cha mbers
Ġwar like
Ġcoll ie
Ġcontin ual
Ġcontin ental
Ġins idiously
Ġchar ts
Ġchar ring
uff le
wor ry
do ing
Ġsol ic
Ġsol ve
Ġconf er
Ġconf ided
Ġconf ounded
Ġimag inations
du ctions
ev idences
Ġ19 00
Ġmin usc
Ġname ly
Ġdr one
there after
antic ipated
pre v
pre tern
pre vious
Ġconn ection
Ġput t
port ion
Ġfr oth
Ġfr ames
Ġfr amed
Ġcre mated
Ġed itor
Ġvar iation
des ire
des ired
des igned
des perate
Ġdro oping
Ġaff inity
Ġbus h
Ġbus ied
ĠJo hnson
Ġill og
Ġill ustrated
Ġill usory
Ġadd itions
Ġbar que
Ġheav iness
Ġheav ier
Ġunc hecked
Ġchild ishly
min ers
min able
min arets
Ġcount ries
Ġass id
Ġass orted
co ach
Ġve ils
Ġcomple ment
Ġenc ased
Ġenc ountering
Ġsecret iveness
Ġturn ings
Ġund ream
Ġund ress
Ġund ying
Ġprof ited
Ġprof use
Ġprof und
set to
Ġhelp ers
Ġhelp ful
how led
Ġdon ning
Ġdi versions
sy mp
sy mmet
sy ringe
sy llables
Ġappro ved
gl ot
Ġperson ally
Ġcirc us
sw itch
ser ve
Ġche wed
Ġunt raversed
ah ogany
pan ions
when ce
human ity
rem o
Ġfre ight
Ġfre eman
Ġeas el
Ġpar ched
Ġpar ade
Ġescap es
ony x
Ġfoot print
ax e
vo id
Ġ2 6
Ġline age
Ġver ify
Ġver itably
Ġhell s
po ison
pect ives
reg ard
reg ret
Ġsat yr
Ġsat anic
Ġmor ass
Ġport able
Ġport rayed
Ġchange ling
she lf
Ġten uous
Ġpan ted
cur dling
Ġmod es
Ġsingular ity
sha re
sha red
sha fts
Ġho pping
Ġsto ol
Ġsto pp
amb les
Ġlim b
Ġlim ned
Ġmean ings
hast e
hast ily
Ġreve lled
Ġspect acles
Ġsim pler
Ġforg iveness
Ġson orous
Ġson ny
tr ot
tr ain
tr unks
tr oubled
ĠCl apham
rel ative
rel igious
plic ate
aly ptic
inc antations
inc eton
Ġsuper intendent
Ġsuper imposed
At al
aff ord
rest ore
Ġprom ising
craft smanship
Ġmid summer
Ġfree zing
rec ords
stand ard
Ġbott oms
Ġcut s
Ġpat ois
Ġcommon est
Ġcommon places
Ġimm unity
Ġrecogn ized
sm ell
Ġfarm stead
Ġ18 00
Ġ18 19
Ġ18 15
fort y
Ġconst able
Ġconst ructions
erm ian
gu ide
gu ised
gu ided
gu arding
vis able
vis iting
Ġfrag rance
Ġinf ernal
Ġspir ited
Ġobsc urity
Ġtit ter
Ġbegin s
Ġbegin nings
ulous ness
wind owed
Ġae gip
Ġresp ected
Ġresp iration
bur rows
Ġhast ening
ae on
gy aa
long ed
Ġbul b
Ġbul ged
Ġbul wark
Ġmus ket
Ġmus kets
Ġmention able
ĠBe ings
Ġquiet ed
Ġcamp us
Ġexcept ions
Ġdra peries
Ġhair less
Ġexam ples
Ġdescri ed
Ġmorbid ities
Ġsix teenth
ĠBl under
On ward
roll able
Ġsharp ness
Ġbore d
cont ent
cont ain
cont ag
cont act
cont inent
cont rollable
Ġhost ility
Ġansw ers
par ais
Ġmaterial ism
Ġbox ed
Ġdifferent iated
tw ist
Ġdest iny
Ġdest inations
Ġorder ly
add on
add ing
Ġra ved
Ġra wh
Ġconv ent
Ġconv ulsions
Ġbed side
Ġbed stead
Ġbed clothes
Ġbed raggled
vi our
Ġkey hole
oc aust
sur ging
sur faces
Ġfan fare
ĠNot on
Ġdescend ant
kind er
Ġsoft ened
Ġneigh ing
Ġattempt ing
Ġdawn s
Ġdawn ing
Ġcat echis
Ġcat astrop
pres erve
Ġbit es
off ered
Ġstre aked
Ġround s
sl ide
sl ave
Ġest e
inter rupted
Ġlatter ly
ĠAb addon
Ġnatural ists
Ġship ment
Ġimport un
ĠSe as
ĠSe eking
mist aken
Ġmir ages
sub sequently
sub sided
sub stantial
sub merged
Ġswe eps
Ġeye ing
Ġeng ross
world s
pse udo
dream ed
dream ers
dream land
Ġble ar
Ġble eding
Ġfif teenth
Ġlean ings
Ġinstant aneously
So on
car go
Ġpal imps
Ġhur led
Ġhur rying
Ġstri p
Ġbrood ings
ĠHow ard
Ġrid gy
Ġident ifying
Ġpull s
Ġrust led
Ġrust less
ĠDan iel
Ġburst s
fer ns
Ġpit ifully
Ġstra it
Ġstra pped
ĠCy bele
Ar t
Ar cha
Ġte aching
Ġfair y
Ġpartic les
Ġtall er
Ġtall est
Ġmum ble
Ġmort ally
Ġdraw er
Ġpuzz lement
Ġemb ark
Ġthro es
Ġthro bbed
ĠUn like
cr ushed
cr imin
mar vels
Ġbizarre rie
Ġarcha ism
work men
door ways
just ified
Ġden ial
Ġconsider ations
Ġbreath s
uc ing
uc id
Ġgle ams
Carter s
Ġval uable
Ġremark ing
Ġproc ured
Ġjud gments
ming led
stead ily
Ġwoods hed
Ġz one
Ġz ones
hall way
Ġpen ned
Ġvent ilation
Ġdispl aying
Ġphot ostatic
Ġcompan ies
alton stall
chan ting
Ġdef erence
Ġdef aulter
Ġ192 0
Ġ192 2
Ġ192 4
Ġveget ables
Ġstrang led
Ġpot ently
Ġclut ches
ĠRe ason
ĠRe fining
rep ly
rep id
rep ulsion
rep ellent
rep utation
stru se
Ġthunder bolt
Ġrevel s
Ġstar red
Ġstar light
Ġbright ly
Ġbright ened
Ġdiss ent
jo ined
Ġcra ved
cell ent
Ġspell bound
expl ain
expl oring
expl ainable
eff ort
pers pective
hel pless
Ġcop ying
Ġpi ers
back ground
Ġge ographical
road s
Ġcircum ference
col umns
mem ber
Ġfa ult
Ġcand lest
Ġcand elabrum
Ġstation ary
Ġmagn ifier
Ġfit fully
Ġarm our
Ġpract ition
Ġpract ically
cor robor
Ġdry ness
Ġinflu ential
Ġnotice able
Ġweak ly
bre eches
dec line
eb be
Ġbold er
Ġholl ows
cip ient
Ġpocket ed
Ġbare st
ĠIs is
ĠIs lands
cons in
cons ult
cons uming
cons idered
dam aged
fle xible
lar ion
Ġer a
Ġer as
Ġjour nals
conce al
Ġ191 2
Ġ191 4
Ġ191 7
Ġbal m
Ġbal ust
Ġfast ener
Ġdiv ined
ribut ion
quiet ly
ĠSu ccess
Ġcorrespond ingly
bro ke
flo od
flo ors
Ġhon oured
Ġhon ourable
ilar ation
Ġexha lations
Ġbelong s
Ġsacrif iced
Ġsuccess ive
Ġfashion able
etr acked
etr aton
regular ity
Ġhat less
ĠSouth wark
Ġcrude ly
Ġpriv ately
che st
che ap
Ġmis ery
Ġmis hap
Ġgra ver
Ġgra zing
Ġhence forward
Ġones elf
Ġscroll s
Ġchim erical
mark ings
Ġfun ctions
Ġphenomen ally
Ġthorough fare
Ġmyth ological
Ġsav ants
Ġdetect or
Ġfil th
brid ges
gen ius
Ġfight ers
ĠAmeric ana
Ġinha bit
Ġvirt uous
Ġrail road
Al one
aver hill
ĠEx c
Ġphant om
Ġconject ured
Ġprov oking
Ġcho pped
Ġadm ir
Ġadm its
Ġadm itting
Ġadm ission
every one
lim bs
shad owing
Ġcro oked
uss ian
ĠMore land
ĠPe abody
Ġtight ened
Ġped iment
Ġpop ulace
Ġanaly sed
ĠSp ace
ĠSp heres
Ġcoloss i
Ġhyp othes
bar bar
la us
nes ian
pet rifying
Ġrequ ests
Ġrequ iring
Ġvig orously
van ised
Ġinfin ites
ĠMexic ans
Ġcomb ine
Ġcolon ists
Ġdepart ing
âĢĶâĢĶ âĢĶâĢĶâĢĶ
irc ular
ĠSil ent
Ġblank ets
Ġemp hatic
del i
del ight
miss ing
Ġmult itudes
Ġmult itudinous
Ġfro g
Ġovert urned
Ġdrive way
Ġcivil ised
rad es
Ġaver ring
Ġfail ures
Ġnum bed
Ġloc ally
ĠGreen field
spe ople
Ġdiscover able
Ġoccup y
Ġoccup ations
ĠVer haeren
inv asion
Ġsal ty
Ġstick s
Ġdise ases
Ġgrim y
Ġhorse back
exper iences
Ġprin ces
Ġcheap ly
dep arted
Ġ7 00
anim als
Ġrespect ing
Ġrespect ively
Ġuns an
ĠPr ou
ĠPr inceton
Ġtrick s
Ġparaly tic
sens ations
Ġaim s
hal ted
Ġmaint ains
Ġgest ic
Ġgest ured
Ġeld ers
Ġremind ing
object ive
sol itude
Ġmaj esty
Ġrav ages
Ġrav aged
Ġunw elcome
ĠQu erÃ©taro
cy cles
wo ven
ament ally
Ġsmooth ly
Ġintr uding
Ġprivate ers
va ulted
Ġut il
Ġaud itor
Ġfal setto
Ġcred ence
Ġcred ulous
Ġcost umes
Ġnause ated
Ġreck lessness
ĠRom ans
exc itement
NG AH
dra gging
Ġham m
Ġgor gon
ĠSabb aths
Ġscra pe
ĠEli hu
Ġglim psing
Ġoccult ist
Ġsumm ary
Ġhyster ically
sk ull
sent ient
sent inel
Ġtort uous
Ġrev olved
keep ers
Ġspl intering
Ġapprehen s
Ġaccident ally
appro ach
Ġoccur rences
She ehan
grey ish
shi vering
Ġstiff ness
open hagen
Ġdetest ation
Ġreflect s
Ġdizz iness
Ġmer ge
Ġmer ging
Ġfra ud
Ġfra ught
Ġstout ly
ĠGu ess
ĠGu ard
ĠGu ided
priest ess
Ġ176 3
Ġecst asies
wond ering
Ġoper ation
Ġoper ated
happ en
Ġbattle ments
Ġcup alo
Ġreass ured
Ġreass urance
Ġassured ly
loft y
Ġexec ute
Ġdeb ated
Ġdeb au
Ġdeb ating
Ġdeb atable
Ġperf ume
Ġobserv able
Ġrig idly
Ġcommand ing
Ġgenuine ly
field s
grave ly
grave yards
Ġgal actic
Ġassemb ling
ĠAd v
ĠAd ams
ĠCor ona
ĠCor inth
Ġsaf est
Ġmonolith ic
Ġphilosop hers
Ġtransl ucent
Ġhurt ling
Ġsurviv ors
bb led
poss ibly
Ġtro ops
Ġtro opers
conf used
conf irm
Ġchuck ling
Ġcontent ment
Ġwrit he
Ġextravag ances
should er
bod ily
fear ful
whe eled
Ġwid ened
Ġbend s
âĢĶâĢĿ _
Ġunre achable
Ġsold ier
Ġenvelo ping
deep er
deep ly
Ġoffer ings
interest s
ĠAny way
ĠAny how
bal d
full est
heav ily
Ġmut ual
Ġinsp ire
Ġgib bered
Ġidi omatic
fac ts
fac ult
Ġef jeh
Ġwhist led
Ġwhist les
ĠSc otland
ĠCon stable
plan ets
Ġ11 8
Ġchap ter
cloud y
shock ed
shock ingly
Ġforehead s
wit hered
Ġing rained
Ġtap est
Ġtense ly
Ġobe ying
imin ating
Ġwhit ew
adv ance
adv ancing
ĠCha ld
Ġmaniac ally
Ġvibr ating
secret ive
ĠChrist church
ĠChrist opher
Ġfrenzied ly
oz ing
Ġ6 00
Ġpenc illed
Ġlod ges
Ġnur sed
child ish
Ġexcl ude
Ġalc hemical
ĠBel ial
Ġoverwhel m
Ġoverwhel med
scream s
Ġmeteor ic
Ġprepar atory
trans ition
trans fer
bri ers
Ġban quet
Ġcot ters
ĠCol on
agr am
Ġpron ounce
Ġpron unciation
Ġattract ing
Ġopin ions
Ġpresum able
Ġpresum ption
Ġleaders hip
Ġ193 5
Ġcalcul ation
Ġcalcul ations
respons ibly
Some where
breat he
cre pt
dri ve
dri ven
dri vers
phant om
ĠIm port
Ġga ol
ĠMiss ouri
Ġsoot he
Ġscri be
Ġscri bbled
ograp her
force ments
Ġpercept ions
Ġcorrect ly
suff icient
Ġpurcha ses
effect ive
Ġeccentric ities
crown ing
may be
Ġment ions
arth ian
thro at
Ġunlo aded
Ġunimag inative
ĠHy de
ĠCar fax
ĠCle veland
ĠMain ville
Ġaltern ate
Ġaltern ative
sculpt ure
intellig ible
Ġsurm ised
clot hed
ĠArcha e
Ġdrows ily
Ġdiabol ism
Ġstragg led
ĠSpani ards
dro chloric
fan ged
prom ised
your self
Ġtick led
Ġtax i
Ġtax ed
Ġcounter parts
Ġdemon iac
Ġinn keeper
Ġpul pit
Ġpra ised
start ing
start led
Ġgrav estones
acher s
ĠBrid en
ĠGl ass
ĠGl ouces
ĠFe eling
Ġrecl ined
ĠThrough out
Ġconduct ing
Ġdraught s
Ġbitter ness
50 8
Mo on
dr unken
pen etr
power ful
Ġbab ble
Ġmaid ens
sequ ence
Ġrejo ined
Ġrejo iced
artic les
Ġdisintegr ating
ĠLike wise
Ġimpat iently
Ġclever ly
Ġpersu ading
Ġconsult ing
voc ation
Ġdilig ent
swe et
trave ller
Ġast h
Ġchat eau
Ġpil ot
Ġpil asters
sto pping
Ġeman ate
Ġalert ness
ĠOs lo
ĠOs iris
ĠGard ners
ĠHeyl s
Ġintric acy
Ġdisclo sures
ĠAtlant ean
comb ined
Ġexcav ation
Ġexcav ated
Ġtorrent ial
Out side
sudden ness
refle ct
Ġhero es
Ġungu ided
Ġconcent rated
Ġmanage ment
Ġshoot ing
ĠNe igh
ĠFl at
Ġpoly pous
Ġdiscuss ions
clim bing
Ġdeliver ance
Ġmemor ised
Ġsquaw king
Ġdimin ishing
Ġdimin utive
remember ing
Ġengine er
Ġmagnific ence
Ġmurm ur
Ġmurm uring
Ġloft iest
blood ed
Ġobliter ation
Ġfruit less
Ġenthusi astic
AT ION
Hall ows
bra ke
capt ains
dwell ing
fasc ination
hon est
Ġocto pi
Ġcraft smanship
Ġanno yance
Ġvamp ire
Ġmegal opolis
Ġpretern aturally
Ġchron ic
Ġswim mer
Ġindist inguishable
Ġapproxim ations
Ġfurnish ings
Ġprecaut ion
Ġabandon ment
Ġfatig ued
EN CE
cult ivated
sle pt
inha bit
Ġloung ing
Ġnic kel
Ġstub bly
ĠThibet ans
Ġvesse ls
Ġupset ting
Ġlibr arian
ĠDav ises
specul ation
forbid ding
Ġflound ered
grotesque ly
Ġripp le
Ġmoder ately
Ġ184 6
Ġconventional ised
Ġ177 2
steep le
country side
equ ipment
gn awed
gro cery
ias is
lad en
Ġtrop ic
Ġinert ia
Ġinform ant
Ġlic ence
Ġlimp ing
Ġvag uer
Ġsecl uded
Ġtriump hed
avour ite
Ġrepet itions
Ġcoherent ly
Ġrelent lessly
Ġrelations hips
Ġrefuge es
desert ion
Ġillum ined
Ġundul ations
Ġgrandmother s
Ġcommunic ative
magn ific
magn etic
Com pton
lan ith
slo pes
Ġtast eless
Ġoars men
revel ations
Ġfulf illed
orig inal
Ġpun ishment
Ġlust re
Ġnest ling
seem ingly
Ġster ner
Ġangu ished
Ġsevere ly
Ġunbear ably
ĠCorn el
Ġdefe ated
Ġprob os
Ġscre ening
Ġscant y
Ġfeast ing
Ġobstru ction
Ġresent ful
ĠVal parais
labyrin th
bewild ering
OU R
hum our
oust ic
Ġdin osaurs
Ġinno cuous
Ġpuff y
stir red
stir ring
stir rings
strang ers
Ġecon omy
acqu ired
Ġvic iously
else where
Ġexerc ised
ĠPhil ip
ĠRou lets
Ġflag stones
tele ph
tebr ates
Ġsnap shot
Ġindust ry
author ity
Ġpolit ical
Ġpolit ician
Ġveter inary
Ġ187 7
distinct ly
Ġhopeless ness
Ġemerg encies
Ġannihil ate
fears ome
mot ivated
try in
Ġfresco ed
arri ved
Ġinject ion
Ġlatt iced
Ġul ulation
Ġult ra
Ġrotten ness
ĠWind s
ĠMason ic
Ġshrewd ness
ĠPol icemen
Ġagon ies
Ġbru ised
spawn ed
ĠInst antly
def ence
ancest ors
ancest ral
Ġcrimin als
Ġadjust ed
meaning less
comp osite
Ġfrown s
Ġfrown ing
surpr ised
Ġdiamond s
Ġemploy ment
ĠRemember ing
Mar igny
cere mon
dang erous
gra ves
lone ly
rhythm ical
sharp ened
Ġscho ols
Ġbra zen
Ġcard iac
athan iel
Ġpert inent
veget able
Ġrein forcements
chim ney
ĠSub marine
love ly
ĠWis dom
ĠWis consin
ĠPle istocene
Ġjelly ish
Ġdesp atched
ĠLouis iana
Ġenig ma
Ġenig matical
develo ped
Ġgreed ily
clut ching
obt ained
Ġsymmet ry
Ġinsol ently
Ġcheer ful
Ġfreak ish
viol ence
viol ently
Ġcrocod iles
Ġmulti ple
Ġmultip ly
Ġmultip lying
Acc ordingly
Cur se
Tha h
bab el
pros y
pros per
shat tered
tot ally
tong ue
tong ues
wors hippers
Ġwha les
Ġmit red
Ġdom estic
Ġdazz led
Ġpione ers
Ġlull ed
stra ight
Ġredu ce
emer ge
emer ged
Ġrhe toric
ĠHimalay an
Ġalle ging
ĠMed usa
ĠMon ster
ĠMil wau
Ġalco ves
Ġbless ing
Ġquart z
Ġju xtap
Ġjar red
ĠLo cal
ĠLaw ton
Ġappe als
compan ion
Ġextrem es
Ġcolor less
Ġesp ied
symb ol
symb ols
explan ations
Ġbalustr aded
Ġ154 5
destro yed
instinct ively
Ġpestil ence
Ġarchety pe
Ġarchety pal
cas ian
cred it
cong eries
da ily
fro gs
fro zen
fav oured
fav ourable
ghast ly
move ment
meth od
tunnel s
Ġsore ly
Ġsart en
Ġbust le
Ġfem inine
Ġcum brous
Ġcum ulative
Ġdict ated
Ġpunct ured
Ġhaz ard
stat ues
Ġegg s
separ ate
acre on
Ġyel p
Ġyel ping
Ġunb ounded
aston ished
Ġexert ion
ĠMat ildy
ĠMat thew
ĠDO OM
Ġqual ms
splend id
splend our
concent ration
Ġinciner ated
Ġinciner ator
Ġcrit ic
Ġsurve yed
Ġrepug nant
Ġreprodu ce
Ġhillock s
obser ved
ĠVas cones
produ ct
Ġsquirm ing
ĠZim mer
Ġphysi ogn
particular ly
Ġenerg ies
Ġmutil ated
witness ed
uncann ily
Ġastron omers
Ġspasmod ic
Ġcongreg ation
Afric a
Afric an
Tem ple
baff ling
breed ing
fif ty
fif teen
gri p
rd inated
ratt les
sli ppery
wand ered
Ġorif ice
Ġorif ices
Ġferv our
Ġcoun cil
Ġdiar ists
Ġpertain ing
Ġpupp y
Ġnim bus
stro ke
Ġthie ves
ĠThan k
ĠAct ually
Ġrab ble
Ġrab bit
ĠHear t
Ġspray er
ĠMag na
ĠMaj or
ĠMaj esty
ĠBarn abas
aband oned
ĠDoub t
Ġintox icated
Ġoverp owered
ĠFij i
ĠFij ian
ĠLib o
Ġenhan ce
Ġearnest ly
Ġsmugg led
Ġintu itive
Ġende avour
merc iful
Ġmetamorph osis
pract ices
Ġextirp ation
Ġdepict ing
proper ly
disp osed
doc ument
prep are
Ġvex ed
Ġapople ctic
Ġapolog ised
Ġbesie ged
Ġoppon ent
Ġoppon ents
paraly sed
Ġmillenn ia
Ġbalcon ies
Ġcontrad ictory
depart ure
Ġdemonstr ation
Ġtumult uous
hypnot ic
Ġamphithe atre
Ġamphithe atres
Bur ke
Europe an
bene zer
dy nam
num erous
patter n
shant ak
vist as
Ġtheore tically
haust ible
educ ation
Ġfib re
Ġdement ed
Ġinfl icted
Ġpup ils
Ġpomp ous
Ġbeha ved
Ġgy aa
admir alty
ĠTrave l
Ġatro cious
ĠAng lo
Ġsund ry
ĠHI M
uncom fortable
Ġneur otic
ĠPsych ological
Ġprodig iously
Ġgland ular
Ġenm ity
Ġenvis age
forget table
Ġperfor mances
Ġoblique ly
Ġslit hered
Ġdistort ion
Ġimpost ure
Ġexpand ing
Ġdecomp osition
flash light
Ġundo ing
Ġengra ved
ĠâĢĶâĢĶâĢĶ âĢĶâĢĶâĢĶâĢĶâĢĶ
Ġrelev ant
madden ing
Ġreplen ished
Ġpredec essors
Ġtroph ies
Ġwhims ical
Ġeconom ics
Ġluxur iant
Ġprosper ity
Ġdisagree able
Er lette
Francis co
dil apidated
fren zy
gather ing
tro ve
vic inity
Ġbread th
Ġbaza ars
Ġdur ation
Ġinsuff erable
Ġpag od
Ġlurch ing
ĠImag ination
stim ulated
celebr ated
ecst asy
embr acing
ĠHuman ity
Ġorch id
Ġsphin xes
ĠWorm ius
unbelie vable
ĠChap man
Ġsojour ns
Ġmanif ested
Ġmanufact ure
Ġrook ery
Ġquadruped s
ĠGener al
Ġjave lins
ĠFolk s
ĠRen aissance
ĠRood mas
Ġperme ated
Ġcany on
Ġrecom mend
manifest ations
intense ly
Ġbuck led
Ġfinan cial
Ġartific ially
Ġtempt ation
Ġsyn the
Ġdrow sed
glist ening
extravag ant
Ġbespe aking
Ġmorph ine
Ġhoof beats
subter rene
Ġdissip ation
Ġdoctr ines
summon ed
Ġhoneycomb ings
ĠPhaler on
foet id
acquaint ances
GE B
Gold smith
Short ly
Washing ton
drown ed
domin ant
fat ig
footh ills
iope ia
melt ing
malevol ent
sus pect
tort ured
Ġwain sc
Ġwag ons
Ġmoll uscs
Ġmiasm a
Ġcin ema
Ġcess ation
Ġcateg ories
itent iary
Ġdwind led
Ġlamb ent
Ġgraph ic
olst ered
Ġspright ly
abund ance
Ġliz ards
opot am
Ġard our
Ġloy alty
Ġimmin ent
Ġdisorgan ised
ĠGree ce
oga ert
Ġshepher d
Ġafterno ons
ĠRum our
Ġtwent ieth
confin ement
Ġadvers aries
enevol ent
appar atus
attend ant
Ġresur re
Ġdiscred ited
Ġbund le
discipl ined
Ġunders c
Ġapoc alyptic
Ġdisappoint ing
Ġinfect ivity
ĠAlask a
partic ulars
arnass us
Ġprecinct s
ĠLeg ion
Ġavat ar
Johan sen
Ġintrins ically
excess ively
Ġsomnambul ism
Ġpendul um
Ġintegr ity
Br attleboro
PEE CH
Real ising
Taw il
Um r
Wing ate
fresco es
gong a
Ãģ N
incal culable
Ġolf actory
relic s
enorm ous
Ġbic y
Ġmaus ole
Ġcrom lech
Ġcau ld
Ġcasc ade
Ġcune iform
Ġdere lict
Ġineluct able
Ġinordin ately
Ġnipp ers
Ġelf in
Ġstyl us
celest ial
rief ly
andinav ian
ĠAdd itional
ĠAuck land
ĠADON AI
emfon tein
Ġunstr ung
Ġunvo cal
Ġunerr ingly
Ġunrespons ive
ĠHought on
Ġspher ical
ĠCass iopeia
ĠCau casian
ĠMeth od
ĠMwan u
agmit es
Ġmangan ese
ĠBrav a
ĠBoreal is
Ġarbit rary
Ġaristocr atic
ĠNeg ro
ĠNaphtha li
Ġdiscipl ine
ĠGreg ory
ĠGoy a
Ġbritt leness
ĠFland ers
ĠFeren czy
ĠFrig ate
Ġengin es
Ġenshr ined
Ġennu i
conflict ing
Ġwayfare rs
hesunc ook
Ġvocab ulary
Ġcourty ards
eybos set
Ġantenn ae
Ġminusc ule
symp athetic
Ġpalimps est
corrobor ation
ĠGlouces ter
ĠValparais o
ĠMilwau kee
) .
0 4
1 1
3 1
3 6
5 00
6 7
7 7
9 1
: ]
A D
A h
A spinwall
A OTH
A MA
B L
B ay
B ag
B ok
B ab
B oth
B ishop
B aharna
B audelaire
B icknell
B allylough
B oswell
B AOTH
C A
C ust
C oll
C orn
C hin
C ont
C ON
C airo
C urtis
D A
D ac
D el
D ear
D aemon
D ylath
D wight
E F
E H
E M
E ach
E vo
E arl
E lect
E agle
E vidently
E MA
E ucl
F l
F re
F ear
F ort
F irst
F ortunately
F ool
F enner
G l
G u
G er
G or
G ad
G lad
G overnor
G olden
G riggs
H y
H ort
H uman
H arris
H ardman
I pswich
I larnek
J enkin
K a
K ill
K ey
K eziah
L at
L ib
L ane
L ives
L egr
L avin
L omar
L isten
L aure
M in
M ed
M ain
M ass
M ake
M att
M arg
M arshes
M ercy
N O
N ear
N ag
N ether
N igger
N ameless
N emesis
O V
O b
O ct
O cc
O dd
O bed
O ught
P i
P n
P en
P ark
P oint
P acific
P uritan
Q ue
R h
R ic
R em
R el
R est
R ep
R ising
R ES
S am
S il
S ure
S outh
S erv
S ona
S alem
S arkomand
S outhern
S upp
S entinel
S herman
S ydney
S ophon
T r
T w
T re
T or
T an
T ry
T art
T oo
T IT
U P
U S
U T
U RI
V ast
V ague
V illage
W ere
W ay
W ould
W ho
W indy
W eybosset
X II
Y a
Y e
Y our
Z adok
_ ]
a very
a fe
a ah
a ustere
b ent
b ig
b age
b ular
b ins
b rew
b ets
b ands
b attle
b izarre
b rill
b ability
b anded
b ounds
b attering
b rig
b lessed
c kn
c us
c ig
c ove
c ens
c ats
c aked
c attle
c ounted
c aste
c ourage
c arts
c oughed
c hemistry
c uin
c ertific
d ish
d ance
d ial
d les
d ub
d ug
d iver
d emon
d arted
d anced
d rop
d irty
d inner
d imin
d inarily
d isease
e es
e ered
e ho
[...]
