{"<s>":0,"<pad>":1,"</s>":2,"<unk>":3,"<mask>":4,"!":5,"\"":6,"#":7,"$":8,"%":9,"&":10,"'":11,"(":12,")":13,"*":14,"+":15,",":16,"-":17,".":18,"/":19,"0":20,"1":21,"2":22,"3":23,"4":24,"5":25,"6":26,"7":27,"8":28,"9":29,":":30,";":31,"<":32,"=":33,">":34,"?":35,"@":36,"A":37,"B":38,"C":39,"D":40,"E":41,"F":42,"G":43,"H":44,"I":45,"J":46,"K":47,"L":48,"M":49,"N":50,"O":51,"P":52,"Q":53,"R":54,"S":55,"T":56,"U":57,"V":58,"W":59,"X":60,"Y":61,"Z":62,"[":63,"\\":64,"]":65,"^":66,"_":67,"`":68,"a":69,"b":70,"c":71,"d":72,"e":73,"f":74,"g":75,"h":76,"i":77,"j":78,"k":79,"l":80,"m":81,"n":82,"o":83,"p":84,"q":85,"r":86,"s":87,"t":88,"u":89,"v":90,"w":91,"x":92,"y":93,"z":94,"{":95,"|":96,"}":97,"~":98,"¡":99,"¢":100,"£":101,"¤":102,"¥":103,"¦":104,"§":105,"¨":106,"©":107,"ª":108,"«":109,"¬":110,"®":111,"¯":112,"°":113,"±":114,"²":115,"³":116,"´":117,"µ":118,"¶":119,"·":120,"¸":121,"¹":122,"º":123,"»":124,"¼":125,"½":126,"¾":127,"¿":128,"À":129,"Á":130,"Â":131,"Ã":132,"Ä":133,"Å":134,"Æ":135,"Ç":136,"È":137,"É":138,"Ê":139,"Ë":140,"Ì":141,"Í":142,"Î":143,"Ï":144,"Ð":145,"Ñ":146,"Ò":147,"Ó":148,"Ô":149,"Õ":150,"Ö":151,"×":152,"Ø":153,"Ù":154,"Ú":155,"Û":156,"Ü":157,"Ý":158,"Þ":159,"ß":160,"à":161,"á":162,"â":163,"ã":164,"ä":165,"å":166,"æ":167,"ç":168,"è":169,"é":170,"ê":171,"ë":172,"ì":173,"í":174,"î":175,"ï":176,"ð":177,"ñ":178,"ò":179,"ó":180,"ô":181,"õ":182,"ö":183,"÷":184,"ø":185,"ù":186,"ú":187,"û":188,"ü":189,"ý":190,"þ":191,"ÿ":192,"Ā":193,"ā":194,"Ă":195,"ă":196,"Ą":197,"ą":198,"Ć":199,"ć":200,"Ĉ":201,"ĉ":202,"Ċ":203,"ċ":204,"Č":205,"č":206,"Ď":207,"ď":208,"Đ":209,"đ":210,"Ē":211,"ē":212,"Ĕ":213,"ĕ":214,"Ė":215,"ė":216,"Ę":217,"ę":218,"Ě":219,"ě":220,"Ĝ":221,"ĝ":222,"Ğ":223,"ğ":224,"Ġ":225,"ġ":226,"Ģ":227,"ģ":228,"Ĥ":229,"ĥ":230,"Ħ":231,"ħ":232,"Ĩ":233,"ĩ":234,"Ī":235,"ī":236,"Ĭ":237,"ĭ":238,"Į":239,"į":240,"İ":241,"ı":242,"Ĳ":243,"ĳ":244,"Ĵ":245,"ĵ":246,"Ķ":247,"ķ":248,"ĸ":249,"Ĺ":250,"ĺ":251,"Ļ":252,"ļ":253,"Ľ":254,"ľ":255,"Ŀ":256,"ŀ":257,"Ł":258,"ł":259,"Ń":260,"Ġt":261,"he":262,"Ġa":263,"in":264,"čĊ":265,"Ġthe":266,"Ġo":267,"re":268,"Ġw":269,"Ġs":270,"nd":271,"er":272,"ha":273,"ed":274,"ou":275,"en":276,"Ġb":277,"Ġm":278,"Ġof":279,"Ġf":280,"Ġc":281,"on":282,"Ġand":283,"ing":284,"it":285,"es":286,"or":287,"is":288,"ar":289,"Ġd":290,"as":291,"Ġto":292,"an":293,"ll":294,"at":295,"Ġin":296,"Ġp":297,"âĢ":298,"Ġl":299,"Ġn":300,"Ġh":301,"om":302,"ic":303,"ĠI":304,"Ġha":305,"ly":306,"le":307,"hat":308,"st":309,"gh":310,"al":311,"ow":312,"Ġbe":313,"Ġg":314,"ld":315,"ot":316,"Ġe":317,"se":318,"Ġhe":319,"Ġwas":320,"ut":321,"Ġth":322,"ent":323,"im":324,"ac":325,"ve":326,"id":327,"Ġthat":328,"ion":329,"Ġre":330,"ur":331,"Ġhad":332,"Ġon":333,"Ġwh":334,"Ġst":335,"ver":336,"et":337,"ĠĠ":338,"ĠĠčĊ":339,"ght":340,"Ġu":341,"âĢĻ":342,"Ġit":343,"ith":344,"ere":345,"ro":346,"ad":347,"am":348,"ce":349,"âĢĶ":350,"ĠT":351,"ri":352,"ir":353,"Ġfor":354,"ter":355,"Ġwith":356,"Ġas":357,"Ġan":358,"ay":359,"the":360,"ec":361,"ess":362,"ain":363,"ous":364,"th":365,"ould":366,"Ġhis":367,"Ġnot":368,"ight":369,"all":370,"Ġat":371,"Ġmy":372,"ore":373,"rom":374,"ich":375,"and":376,"Ġse":377,"ge":378,"ul":379,"ke":380,"il":381,"ch":382,"ill":383,"ĠA":384,"Ġv":385,"ĠThe":386,"em":387,"ble":388,"Ġwhich":389,"ome":390,"Ġfrom":391,"od":392,"Ġy":393,"ol":394,"Ġr":395,"if":396,"Ġsu":397,"ard":398,"qu":399,"Ġme":400,"Ġwere":401,"Ġbut":402,"ound":403,"ted":404,"um":405,"red":406,"kn":407,"ind":408,"ra":409,"Ġun":410,"ĠS":411,"ough":412,"pp":413,"ation":414,"el":415,"res":416,"Ġwhe":417,"est":418,"ĠH":419,"Ġby":420,"Ġor":421,"lo":422,"ear":423,"ist":424,"us":425,"our":426,"Ġsp":427,"ast":428,"Ġall":429,"Ġex":430,"ĠW":431,"Ġab":432,"un":433,"Ġcon":434,"ell":435,"own":436,"ant":437,"ust":438,"ers":439,"her":440,"out":441,"to":442,"ĠC":443,"Ġhim":444,"Ġde":445,"ĠM":446,"ose":447,"Ġso":448,"Ġal":449,"one":450,"Ġhave":451,"han":452,"ace":453,"ig":454,"ong":455,"Ġno":456,"ew":457,"pt":458,"ity":459,"Ġcould":460,"ate":461,"ct":462,"Ġup":463,"Ġ.":464,"Ġout":465,"ven":466,"ings":467,"os":468,"ag":469,"Ġkn":470,"ok":471,"Ġman":472,"Ġsh":473,"ive":474,"ost":475,"Ġthis":476,"Ġsa":477,"ack":478,"Ġthey":479,"hed":480,"Ġle":481,"Ġis":482,"ide":483,"very":484,"ran":485,"reat":486,"ious":487,"Ġpl":488,"Ġwe":489,"ĠB":490,"ak":491,"ame":492,"âĢľ":493,"Ġsome":494,"Ġone":495,"Ġdo":496,"ies":497,"ect":498,"ab":499,"ck":500,"Ġbeen":501,"ep":502,"ure":503,"ered":504,"lf":505,"ond":506,"Ġwould":507,"ĠO":508,"Ġli":509,"Ġwhen":510,"Ġthere":511,"hing":512,"ud":513,"ally":514,"Ġwor":515,"ort":516,"nt":517,"Ġro":518,"able":519,"of":520,"ther":521,"ry":522,"are":523,"Ġne":524,"Ġyou":525,"op":526,"Ġwho":527,"li":528,"ĠIt":529,"Ġar":530,"Ġwhat":531,"Ġmore":532,"fter":533,"ite":534,"Ġtheir":535,"led":536,"Ġbl":537,"art":538,"ert":539,"Ġlo":540,"ved":541,"âĢĿ":542,"ĠD":543,"Ġqu":544,"ĠP":545,"Ġthem":546,"ap":547,"fore":548,"Ġits":549,"Ġpro":550,"ime":551,"ĠN":552,"Ġag":553,"The":554,"Ġsc":555,"ass":556,"Ġim":557,"Ġseem":558,"Ġany":559,"Ġdis":560,"ath":561,"ĠG":562,"ought":563,"pl":564,"way":565,"Ġcl":566,"Ġold":567,"ions":568,"Ġabout":569,"Ġdid":570,"ish":571,"ĠHe":572,"Ġgr":573,"Ġcom":574,"urn":575,"Ġinto":576,"age":577,"Ġover":578,"ence":579,"Ġsha":580,"ark":581,"Ġnow":582,"ward":583,"Ġthr":584,"cc":585,"Ġonly":586,"ood":587,"Ġ_":588,"Ġthan":589,"Ġmad":590,"og":591,"wn":592,"ment":593,"ine":594,"Ġtime":595,"per":596,"sed":597,"Ġbefore":598,"Ġtr":599,"ated":600,"Ġvery":601,"ff":602,"Ġgreat":603,"Ġshe":604,"ream":605,"ake":606,"ĠE":607,"Ġafter":608,"less":609,"ance":610,"Ġj":611,"Ġdes":612,"Ġseemed":613,"ue":614,"Ġfe":615,"au":616,"Ġbr":617,"ĠF":618,"ĠL":619,"ness":620,"ving":621,"Ġam":622,"Ġeven":623,"old":624,"ick":625,"be":626,"Ġother":627,"Ġthrough":628,"self":629,"Ġgl":630,"Ġwhere":631,"ater":632,"ci":633,"ove":634,"ft":635,"Ġlike":636,"Ġnight":637,"Ġmust":638,"Ġen":639,"hi":640,"sp":641,"itt":642,"ount":643,"Ġsaw":644,"ĠR":645,"end":646,"ical":647,"omet":648,"Ġdown":649,"ts":650,"ens":651,"Ġhor":652,"ice":653,"Ġthose":654,"for":655,"Ġlong":656,"ign":657,"ves":658,"ull":659,"ling":660,"Ġif":661,"sc":662,"ful":663,"range":664,"Ġtw":665,"Ġknow":666,"ared":667,"Ġper":668,"Ġfl":669,"Ġfound":670,"ink":671,"ph":672,"ouse":673,"ex":674,"ru":675,"Ġthings":676,"ertain":677,"Ġagain":678,"Ġear":679,"right":680,"ied":681,"ible":682,"Ġob":683,"Ġcame":684,"Ġare":685,"Ġthough":686,"Ġcur":687,"ps":688,"ary":689,"Ġapp":690,"oll":691,"ial":692,"uch":693,"his":694,"ĠâĢľ":695,"Ġher":696,"ĠJ":697,"dd":698,"les":699,"Ġmight":700,"ree":701,"ror":702,"ire":703,"Ġsee":704,"Ġform":705,"hen":706,"Ġcan":707,"Ġfar":708,"Ġrec":709,"nder":710,"Ġpr":711,"har":712,"Ġrem":713,"ened":714,"ile":715,"Ġsl":716,"Ġday":717,"ĠIn":718,"man":719,"ory":720,"Ġhow":721,"Ġpo":722,"wh":723,"Ġour":724,"other":725,"Ġdist":726,"de":727,"Ġpre":728,"most":729,"Ġbec":730,"oth":731,"ber":732,"Ġwind":733,"ave":734,"gan":735,"Ġback":736,"Ġbo":737,"irst":738,"alk":739,"oss":740,"orn":741,"Ġmen":742,"Ġmade":743,"Ġter":744,"ress":745,"Ġupon":746,"ily":747,"ged":748,"Ġsuch":749,"Ġmo":750,"Ġlight":751,"Ġthing":752,"Ġ1":753,"that":754,"ys":755,"act":756,"pe":757,"Ġsm":758,"Ġstrange":759,"con":760,"Ġpe":761,"ears":762,"ations":763,"Ġk":764,"ord":765,"ife":766,"ian":767,"ild":768,"Ġlook":769,"Ġpart":770,"ise":771,"ple":772,"Ġsomet":773,"Ġdream":774,"iz":775,"ne":776,"ather":777,"Ġwhose":778,"Ġstill":779,"ng":780,"Ġthought":781,"Ġnever":782,"Ġimp":783,"atter":784,"Ġmuch":785,"Ġsin":786,"anc":787,"Ġoff":788,"ult":789,"Ġgre":790,"elt":791,"Ġthese":792,"ach":793,"Ġcertain":794,"Ġke":795,"ie":796,"int":797,"Ġsec":798,"ĠThere":799,"Ġplace":800,"Ġknew":801,"Ġfirst":802,"Ġdoor":803,"arter":804,"Ġinc":805,"aw":806,"Ġlast":807,"Ġhand":808,"Ġway":809,"Ġcome":810,"Ġtoo":811,"ures":812,"Ġch":813,"ently":814,"Ġev":815,"yond":816,"Ġclo":817,"hes":818,"Ġey":819,"ĠAnd":820,"Ġcont":821,"Ġworld":822,"Ġatt":823,"igh":824,"Ġnor":825,"rible":826,"Ġop":827,"ever":828,"iv":829,"Ġwill":830,"Ġhouse":831,"Ġmon":832,"te":833,"ĠY":834,"uman":835,"Ġonce":836,"Ġblack":837,"not":838,"gr":839,"ub":840,"ows":841,"Ġcr":842,"Ġint":843,"Ġcar":844,"ittle":845,"gg":846,"Ġacc":847,"side":848,"ised":849,"Ġus":850,"Ġmost":851,"ail":852,"ody":853,"Ġmany":854,"ished":855,"ars":856,"Ġunder":857,"mb":858,"Ġsur":859,"ained":860,"ause":861,"Ġgo":862,"ict":863,"Ġtwo":864,"was":865,"Ġwell":866,"Ġevery":867,"Ġvis":868,"ret":869,"Ġent":870,"Ġtri":871,"Ġdark":872,"Ġroom":873,"av":874,"Ġthen":875,"ĠK":876,"Ġad":877,"fin":878,"str":879,"Ġnear":880,"air":881,"Ġnew":882,"ject":883,"Ġexp":884,"br":885,"Ġbeyond":886,"we":887,"Ġseen":888,"Ġheard":889,"ned":890,"Ġrep":891,"ual":892,"Ġhalf":893,"Ġdec":894,"Ġtold":895,"ched":896,"ting":897,"had":898,"ably":899,"read":900,"Ġsaid":901,"ular":902,"Ġleft":903,"Ġever":904,"ents":905,"Ġearth":906,"but":907,"ene":908,"Ġend":909,"Ġreal":910,"Ġalmost":911,"ase":912,"ected":913,"Ġyet":914,"thing":915,"Ġsub":916,"Ġfelt":917,"bed":918,"ced":919,"ĠOn":920,"cient":921,"Ġflo":922,"ros":923,"amp":924,"ĠBut":925,"ons":926,"Ġgu":927,"urned":928,"ors":929,"ĠThey":930,"iff":931,"Ġaway":932,"ang":933,"Ġlittle":934,"ĠSt":935,"Ġeyes":936,"imes":937,"Ġlife":938,"with":939,"here":940,"Ġsomething":941,"app":942,"my":943,"Ġchan":944,"ition":945,"Ġpass":946,"Ġac":947,"ours":948,"Ġsound":949,"Ġget":950,"ip":951,"att":952,"den":953,"Ġown":954,"mon":955,"Ġwall":956,"Ġres":957,"Ġsince":958,"Ġpres":959,"Ġhorror":960,"ĠThen":961,"aces":962,"Ġyears":963,"Ġret":964,"ning":965,"outh":966,"Ġbegan":967,"Ġwr":968,"Ġwork":969,"like":970,"reet":971,"Ġtoward":972,"Ġwhile":973,"ering":974,"Ġmind":975,"Ġcha":976,"Ġsay":977,"known":978,"iar":979,"ense":980,"ways":981,"ĠAs":982,"ĠCarter":983,"aking":984,"ities":985,"Ġhead":986,"Ġreg":987,"ined":988,"aint":989,"Ġsk":990,"Ġtell":991,"Ġca":992,"Ġco":993,"Ġcurious":994,"ek":995,"ott":996,"land":997,"Ġvo":998,"oub":999,"Ġcity":1000,"erv":1001,"Ġmom":1002,"Ġhar":1003,"Ġaround":1004,"Ġdisc":1005,"Ġset":1006,"umb":1007,"Ġlet":1008,"light":1009,"so":1010,"Ġthink":1011,"owed":1012,"Ġjust":1013,"ating":1014,"Ġhuman":1015,"gin":1016,"Ġstone":1017,"ix":1018,"Ġact":1019,"az":1020,"ople":1021,"Ġnothing":1022,"orm":1023,"Ġsmall":1024,"Ġcall":1025,"ns":1026,"Ġwithout":1027,"pped":1028,"Ġcour":1029,"Ġopen":1030,"ty":1031,"oul":1032,"Ġland":1033,"lie":1034,"It":1035,"ingly":1036,"Ġhas":1037,"Ġface":1038,"ideous":1039,"cri":1040,"ific":1041,"oud":1042,"Ġcle":1043,"Ġknown":1044,"ones":1045,"Ġsw":1046,"Ġph":1047,"Ġste":1048,"Ġancient":1049,"ock":1050,"Ġdet":1051,"eless":1052,"Ġhill":1053,"cl":1054,"Ġposs":1055,"ached":1056,"Ġaw":1057,"Ġstr":1058,"which":1059,"Ġfright":1060,"ung":1061,"ib":1062,"Ġfear":1063,"Ġhigh":1064,"Ġbet":1065,"Ġread":1066,"Ġmoment":1067,"ale":1068,"ob":1069,"Ġnat":1070,"ĠAt":1071,"Ġmoon":1072,"mer":1073,"ins":1074,"Ġbu":1075,"Ġwa":1076,"que":1077,"rag":1078,"Ġfind":1079,".âĢĿ":1080,"ped":1081,"utter":1082,"its":1083,"Ġpers":1084,"up":1085,"ener":1086,"get":1087,"ited":1088,"rave":1089,"ey":1090,"Ġocc":1091,"Ġkind":1092,"Ġless":1093,"Ġhere":1094,"Ġvi":1095,"Ġplan":1096,"me":1097,"Ġfew":1098,"ĠTh":1099,"com":1100,"ron":1101,"Ġrest":1102,"ully":1103,"Ġlow":1104,"Ġwond":1105,"Ġsle":1106,"Ġsil":1107,"Ġcor":1108,"ither":1109,"Ġlater":1110,"head":1111,"ĠThis":1112,"ross":1113,"hind":1114,"ren":1115,"haps":1116,"vers":1117,"Ġdeep":1118,"ountain":1119,"Ġinde":1120,"ia":1121,"Ġhideous":1122,"Ġspec":1123,"Ġmay":1124,"ying":1125,"Ġbody":1126,"Ġfam":1127,"cept":1128,"Ġunknown":1129,"ery":1130,"Ġfo":1131,"ĠWhat":1132,"eng":1133,"Ġstud":1134,"su":1135,"Ġmake":1136,"Ġbeing":1137,"Ġsea":1138,"Ġsun":1139,"Ġfin":1140,"kness":1141,"Ġspe":1142,"ods":1143,"enc":1144,"Ġmet":1145,"atch":1146,"Ġtook":1147,"Ġthree":1148,"Ġtre":1149,"pr":1150,"Ġsight":1151,"Ġext":1152,"Ġabove":1153,"med":1154,"ĠV":1155,"Ġanother":1156,"Ġhimself":1157,"ually":1158,"Ġbur":1159,"Ġpeople":1160,"no":1161,"Ġcent":1162,"scious":1163,"Ġbecause":1164,"als":1165,"Ġclose":1166,"ner":1167,"Ġwent":1168,"ĠAr":1169,"Ġsoon":1170,"Ġalways":1171,"ague":1172,"owing":1173,"Ġdead":1174,"Ġdel":1175,"imp":1176,"Ġagainst":1177,"Ġcomp":1178,"Ġcol":1179,"Ġlar":1180,"ages":1181,"Ġterrible":1182,"Ġlooked":1183,"Ġfoll":1184,"ane":1185,"Ġenough":1186,"Ġcry":1187,"ction":1188,"Ġmar":1189,"Ġrel":1190,"Ġdep":1191,"Ġamong":1192,"Ġindeed":1193,"ĠThat":1194,"Ġcourse":1195,"oke":1196,"Ġbro":1197,"used":1198,"ided":1199,"Ġfeet":1200,"sh":1201,"Ġtalk":1202,"Ġfloor":1203,"cle":1204,"olog":1205,"arr":1206,"Ġinv":1207,"Ġlay":1208,"Ġodd":1209,"Ġinst":1210,"Ġref":1211,"raw":1212,"Ġblo":1213,"Ġmem":1214,"ash":1215,"Ġinter":1216,"vel":1217,"ele":1218,"Ġshew":1219,"Ġbehind":1220,"Ġmyself":1221,"Ġri":1222,"Ġes":1223,"Ġsing":1224,"Ġda":1225,"Ġbel":1226,"Ġtill":1227,"ute":1228,"aring":1229,"ason":1230,"Ġem":1231,"der":1232,"Ġsign":1233,"Ġdoub":1234,"strous":1235,"eared":1236,"Ġque":1237,"Ġbrought":1238,"Ġwhole":1239,"Ġhel":1240,"Ġcare":1241,"Ġvast":1242,"ĠDr":1243,"Ġsame":1244,"Ġpast":1245,"uring":1246,"what":1247,"ĠU":1248,"ident":1249,"Ġdeath":1250,"aced":1251,"ude":1252,"arch":1253,"Ġexpl":1254,"ments":1255,"ention":1256,"Ġyoung":1257,"iness":1258,"ately":1259,"Ġobject":1260,"ured":1261,"Ġmatter":1262,"ms":1263,"Ġright":1264,"Ġsn":1265,"Ġboth":1266,"ank":1267,"Ġgave":1268,"Ġeff":1269,"cent":1270,"Ġind":1271,"Ġdreams":1272,"over":1273,"ased":1274,"iously":1275,"Ġbelie":1276,"overed":1277,"ient":1278,"were":1279,"Ġair":1280,"Ġfore":1281,"Ġspace":1282,"ans":1283,"Ġel":1284,"dden":1285,"Ġqueer":1286,"ric":1287,"rew":1288,"Ġwild":1289,"iss":1290,"ds":1291,"ination":1292,"bid":1293,"some":1294,"ural":1295,"ade":1296,"aken":1297,"finite":1298,"from":1299,"mit":1300,"Ġsort":1301,"Ġgood":1302,"riend":1303,"Ġkeep":1304,"Ġfur":1305,"Ġwhis":1306,"Ġneed":1307,"Ġsleep":1308,"pro":1309,"ham":1310,"Ġchi":1311,"Ġshad":1312,"ines":1313,"Ġside":1314,"ches":1315,"ĠWard":1316,"Ġoutside":1317,"Ġclear":1318,"by":1319,"tern":1320,"fl":1321,"orning":1322,"ints":1323,"Ġmyst":1324,"ĠWe":1325,"Ġdev":1326,"ug":1327,"Ġsqu":1328,"ality":1329,"olk":1330,"Ġcons":1331,"Ġart":1332,"ĠFor":1333,"clo":1334,"Ġturned":1335,"ously":1336,"ants":1337,"Ġbecame":1338,"ken":1339,"Ġtown":1340,"ths":1341,"ĠAll":1342,"Ġsudden":1343,"ĠHis":1344,"ĠWhen":1345,"Ġshall":1346,"ĠZ":1347,"Ġpur":1348,"ides":1349,"iting":1350,"ically":1351,"Ġwindow":1352,"Ġdiff":1353,"rif":1354,"Ġabs":1355,"Ġdays":1356,"Ġhowever":1357,"Ġlarge":1358,"In":1359,"ked":1360,"ĠMr":1361,"Ġbook":1362,"Ġwalls":1363,"Ġtake":1364,"Ġdire":1365,"Ġvague":1366,"iet":1367,"Ġquest":1368,"Ġsky":1369,"Ġtran":1370,"any":1371,"ats":1372,"Ġexc":1373,"ellow":1374,"Ġshould":1375,"Ġfeel":1376,"Ġele":1377,"Ġstru":1378,"Ġsupp":1379,"Ġalong":1380,"hor":1381,"ative":1382,"ien":1383,"where":1384,"Ġmountain":1385,"ower":1386,"ried":1387,"ters":1388,"Ġvill":1389,"ĠMy":1390,"Ġlead":1391,"Ġadv":1392,"Ġwood":1393,"Ġwalk":1394,"Ġwithin":1395,"arent":1396,"Ġquite":1397,"Ġnam":1398,"Ġtem":1399,"hem":1400,"Ġsens":1401,"**":1402,"aid":1403,"Ġdim":1404,"Ġtried":1405,"ier":1406,"Ġsy":1407,"ists":1408,"Ġgh":1409,"Ġheld":1410,"Ġitself":1411,"ression":1412,"ging":1413,"Ġfaint":1414,"lly":1415,"Ġant":1416,"though":1417,"Ġrock":1418,"Ġmonstrous":1419,"ef":1420,"Ġmere":1421,"Ġuse":1422,"xt":1423,"Ġwater":1424,"Ġgone":1425,"bl":1426,"dis":1427,"yl":1428,"Ġhome":1429,"Ġgener":1430,"ope":1431,"let":1432,"Ġgi":1433,"Ġalone":1434,"But":1435,"Ġplain":1436,"Ġser":1437,"ister":1438,"iced":1439,"Ġsent":1440,"Ġfull":1441,"Ġsecond":1442,"eneath":1443,"ral":1444,"use":1445,"Ġtra":1446,"Ġtry":1447,"Ġlear":1448,"ook":1449,"ories":1450,"Ġyour":1451,"eps":1452,"Ġmorning":1453,"Ġfriend":1454,"asp":1455,"Ġwholly":1456,"Ġothers":1457,"mal":1458,"inct":1459,"Ġcir":1460,"Ġreached":1461,"Ġwhite":1462,"aught":1463,"rid":1464,"Ġmot":1465,"ecul":1466,"Ġsugg":1467,"Ġvoice":1468,"fe":1469,"ten":1470,"Ġeach":1471,"illed":1472,"Ġexper":1473,"Ġhard":1474,"cha":1475,"could":1476,"und":1477,"Ġwar":1478,"Ġcoll":1479,"Ġgot":1480,"inted":1481,"Ġye":1482,"king":1483,"erest":1484,"hip":1485,"Ġcontin":1486,"ening":1487,"Ġins":1488,"ices":1489,"gend":1490,"._":1491,"He":1492,"Ġchar":1493,"!âĢĿ":1494,",_":1495,"hy":1496,"pite":1497,"uff":1498,"ird":1499,"cked":1500,"ĠNo":1501,"form":1502,"wor":1503,"ĠWill":1504,"Ġpoint":1505,"Ġacross":1506,"do":1507,"fully":1508,"Ġsol":1509,"ote":1510,"Ġconf":1511,"Ġimag":1512,"Ġanything":1513,"oun":1514,"idst":1515,"Ġdoubt":1516,"ired":1517,"imal":1518,"du":1519,"ev":1520,"gs":1521,"veral":1522,"Ġgrew":1523,"ield":1524,"iver":1525,"ring":1526,"Ġpict":1527,"alt":1528,"ĠAn":1529,"Ġru":1530,"Ġsum":1531,"Ġ19":1532,"As":1533,"Ġfall":1534,"men":1535,"Ġir":1536,"ising":1537,"Ġhapp":1538,"ett":1539,"ger":1540,"urw":1541,"Ġroad":1542,"yss":1543,"cript":1544,"eculiar":1545,"lves":1546,"Ġutter":1547,"iliar":1548,"Ġevil":1549,"urwen":1550,"ived":1551,"pes":1552,"Ġbeneath":1553,"Ġmin":1554,"Ġname":1555,"Ġconscious":1556,"Ġnext":1557,"Ġgrey":1558,"cap":1559,"ona":1560,"ayed":1561,"Ġpossible":1562,"Ġsense":1563,"ues":1564,"Ġfig":1565,"isted":1566,"Ġdr":1567,"Ġhaving":1568,"there":1569,"iled":1570,"Ġperhaps":1571,"Ġbelow":1572,"aut":1573,"Ġtow":1574,"ales":1575,"Ġstood":1576,"Ġrather":1577,"antic":1578,"Ġcase":1579,"Ġdri":1580,"Ġgold":1581,"ctor":1582,"lt":1583,"pre":1584,"Ġpol":1585,"Ġstreet":1586,"resh":1587,"Ġconn":1588,"Ġleast":1589,"day":1590,"night":1591,"Ġput":1592,"Ġsure":1593,"Ġrecall":1594,"Ġwindows":1595,"port":1596,"arce":1597,"cend":1598,"Ġhands":1599,"Ġmark":1600,"Ġfr":1601,"Ġcre":1602,"ism":1603,"ĠStreet":1604,"Ġdone":1605,"Ġground":1606,"Ġkept":1607,"ead":1608,"There":1609,"Ġcloud":1610,"Ġed":1611,"Ġwat":1612,"they":1613,"Ġvar":1614,"Then":1615,"des":1616,"Ġdro":1617,"emon":1618,"arded":1619,"Ġhorrible":1620,"face":1621,"ially":1622,"Ġlegend":1623,"ween":1624,"eor":1625,"Ġaff":1626,"Ġfolk":1627,"Ġcreat":1628,"aled":1629,"Ġseveral":1630,"Ġnorth":1631,"Ġbus":1632,"arted":1633,"ĠOld":1634,"Ġscream":1635,"ĠJo":1636,"nce":1637,"Ġill":1638,"Ġnone":1639,"Ġsometimes":1640,"Ġbuild":1641,"well":1642,"Ġage":1643,"Ġadd":1644,"ution":1645,"Ġused":1646,"ement":1647,"Ġclim":1648,"ogn":1649,"harles":1650,"Ġremem":1651,"ern":1652,"Ġbar":1653,"Ġheav":1654,"ceed":1655,"cho":1656,"Ġunc":1657,"Ġrose":1658,"Ġago":1659,"Ġview":1660,"Ġchild":1661,"ho":1662,"min":1663,"Ġcold":1664,"Ġcount":1665,"Ġdread":1666,"Ġhours":1667,"idence":1668,"Ġass":1669,"Ġcalled":1670,"co":1671,"tered":1672,"under":1673,"Ġve":1674,"Ġpri":1675,"Ġpap":1676,"ĠInd":1677,"ley":1678,"Ġcomple":1679,"Ġenc":1680,"airs":1681,"Ġtrans":1682,"ued":1683,"ĠâĢĻ":1684,"Ġtimes":1685,"Ġfour":1686,"ison":1687,"Ġnarr":1688,"look":1689,"Ġalien":1690,"Ġrecord":1691,"ancy":1692,"Ġsecret":1693,"Ġreturn":1694,"Ġturn":1695,"Ġpeculiar":1696,"Ġlab":1697,"aked":1698,"Ġyouth":1699,"Ġdistant":1700,"bably":1701,"cal":1702,"Ġgods":1703,"Ġund":1704,"Ġsave":1705,"Ġprof":1706,"Ġappeared":1707,"kham":1708,"Ġap":1709,"itch":1710,"Ġlost":1711,"otes":1712,"set":1713,"urb":1714,"Ġglass":1715,"Ġterror":1716,"Ġgreen":1717,"Ġhelp":1718,"how":1719,"ouch":1720,"arkness":1721,"Ġdon":1722,"udd":1723,"spect":1724,"Ġpresent":1725,"ces":1726,"ience":1727,"Ġbas":1728,"Ġabyss":1729,"ĠCurwen":1730,"Ġshock":1731,"omething":1732,"Ġghoul":1733,"Ġ(":1734,"Ġtaken":1735,"eness":1736,"Ġwhy":1737,"aining":1738,"ulf":1739,"ĠOnes":1740,"Ġphys":1741,"Ġdi":1742,"ature":1743,"urch":1744,"gether":1745,"him":1746,"sy":1747,"Ġtor":1748,"Ġmag":1749,"ĠOf":1750,"Ġappro":1751,"Ġslow":1752,"house":1753,"aster":1754,"Ġinterest":1755,"Ġnameless":1756,"rough":1757,"Ġaut":1758,"asion":1759,"ouses":1760,"ĠAfter":1761,"Ġspoke":1762,"Ġliving":1763,"Ġsuggest":1764,"gl":1765,"ives":1766,"norm":1767,"Ġahead":1768,"Ġduring":1769,"oman":1770,"Ġhear":1771,"ressed":1772,"Ġboy":1773,"ĠYou":1774,"Ġperson":1775,"00":1776,"Ġbetter":1777,"Ġcirc":1778,"sw":1779,"Ġoften":1780,"Ġled":1781,"olved":1782,"ground":1783,"ges":1784,"ser":1785,"Ġche":1786,"Ġstand":1787,"ushed":1788,"hant":1789,"ĠNew":1790,"itten":1791,"Ġcond":1792,"Ġsteps":1793,"Ġdespite":1794,"ĠWillett":1795,"aving":1796,"cted":1797,"oured":1798,"Ġce":1799,"itive":1800,"itude":1801,"Ġyear":1802,"aterial":1803,"ught":1804,"ains":1805,"raft":1806,"Ġunt":1807,"Ġplaces":1808,"Ġweek":1809,"ĠGreat":1810,"ances":1811,"Ġhills":1812,"Ġfamily":1813,"ze":1814,"raph":1815,"osed":1816,"Ġwords":1817,"ext":1818,"Ġfrightful":1819,"Ġwonder":1820,"ah":1821,"pan":1822,"when":1823,"Ġfell":1824,"Ġfather":1825,"human":1826,"rem":1827,"Ġfre":1828,"Ġeas":1829,"ĠSo":1830,"usion":1831,"ĠCharles":1832,"ney":1833,"umbling":1834,"ibly":1835,"Ġelse":1836,"body":1837,"Ġpar":1838,"Ġlist":1839,"Ġgive":1840,"ury":1841,"ĠShe":1842,"ĠWest":1843,"antly":1844,"ront":1845,"Ġescap":1846,"bs":1847,"mouth":1848,"would":1849,"Ġsoul":1850,"Ġfresh":1851,"Ġcast":1852,"ony":1853,"Ġgrave":1854,"urred":1855,"ledge":1856,"ĠPro":1857,"Ġvisit":1858,"Ġfoot":1859,"Ġshewed":1860,"ax":1861,"vo":1862,"imens":1863,"Ġmemory":1864,"Ġvillage":1865,"lic":1866,"Ġ2":1867,"Ġslo":1868,"ases":1869,"Ġline":1870,"Ġwhom":1871,"ech":1872,"place":1873,"And":1874,"Ġver":1875,"Ġbes":1876,"Ġhold":1877,"Ġhell":1878,"Ġran":1879,"astic":1880,"otten":1881,"po":1882,"pect":1883,"reg":1884,"Ġsat":1885,"Ġmor":1886,"Ġport":1887,"Ġpower":1888,"Ġhall":1889,"Ġreally":1890,"ets":1891,"alley":1892,"Ġconc":1893,"Ġchange":1894,"Ġpassed":1895,"Ġbetween":1896,"Ġspeak":1897,"Ġable":1898,"itions":1899,"Ġroof":1900,"Ġprev":1901,"Ġwhisp":1902,"pec":1903,"she":1904,"Ġten":1905,"selves":1906,"idden":1907,"Ġnoticed":1908,"ards":1909,"osm":1910,"ĠOne":1911,"ended":1912,"Ġfollowed":1913,"Ġpan":1914,"velo":1915,"emed":1916,"Ġshri":1917,"Ġshadow":1918,"cur":1919,"sion":1920,"zz":1921,"Ġmod":1922,"ider":1923,"Ġred":1924,"Ġdisapp":1925,"Ġevening":1926,"anced":1927,"ences":1928,"Ġsingular":1929,",âĢĿ":1930,"sha":1931,"Ġtable":1932,"ining":1933,"atic":1934,"Ġnec":1935,"Ġho":1936,"ented":1937,"erent":1938,"pping":1939,"Ġearly":1940,"Ġslight":1941,"bour":1942,"Ġdarkness":1943,"Ġsto":1944,"amb":1945,"Ġsinister":1946,"Ġsteep":1947,"noon":1948,"Ġmerely":1949,"line":1950,"pri":1951,"sing":1952,"Ġfive":1953,"Ġlim":1954,"lder":1955,"this":1956,"Ġmean":1957,"Ġexist":1958,"Ġshort":1959,"Ġdistance":1960,"Ġlearned":1961,"Ġwish":1962,"hast":1963,"ster":1964,"seen":1965,"Ġstart":1966,"ilt":1967,"Ġdoctor":1968,"Ġblood":1969,"Ġfact":1970,"ates":1971,"Ġreve":1972,"Ġstate":1973,"ĠSome":1974,"Ġspect":1975,"When":1976,"yr":1977,"Ġsim":1978,"erc":1979,"omed":1980,"Ġstars":1981,"Ġforg":1982,"Ġvan":1983,"Ġamidst":1984,"Ġtrees":1985,"Ġrefle":1986,"Ġriver":1987,"Ġanti":1988,"Ġheavy":1989,"Ġtales":1990,"Ġwide":1991,"Ġson":1992,"Ġthin":1993,"cks":1994,"Ġprep":1995,"Ġsuddenly":1996,"Ġnarrow":1997,"aun":1998,"after":1999,"even":2000,"tr":2001,"Ġod":2002,"Ġbod":2003,"Ġdam":2004,"Ġlate":2005,"ĠIf":2006,"Ġbeings":2007,"ilst":2008,"Ġorgan":2009,"ĠCl":2010,"Ġcomm":2011,"Ġregion":2012,"Ġfamiliar":2013,"ength":2014,"apt":2015,"Ġide":2016,"rel":2017,"Ġmist":2018,"ĠTo":2019,"ands":2020,"iles":2021,"Ġrun":2022,"ified":2023,"Ġspot":2024,"ĠNow":2025,"plic":2026,"Ġcannot":2027,"Ġnearly":2028,"Ġnature":2029,"otesque":2030,"aly":2031,"inc":2032,"Ġori":2033,"ries":2034,"Ġsuper":2035,"aks":2036,"about":2037,"ailed":2038,"Ġguess":2039,"Ġstrong":2040,"Ġfinally":2041,"At":2042,"aff":2043,"rest":2044,"Ġwatch":2045,"Ġprom":2046,"keley":2047,"Ġpoor":2048,"ixed":2049,"Ġcrypt":2050,"aven":2051,"craft":2052,"Ġmed":2053,"Ġmid":2054,"Ġfree":2055,"empt":2056,"umber":2057,"hile":2058,"Ġsounds":2059,"By":2060,"rec":2061,"stand":2062,"ceived":2063,"ility":2064,"ĠWith":2065,"elled":2066,"ĠGeor":2067,"ize":2068,"arsh":2069,"ĠArkham":2070,"Ġbri":2071,"Ġbott":2072,"Ġcut":2073,"Ġpat":2074,"Ġcommon":2075,"Ġnightm":2076,"Ġwondered":2077,"ius":2078,"ask":2079,"Ġple":2080,"Ġhy":2081,"rab":2082,"pper":2083,"Ġimm":2084,"Ġgreater":2085,"Ġrecogn":2086,"?âĢĿ":2087,"awn":2088,"oy":2089,"sm":2090,"ental":2091,"imate":2092,"ioned":2093,"Ġreason":2094,"ection":2095,"Ġlonger":2096,"Ġfarm":2097,"Ġ18":2098,"fort":2099,"nel":2100,"uck":2101,"erted":2102,"have":2103,"Ġbre":2104,"Ġhour":2105,"uth":2106,"Ġthick":2107,"Ġstran":2108,"Ġconst":2109,"who":2110,"Ġparty":2111,"Ġeffect":2112,"Ġgeneral":2113,"Ġserv":2114,"erm":2115,"Ġbad":2116,"Ġbest":2117,"Ġfac":2118,"ann":2119,"acona":2120,"amacona":2121,"their":2122,"uscript":2123,"Ġblue":2124,"ĠGod":2125,"Ġsurface":2126,"Ġgoing":2127,"nsmouth":2128,"Ġorigin":2129,"gu":2130,"mi":2131,"vis":2132,"rets":2133,"Ġmess":2134,"Ġfrag":2135,"alth":2136,"Ġabnorm":2137,"Ġshar":2138,"Ġformed":2139,"ized":2140,"ivid":2141,"great":2142,"zy":2143,"rent":2144,"hand":2145,"Ġhouses":2146,"owers":2147,"Ġalso":2148,"ians":2149,"Ġincl":2150,"Ġopened":2151,"Ġaccount":2152,"Ġcell":2153,"oned":2154,"vell":2155,"room":2156,"Ġsusp":2157,"aged":2158,"Ġperi":2159,"brary":2160,"Ġbooks":2161,"ouble":2162,"Ġbreat":2163,"Ġfire":2164,"Ġdied":2165,"Ġinf":2166,"idently":2167,"vern":2168,"aying":2169,"ĠThese":2170,"oles":2171,"Ġleave":2172,"Ġbrain":2173,"That":2174,"hold":2175,"rown":2176,"you":2177,"Ġnerv":2178,"Ġwhilst":2179,"aded":2180,"tering":2181,"ĠAl":2182,"Ġva":2183,"lied":2184,"Ġcoming":2185,"Ġgiven":2186,"more":2187,"Ġty":2188,"ots":2189,"Ġspir":2190,"Ġglimp":2191,"Ġobsc":2192,"umbled":2193,"Ġcountry":2194,"bit":2195,"Ġtit":2196,"onic":2197,"Ġpa":2198,"Ġhidden":2199,"Ġbegin":2200,"ulous":2201,"ilman":2202,"Ġapparent":2203,"pecially":2204,"eed":2205,"seemed":2206,"through":2207,"iful":2208,"ively":2209,"Ġgrotesque":2210,"before":2211,"Ġbecome":2212,"Ġcapt":2213,"aves":2214,"bered":2215,"rs":2216,"uge":2217,"wind":2218,"Ġae":2219,"Ġcosm":2220,"Ġlone":2221,"Ġresp":2222,"ograph":2223,"Ġknowledge":2224,"Ġdetail":2225,"Ġoccasion":2226,"bur":2227,"time":2228,"atory":2229,"Ġlength":2230,"ics":2231,"Ġhast":2232,"Ġhaun":2233,"semb":2234,"ĠAkeley":2235,"Ġalive":2236,"Ġouter":2237,"lessly":2238,"aws":2239,"attered":2240,"Ġbelieve":2241,"finitely":2242,"Ġuntil":2243,"ae":2244,"gy":2245,"iac":2246,"long":2247,"pit":2248,"vol":2249,"Ġbul":2250,"Ġmus":2251,"Ġmass":2252,"Ġmention":2253,"Ġtop":2254,"athe":2255,"atures":2256,"Ġsearch":2257,"ĠBe":2258,"Ġquiet":2259,"Ġincre":2260,"Ġchurch":2261,"Ġcal":2262,"Ġcamp":2263,"Ġeither":2264,"Ġrepe":2265,"ulpt":2266,"ĠAm":2267,"Ġrum":2268,"Ġwhether":2269,"Ġquick":2270,"Ġscarce":2271,"Ġfever":2272,"conscious":2273,"down":2274,"Ġcorn":2275,"Ġgro":2276,"enty":2277,"things":2278,"Ġyellow":2279,"Ġexcept":2280,"Ġafternoon":2281,"Ġclosed":2282,"Ġentered":2283,"Ġfigure":2284,"Ġopp":2285,"ndon":2286,"Ġdra":2287,"Ġlur":2288,"Ġhair":2289,"Ġequ":2290,"Ġexam":2291,"acks":2292,"Ġdescri":2293,"Ġaccur":2294,"Ġdecided":2295,"Ġstudy":2296,"Ġfinal":2297,"Ġdirection":2298,"Ġcomplete":2299,"Ġmorbid":2300,"uous":2301,"Ġtrave":2302,"Ġaf":2303,"Ġsix":2304,"Ġpain":2305,"irm":2306,"Ġord":2307,"osity":2308,"ĠBl":2309,"Ġmadness":2310,"Ġbring":2311,"Ġvisible":2312,"Ġsett":2313,"dist":2314,"while":2315,"Ġsought":2316,"Ġborn":2317,"arendon":2318,"Ġpassage":2319,"Ġchair":2320,"Ġmetal":2321,"Ġvarious":2322,"On":2323,"ai":2324,"ean":2325,"hn":2326,"inary":2327,"Ġwished":2328,"orted":2329,"arm":2330,"roll":2331,"Ġscene":2332,"Ġforms":2333,"ĠInnsmouth":2334,"ublic":2335,"angu":2336,"Ġsharp":2337,"ior":2338,"Ġought":2339,"Ġbore":2340,"Ġmove":2341,"Ġcult":2342,"stance":2343,"acc":2344,"ests":2345,"osition":2346,"Ġtrace":2347,"cont":2348,"Ġconsciousness":2349,"wise":2350,"Ġsour":2351,"ises":2352,"Ġhost":2353,"Ġansw":2354,"ession":2355,"ilight":2356,"Ġrace":2357,"Ġblasp":2358,"Ġprobably":2359,"Ġnormal":2360,"Ġpicture":2361,"Ġshriek":2362,"par":2363,"Ġmaterial":2364,"Ġfant":2365,"Ġcraw":2366,"Ġhope":2367,"omin":2368,"Ġheight":2369,"ults":2370,"Ġrad":2371,"Ġsuff":2372,"ump":2373,"Ġbox":2374,"azed":2375,"Ġviol":2376,"Ġdifferent":2377,"Ġnightmare":2378,"ivers":2379,"tw":2380,"erous":2381,"Ġfle":2382,"Ġfront":2383,"Ġdest":2384,"ackness":2385,"Ġstory":2386,"them":2387,"ills":2388,"Ġorder":2389,"Ġtrue":2390,"ĠLove":2391,"Ġsilent":2392,"Ġruins":2393,"Ġforgotten":2394,"Ġmound":2395,"add":2396,"Ġforce":2397,"Ġhist":2398,"Ġra":2399,"Ġconv":2400,"Ġglad":2401,"Ġrealised":2402,"ĠZamacona":2403,"Ġslowly":2404,"ĠLovecraft":2405,"come":2406,"nat":2407,"Ġbed":2408,"Ġtomb":2409,"urbed":2410,"Ġlevel":2411,"Ġthemselves":2412,"been":2413,"Ġappear":2414,"Ġ17":2415,"bel":2416,"uzz":2417,"vi":2418,"ince":2419,"Ġfut":2420,"Ġfears":2421,"Ġfully":2422,"Ġfield":2423,"Ġlive":2424,"Ġbeaut":2425,"Ġgulf":2426,"Ġaspect":2427,"ĠMarsh":2428,"oked":2429,"ĠGilman":2430,"ĠEng":2431,"Ġflight":2432,"ĠJones":2433,"Ġkey":2434,"Ġreturned":2435,"Ġdaemon":2436,"Ġlegends":2437,"bly":2438,"fect":2439,"now":2440,"nam":2441,"oc":2442,"sur":2443,"uct":2444,"Ġtouch":2445,"held":2446,"Ġfan":2447,"Ġdust":2448,"Ġstarted":2449,"Ġlived":2450,"Ġarch":2451,"ĠNor":2452,"ĠNot":2453,"Ġdescend":2454,"Ġobv":2455,"Ġmoved":2456,"Ġeverything":2457,"bec":2458,"cher":2459,"round":2460,"ses":2461,"Ġhig":2462,"aching":2463,"Ġforth":2464,"estig":2465,"ush":2466,"exp":2467,"Ġcuriously":2468,"Ġelect":2469,"Ġhellish":2470,"kind":2471,"something":2472,"Ġwife":2473,"Ġdrew":2474,"âĢĺ":2475,"Ġhop":2476,"essed":2477,"Ġsoft":2478,"Ġneigh":2479,"Ġincred":2480,"Ġattempt":2481,"Ġpresence":2482,"obert":2483,"Ġoccurred":2484,"Ġdawn":2485,"Ġhappened":2486,"Ġbuilding":2487,"looking":2488,"My":2489,"ege":2490,"rit":2491,"Ġmerc":2492,"Ġfly":2493,"Ġcat":2494,"Ġupper":2495,"Ġvol":2496,"ols":2497,"resp":2498,"Ġconce":2499,"Ġprodu":2500,"Ġdidn":2501,"Ġparts":2502,"Ġtorch":2503,"II":2504,"af":2505,"aim":2506,"can":2507,"iven":2508,"ky":2509,"pres":2510,"Ġsouth":2511,"Ġbit":2512,"Ġcities":2513,"Ġcovered":2514,"asc":2515,"Ġvict":2516,"off":2517,"Ġscient":2518,"ĠLake":2519,"Ġformer":2520,"Ġremained":2521,"Ġactual":2522,"Ġdirect":2523,"Ġscarcely":2524,"gun":2525,"ike":2526,"Ġcases":2527,"ested":2528,"ishing":2529,"Ġstre":2530,"cean":2531,"Ġasked":2532,"olph":2533,"Ġround":2534,"Ġlibrary":2535,"Ġblackness":2536,"Ġgrow":2537,"Ġshape":2538,"attle":2539,"Ġspeech":2540,"Ġmountains":2541,"useum":2542,"Ġstreets":2543,"Ġremember":2544,"Ġbodies":2545,"Ġperiod":2546,"iosity":2547,"pose":2548,"val":2549,"wood":2550,"Ġ*":2551,"itable":2552,"uttered":2553,"acked":2554,"uded":2555,"Ġdesign":2556,"ylind":2557,"Ġnervous":2558,"found":2559,"hood":2560,"lish":2561,"sl":2562,"ship":2563,"Ġest":2564,"rey":2565,"Ġsize":2566,"isk":2567,"Ġhint":2568,"Ġelder":2569,"Ġstret":2570,"Ġforbid":2571,"Ġdevelo":2572,"Ġlocal":2573,"Ġprot":2574,"Ġsecrets":2575,"Ġsurpr":2576,"Ġsubt":2577,"Ġhorrors":2578,"Ġtemple":2579,"Ġghouls":2580,"mber":2581,"heard":2582,"inter":2583,"oratory":2584,"Ġlatter":2585,"ĠAb":2586,"Ġmanuscript":2587,"Ġsomewhat":2588,"Ġdogs":2589,"âĢĿ,":2590,"Ġolder":2591,"itting":2592,"gina":2593,"Ġnatural":2594,"Ġdeli":2595,"ological":2596,"Ġstruck":2597,"Ġleading":2598,"ler":2599,"Ġmal":2600,"strange":2601,"otic":2602,"Ġthous":2603,"acing":2604,"Ġreach":2605,"Ġship":2606,"icked":2607,"Ġimport":2608,"ĠJohn":2609,"oot":2610,"Ġdw":2611,"Ġpath":2612,"owd":2613,"iment":2614,"ams":2615,"ĠSe":2616,"Ġblind":2617,"Ġsculpt":2618,"Ġcliff":2619,"Ġtruth":2620,"Ġafterward":2621,"Ġjo":2622,"Ġfeatures":2623,"Ġtwilight":2624,"Ġfarther":2625,"Ġlower":2626,"Ġsilence":2627,"medi":2628,"Ġsigns":2629,"Ġcontinued":2630,"Ġescape":2631,"bing":2632,"mist":2633,"Ġbound":2634,"Ġmir":2635,"icult":2636,"Ġstat":2637,"rop":2638,"Ġrit":2639,"ift":2640,"quent":2641,"ĠMan":2642,"akes":2643,"Ġdesert":2644,"Ġbuilt":2645,"Ġdevil":2646,"certain":2647,"mo":2648,"sub":2649,"Ġsac":2650,"Ġswe":2651,"Ġlangu":2652,"Ġstones":2653,"earth":2654,"istic":2655,"Ġeye":2656,"Ġsingle":2657,"Ġempt":2658,"undred":2659,"Ġpapers":2660,"Ġvanished":2661,"Ġaccursed":2662,"wr":2663,"reen":2664,"Ġwest":2665,"Ġsand":2666,"iter":2667,"Ġdared":2668,"Ġang":2669,"those":2670,"thought":2671,"illing":2672,"odd":2673,"Ġmeans":2674,"Ġuncle":2675,"Ġdeserted":2676,"Ġfeared":2677,"Ġeng":2678,"Ġremote":2679,"Ġdistinct":2680,"Ġexpect":2681,"Ġcorrid":2682,"Ġspecimens":2683,"Ġtalked":2684,"Ġclearly":2685,"Ġmyster":2686,"Ġwalked":2687,"world":2688,"Ġutterly":2689,"Ġwhispered":2690,"Ġstopped":2691,"Ġobscure":2692,"pse":2693,"pted":2694,"Ġtele":2695,"Ġwan":2696,"Ġheart":2697,"ored":2698,"iling":2699,"olute":2700,"Ġsucc":2701,"Ġmeet":2702,"une":2703,"ĠEven":2704,"Ġprimal":2705,"ossible":2706,"Ġopening":2707,"Ġplanet":2708,"Ġconnected":2709,"Ġidea":2710,"dream":2711,"father":2712,"Ġble":2713,"Ġmiss":2714,"Ġfif":2715,"Ġcats":2716,"ashed":2717,"Ġhuge":2718,"Ġglo":2719,"idly":2720,"ames":2721,"ching":2722,"asts":2723,"Ġmanner":2724,"Ġlean":2725,"Ġdog":2726,"ĠOr":2727,"Ġgrou":2728,"Ġtrad":2729,"Ġtrip":2730,"Ġinstant":2731,"Ġespecially":2732,"Ġquestion":2733,"Ġgolden":2734,"Ġodour":2735,"For":2736,"So":2737,"Th":2738,"You":2739,"car":2740,"oura":2741,"Ġmental":2742,"only":2743,"arre":2744,"Ġpal":2745,"Ġhur":2746,"urd":2747,"Ġstri":2748,"ĠWil":2749,"Ġneare":2750,"Ġimage":2751,"ogly":2752,"Ġflash":2753,"Ġdisturb":2754,"Ġexpected":2755,"Ġbrood":2756,"Ġobjects":2757,"ltimate":2758,"ips":2759,"ks":2760,"Ġmaking":2761,"orous":2762,"Ġpublic":2763,"Ġnumber":2764,"oms":2765,"Ġgate":2766,"sec":2767,"andolph":2768,"Ġmeant":2769,"umed":2770,"els":2771,"ĠHow":2772,"ĠMo":2773,"Ġshore":2774,"rance":2775,"ĠFrom":2776,"Ġentire":2777,"Ġexpression":2778,"Ġguard":2779,"aze":2780,"Ġcryst":2781,"Ġoddly":2782,"Ġmotion":2783,"ĠClarendon":2784,"Ġsource":2785,"uly":2786,"xious":2787,"Ġmother":2788,"Ġcave":2789,"Ġinner":2790,"Ġbegun":2791,"rav":2792,"unnel":2793,"together":2794,"oston":2795,"udden":2796,"Ġdisp":2797,"Ġgrad":2798,"urning":2799,"rupt":2800,"Ġpeaks":2801,"ngth":2802,"Ġattention":2803,"Ġcaused":2804,"Ġcreatures":2805,"Ġbusiness":2806,"Ġnecess":2807,"cest":2808,"reed":2809,"Ġmill":2810,"Ġfash":2811,"ata":2812,"uries":2813,"erence":2814,"ama":2815,"ays":2816,"Ġrid":2817,"raid":2818,"Ġexact":2819,"Ġleap":2820,"Ġcuriosity":2821,"Ġreport":2822,"Ġletters":2823,"Ġfrightened":2824,"Ġfollowing":2825,"Ġfurther":2826,"Ġmystery":2827,"Ġtrying":2828,"Ġimagination":2829,"Ġlaboratory":2830,"Ġcellar":2831,"Ġvictim":2832,"ires":2833,"Ġident":2834,"Ġwand":2835,"Ġfab":2836,"Ġpull":2837,"Ġnote":2838,"Ġrust":2839,"Ġwhatever":2840,"ĠDan":2841,"Ġproved":2842,"Ġgrass":2843,"ĠRobert":2844,"ĠOnce":2845,"Ġgetting":2846,"Ġburst":2847,"Ġmarvell":2848,"flu":2849,"Ġadded":2850,"Ġbeside":2851,"Ġconcer":2852,"Ġabnormal":2853,"Ġpaused":2854,"Ġblasphem":2855,"fer":2856,"wall":2857,"ĠâĢĶ":2858,"Ġfilled":2859,"Ġinside":2860,"Ġpit":2861,"Ġnon":2862,"omen":2863,"Ġspread":2864,"unt":2865,"ager":2866,"Ġseems":2867,"Ġclot":2868,"Ġbrick":2869,"izarre":2870,"Ġsignific":2871,"Ġfeeling":2872,"Ġcharac":2873,"Ġfrantic":2874,"Ġspirit":2875,"Ġfantastic":2876,"This":2877,"bet":2878,"pha":2879,"vings":2880,"Ġice":2881,"Ġcylind":2882,"Ġtogether":2883,"Ġlau":2884,"Ġlink":2885,"enth":2886,"acles":2887,"Ġstra":2888,"eth":2889,"ety":2890,"irty":2891,"Ġancest":2892,"umn":2893,"ĠCh":2894,"ĠCy":2895,"Ġshudd":2896,"ogers":2897,"Ġears":2898,"ancing":2899,"Ġchance":2900,"Ġletter":2901,"lief":2902,"ĠWhatele":2903,"Ġblocks":2904,"Ġexperience":2905,"Ġsolid":2906,"Ġtower":2907,"Ġpolice":2908,"Ġedge":2909,"ceeded":2910,"Ar":2911,"go":2912,"than":2913,"Ġte":2914,"Ġmouth":2915,"Ġfair":2916,"Ġfellow":2917,"Ġdrag":2918,"Ġvac":2919,"oseph":2920,"Ġword":2921,"ressions":2922,"Ġpartic":2923,"Ġevidently":2924,"Ġcarven":2925,"ready":2926,"soci":2927,"Ġaction":2928,"Ġwhisper":2929,"Ġhardly":2930,"Ġclouds":2931,"Ġwatched":2932,"Ġtitan":2933,"Ġcosmic":2934,"Ġdwelt":2935,"St":2936,"eys":2937,"ls":2938,"overy":2939,"ux":2940,"yed":2941,"Ġwoman":2942,"Ġfurn":2943,"Ġfancy":2944,"Ġcaught":2945,"Ġdem":2946,"Ġtot":2947,"Ġhundred":2948,"stone":2949,"irt":2950,"then":2951,"echan":2952,"oused":2953,"Ġweird":2954,"Ġknows":2955,"inking":2956,"Ġusual":2957,"ency":2958,"ology":2959,"Ġprepared":2960,"Ġpleas":2961,"Ġcorner":2962,"Ġstrength":2963,"part":2964,"Ġ3":2965,"Ġtall":2966,"Ġtale":2967,"inous":2968,"Ġocean":2969,"Ġsli":2970,"Ġmum":2971,"Ġmort":2972,"Ġdraw":2973,"Ġpale":2974,"Ġpuzz":2975,"Ġhier":2976,"Ġgen":2977,"Ġemb":2978,"Ġthro":2979,"entle":2980,"Ġstir":2981,"ume":2982,"ĠPer":2983,"ĠEd":2984,"Ġattic":2985,"ĠUn":2986,"Ġeffort":2987,"mitted":2988,"aughter":2989,"Ġpaper":2990,"Ġshocking":2991,"ĠGeorgina":2992,"Ġapparently":2993,".,":2994,"What":2995,"cr":2996,"mar":2997,"pass":2998,"Ġid":2999,"Ġtree":3000,"erved":3001,"Ġbaff":3002,"Ġbizarre":3003,"arse":3004,"asy":3005,"Ġheaven":3006,"Ġanim":3007,"Ġunseen":3008,"ĠHill":3009,"Ġdeg":3010,"Ġshun":3011,"Ġleaving":3012,"rank":3013,"abb":3014,"Ġarcha":3015,"Ġprop":3016,"whose":3017,"Ġthoughts":3018,"ĠOnly":3019,"Ġactually":3020,"Ġcentre":3021,"Ġcentury":3022,"Ġbroken":3023,"asonry":3024,"Ġsnow":3025,"Ġsquare":3026,"Ġdifficult":3027,"work":3028,"door":3029,"Ġphysical":3030,"Ġbrief":3031,"Ġbreak":3032,"Ġvault":3033,"Ġradi":3034,"Ġscientific":3035,"gress":3036,"just":3037,"Ġfing":3038,"arn":3039,"Ġden":3040,"stairs":3041,"utes":3042,"ids":3043,"igantic":3044,"Ġsail":3045,"ĠDe":3046,"Ġprim":3047,"ording":3048,"Ġimpression":3049,"Ġcrowd":3050,"Ġawful":3051,"Ġwaves":3052,"Ġconsider":3053,"Ġceased":3054,"Ġdamn":3055,"Ġbreath":3056,"Ġtravell":3057,"Ġhigher":3058,"iveness":3059,"bo":3060,"did":3061,"might":3062,"uc":3063,"ouched":3064,"Ġmould":3065,"Ġmine":3066,"ician":3067,"stem":3068,"Ġgle":3069,"Ġghast":3070,"Ġsend":3071,"Ġvivid":3072,"know":3073,"Ġunf":3074,"Ġdoes":3075,"Ġlove":3076,"Ġtrouble":3077,"Ġdesper":3078,"Ġobt":3079,"Ġlooking":3080,"Ġcertainly":3081,"Ġunderstand":3082,"Ġwritten":3083,"Ġclosely":3084,"Ġvaguely":3085,"hyth":3086,"formation":3087,"Ġtowers":3088,"Ġslope":3089,"Ġforbidden":3090,"Ġhierogly":3091,"Carter":3092,"Ġtang":3093,"Ġtaking":3094,"Ġcross":3095,"oring":3096,"Ġgard":3097,"Ġanimal":3098,"Ġnotes":3099,"Ġval":3100,"quently":3101,"ourse":3102,"ĠCapt":3103,"ĠBoston":3104,"uding":3105,"Ġneg":3106,"Ġarri":3107,"They":3108,"Ġfee":3109,"endous":3110,"Ġseek":3111,"Ġremark":3112,"Ġpock":3113,"Ġintell":3114,"Ġcarried":3115,"rossed":3116,"Ġhighly":3117,"Ġbelieved":3118,"Ġforest":3119,"Ġstruct":3120,"Ġsymb":3121,"Ġdropped":3122,"chool":3123,"Ġquickly":3124,"All":3125,"must":3126,"Ġcap":3127,"isation":3128,"Ġdwell":3129,"Ġlan":3130,"Ġner":3131,"Ġvalley":3132,"ify":3133,"rying":3134,"Ġproc":3135,"Ġgrowing":3136,"Ġjud":3137,"ickman":3138,"pean":3139,"Ġvoices":3140,"Ġstead":3141,"Ġshadows":3142,"clopean":3143,"black":3144,"Ġexistence":3145,"Ġfragments":3146,"case":3147,"ming":3148,"ping":3149,"into":3150,"ench":3151,"stead":3152,"essor":3153,"Ġvain":3154,"ĠSir":3155,"igious":3156,"Ġquarter":3157,"Ġquality":3158,"Ġshapes":3159,"Ġlights":3160,"iece":3161,"Ġsurv":3162,"Ġsubject":3163,"Ġpurpose":3164,"Ġwoods":3165,"ounted":3166,"Ġpictures":3167,"Ġremembered":3168,"Ġprofound":3169,"Ġantiqu":3170,"Ġmessage":3171,"Ġaeons":3172,"Ġbeauty":3173,"Ġelectric":3174,"respond":3175,"mistak":3176,"After":3177,"bers":3178,"gone":3179,"ton":3180,"Ġz":3181,"Ġign":3182,"hall":3183,"Ġmach":3184,"arl":3185,"Ġdang":3186,"Ġpen":3187,"Ġhung":3188,"omic":3189,"Ġbeheld":3190,"Ġeight":3191,"Ġetern":3192,"Ġstro":3193,"Ġstream":3194,"Ġstorm":3195,"Ġultimate":3196,"Ġvent":3197,"Ġrough":3198,"elling":3199,"ctions":3200,"Ġshut":3201,"ables":3202,"ĠIts":3203,"Ġlocked":3204,"âĢĿ.":3205,"Ġdispl":3206,"Ġbrid":3207,"Ġglow":3208,"ountered":3209,"ĠRandolph":3210,"forth":3211,"formed":3212,"ĠJoseph":3213,"Ġdisturbed":3214,"Ġprec":3215,"Ġaccom":3216,"ixt":3217,"Ġphot":3218,"Ġcompan":3219,"Ġcolour":3220,"Ġneeded":3221,"iverse":3222,"alton":3223,"Ġrecalled":3224,"Ġrecognised":3225,"belie":3226,"chan":3227,"dle":3228,"Ġ&":3229,"real":3230,"Ġwant":3231,"Ġfaces":3232,"arily":3233,"Ġgigantic":3234,"Ġvap":3235,"Ġrain":3236,"quest":3237,"ĠHere":3238,"ĠWas":3239,"Ġdef":3240,"eping":3241,"perhaps":3242,"Ġearli":3243,"Ġburied":3244,"Ġcarefully":3245,"disc":3246,"Ġ192":3247,"Ġfallen":3248,"Ġveget":3249,"Ġmodern":3250,"Ġstrang":3251,"natural":3252,"Ġfuture":3253,"bes":3254,"ny":3255,"nal":3256,"ract":3257,"iny":3258,"reme":3259,"Ġmasonry":3260,"Ġcause":3261,"Ġpot":3262,"Ġpost":3263,"Ġlore":3264,"Ġgod":3265,"Ġecho":3266,"ribly":3267,"ĠHad":3268,"Ġalthough":3269,"Ġsafe":3270,"thern":3271,"ples":3272,"Ġclut":3273,"ĠRe":3274,"Ġmonths":3275,"Ġcarved":3276,"Ġwax":3277,"clock":3278,"Ġcreature":3279,"Ġhistory":3280,"bu":3281,"gaun":3282,"Ġtext":3283,"Ġtunnel":3284,"rep":3285,"Ġwhar":3286,"Ġmixed":3287,"Ġfish":3288,"Ġpill":3289,"stru":3290,"alone":3291,"Ġemer":3292,"Ġthunder":3293,"Ġrevel":3294,"Ġresemb":3295,"Ġstar":3296,"olution":3297,"ĠCom":3298,"Ġdefinite":3299,"ĠMar":3300,"Ġsomehow":3301,"ĠPo":3302,"Ġimmedi":3303,"Ġdiscovery":3304,"Ġready":3305,"Ġcorpse":3306,"Ġsunset":3307,"Ġinvestig":3308,"rified":3309,"Ġincredible":3310,"We":3311,"iend":3312,"wild":3313,"Ġbright":3314,"Ġmiles":3315,"Ġmuseum":3316,"Ġcof":3317,"orough":3318,"Ġlaid":3319,"lend":3320,"ading":3321,"rial":3322,"Ġask":3323,"ĠTheir":3324,"Ġunus":3325,"ctic":3326,"again":3327,"Ġmankind":3328,"Ġdiss":3329,"Ġgrand":3330,"Ġglance":3331,"ĠRogers":3332,"izon":3333,"Ġcrumbling":3334,"Ġreality":3335,"Ġchanged":3336,"Ġwriting":3337,"meric":3338,"Ġstudied":3339,"Ġemot":3340,"Ġabsolute":3341,"Ġsummer":3342,"Ġdetails":3343,"Ġrepeated":3344,"Ġmalign":3345,"Ġempty":3346,"jo":3347,"met":3348,"serv":3349,"Ã«":3350,"Ġsides":3351,"enes":3352,"Ġmechan":3353,"Ġcra":3354,"anity":3355,"Ġpress":3356,"ston":3357,"Ġbearing":3358,"Ġstairs":3359,"cell":3360,"Ġfort":3361,"Ġforced":3362,"arding":3363,"istent":3364,"Ġspell":3365,"ateau":3366,"ĠBrown":3367,"Ġworst":3368,"ĠPickman":3369,"ension":3370,"expl":3371,"Ġrecent":3372,"Ġminds":3373,"Ġchaos":3374,"Ġdeterm":3375,"Ġspecial":3376,"Ġmarble":3377,"Ġinstead":3378,"Ġsystem":3379,"Ġdreaded":3380,"Ġencountered":3381,"Ġmentioned":3382,"ĠAmmi":3383,"uddenly":3384,"eff":3385,"pers":3386,"Ġtent":3387,"hel":3388,"eral":3389,"Ġmain":3390,"Ġcop":3391,"Ġpi":3392,"still":3393,"Ġthird":3394,"ĠTs":3395,"oresc":3396,"Ġrap":3397,"Ġrising":3398,"ational":3399,"Ġspring":3400,"Ġconcl":3401,"Ġloath":3402,"Ġscr":3403,"Ġobser":3404,"Ġformul":3405,"Ġendless":3406,"Ġtrem":3407,"Ġfurt":3408,"Ġabsence":3409,"Ġstrugg":3410,"ĠIndian":3411,"Ġeasy":3412,"Ġroofs":3413,"olesome":3414,"ĠBlake":3415,"Ġthousand":3416,"ĠMoore":3417,"ĠCyclopean":3418,"ĠWhateley":3419,"back":3420,"hill":3421,"Ġavo":3422,"Ġwaking":3423,"Ġfailed":3424,"Ġinqu":3425,"Ġposition":3426,"Ġlot":3427,"Ġge":3428,"Ġeast":3429,"Ġstay":3430,"Ġstup":3431,"road":3432,"aming":3433,"aste":3434,"Ġaband":3435,"Ġdeal":3436,"Ġoutl":3437,"Ġplaced":3438,"Ġlie":3439,"ĠEvery":3440,"Ġtwenty":3441,"Ġmoving":3442,"never":3443,"teen":3444,"Ġcarvings":3445,"Ġvision":3446,"Ġrepres":3447,"Ġresolved":3448,"Ġdiscovered":3449,"Ġspecul":3450,"Ġtremb":3451,"Ġpursu":3452,"Ġcollege":3453,"Ġapert":3454,"Ġcircum":3455,"ahum":3456,"Ġslightly":3457,"col":3458,"mem":3459,"Ġaid":3460,"Ġsane":3461,"Ġbig":3462,"Ġfa":3463,"Ġcand":3464,"Ġdamp":3465,"icated":3466,"almost":3467,"Ġbear":3468,"urally":3469,"Ġstation":3470,"eter":3471,"Ġconvers":3472,"Ġalready":3473,"Ġ.âĢĿ":3474,"osite":3475,"Ġworse":3476,"Ġimages":3477,"ending":3478,"ometimes":3479,"Ġacqu":3480,"Ġlands":3481,"Ġmatters":3482,"Ġmarked":3483,"Ġmagn":3484,"Ġreflected":3485,"Ġcommun":3486,"Ġmidnight":3487,"Ġhaunted":3488,"Ġdrawn":3489,"Ġlanguage":3490,"gaunts":3491,"bable":3492,"fall":3493,"fric":3494,"new":3495,"row":3496,"sit":3497,"tic":3498,"wich":3499,"yx":3500,"rehen":3501,"eds":3502,"Ġbir":3503,"Ġmat":3504,"Ġmaster":3505,"Ġfit":3506,"Ġcrossed":3507,"Ġdare":3508,"Ġpatter":3509,"Ġpip":3510,"Ġling":3511,"Ġassoci":3512,"Ġsepar":3513,"Ġrise":3514,"Ġnoon":3515,"Ġknock":3516,"Ġarm":3517,"Ġages":3518,"Ġclass":3519,"cied":3520,"Ġperil":3521,"Ġmighty":3522,"Ġpract":3523,"Ġmock":3524,"Ġwrote":3525,"Ġmoonlight":3526,"Ġwaters":3527,"sych":3528,"Ġmagic":3529,"Ġrevealed":3530,"Ġglimpsed":3531,"Ġlonely":3532,"hythm":3533,"cor":3534,"later":3535,"Ġsit":3536,"Ġbase":3537,"Ġfasc":3538,"Ġdry":3539,"asted":3540,"Ġinflu":3541,"Ġloud":3542,"Ġhot":3543,"Ġeager":3544,"iments":3545,"Ġnotice":3546,"Ġseven":3547,"Ġseized":3548,"Ġalt":3549,"ivered":3550,"Ġweak":3551,"ĠBy":3552,"Ġproper":3553,"Ġclaw":3554,"scri":3555,"Ġperfect":3556,"henomen":3557,"Ġprison":3558,"Ġpret":3559,"Ġpartly":3560,"Ġways":3561,"ailing":3562,"ĠKad":3563,"azing":3564,"upon":3565,"eyed":3566,"Ġdepths":3567,"Ġexcited":3568,"Ġseries":3569,"Ġfolks":3570,"Ġspectral":3571,"Ġbottom":3572,"Ġoriginal":3573,"Ġafraid":3574,"Ġcrystal":3575,"bre":3576,"came":3577,"dec":3578,"eb":3579,"such":3580,"ugg":3581,"Ġ5":3582,"Ġwon":3583,"Ġbold":3584,"Ġholl":3585,"Ġgentle":3586,"Ġwaste":3587,"urama":3588,"Ġforward":3589,"Ġvit":3590,"usted":3591,"osph":3592,"Ġshot":3593,"Ġtrain":3594,"cip":3595,"Ġremo":3596,"Ġbackground":3597,"ĠYet":3598,"Ġcover":3599,"ĠThose":3600,"Ġinstinct":3601,"Ġinsane":3602,"Ġuncann":3603,"Ġpanic":3604,"Ġsimple":3605,"Ġservants":3606,"Ġobviously":3607,"Ġnecessary":3608,"uxet":3609,"Ġpocket":3610,"osphoresc":3611,"--":3612,"vidence":3613,"ĠQ":3614,"Ġtim":3615,"Ġsick":3616,"enis":3617,"Ġbare":3618,"Ġfirm":3619,"inged":3620,"asing":3621,"atonic":3622,"ĠIs":3623,"ether":3624,"amiliar":3625,"uls":3626,"rap":3627,"Ġunmistak":3628,"Ġleg":3629,"urely":3630,"ĠNahum":3631,"Ġscattered":3632,"Ġhorizon":3633,"igned":3634,"Ġpoints":3635,"cons":3636,"ords":3637,"Ġdoorway":3638,"Ġevents":3639,"Ġrooms":3640,"Ġworked":3641,"Ġheads":3642,"Ġcentral":3643,"Ġreluct":3644,"Ġchief":3645,"Ġauthor":3646,"Ġcondition":3647,"iskatonic":3648,"Of":3649,"dam":3650,"fle":3651,"folk":3652,"gain":3653,"ghed":3654,"lar":3655,"Ġer":3656,"Ġhints":3657,"Ġhinted":3658,"Ġreceived":3659,"Ġonyx":3660,"Ġstop":3661,"ember":3662,"ode":3663,"Ġsuc":3664,"Ġuniverse":3665,"using":3666,"Ġspent":3667,"ĠMay":3668,"ĠBar":3669,"Ġroll":3670,"ĠNature":3671,"pless":3672,"Ġjour":3673,"ĠLe":3674,"Ġstrangely":3675,"conce":3676,"Ġvisions":3677,"Ġdecl":3678,"apped":3679,"Ġfinding":3680,"Ġpersons":3681,"Ġbroad":3682,"Ġmemories":3683,"Ġghost":3684,"Ġ191":3685,"Ġbuildings":3686,"Ġclimbed":3687,"Ġbeginning":3688,"athered":3689,"Ġstretched":3690,"ĠEdward":3691,"Ġhieroglyph":3692,"Ġcoffin":3693,"ĠTsath":3694,"ares":3695,"rical":3696,"uation":3697,"vent":3698,"Ġbal":3699,"Ġfast":3700,"arg":3701,"Ġdiv":3702,"ator":3703,"Ġinformation":3704,"Ġlines":3705,"iding":3706,"verse":3707,"rier":3708,"ribut":3709,"alled":3710,"Ġratt":3711,"quiet":3712,"ĠSu":3713,"Ġcouldn":3714,"Ġisland":3715,"Ġneither":3716,"ape":3717,"aps":3718,"Ġagreed":3719,"Ġshewn":3720,"Ġsubstance":3721,"Ġsays":3722,"Ġcorrespond":3723,"Ġchildren":3724,"Ġglimpse":3725,"Ġneighbour":3726,"Ġparticular":3727,"Ġaperture":3728,"aj":3729,"bor":3730,"bro":3731,"cul":3732,"flo":3733,"mp":3734,"nor":3735,"vil":3736,"water":3737,"yan":3738,"yet":3739,"Ġwear":3740,"Ġfate":3741,"Ġfren":3742,"Ġdata":3743,"Ġhon":3744,"icate":3745,"leep":3746,"imm":3747,"Ġstuff":3748,"Ġstench":3749,"eren":3750,"ilar":3751,"Ġyawn":3752,"uments":3753,"Ġexha":3754,"Ġalarm":3755,"Ġshr":3756,"Ġloose":3757,"Ġscenes":3758,"ogs":3759,"Ġgreatest":3760,"Ġterr":3761,"Ġpeace":3762,"Ġkilled":3763,"Ġworlds":3764,"Ġmonst":3765,"Ġentity":3766,"Ġchamber":3767,"ibility":3768,"Ġnative":3769,"Ġbelong":3770,"ugust":3771,"Ġsenses":3772,"menced":3773,"Ġpriests":3774,"Ġrange":3775,"pril":3776,"Ġantique":3777,"Ġstranger":3778,"Ġraised":3779,"Ġsacrif":3780,"Ġsuccess":3781,"Ġfashion":3782,"Ġloathsome":3783,"born":3784,"ez":3785,"foot":3786,"son":3787,"Ġur":3788,"ĠâĢĺ":3789,"Ġwings":3790,"ermy":3791,"Ġmud":3792,"Ġfiend":3793,"arctic":3794,"Ġdiz":3795,"Ġlif":3796,"Ġlack":3797,"oming":3798,"omes":3799,"Ġhate":3800,"Ġhealth":3801,"imen":3802,"imag":3803,"Ġrevol":3804,"etr":3805,"thy":3806,"Ġself":3807,"Ġrout":3808,"Ġarms":3809,"Ġdreamed":3810,"Ġdecad":3811,"Ġdecay":3812,"Ġrealm":3813,"Ġguide":3814,"Ġtelling":3815,"Ġwait":3816,"ronomic":3817,"horror":3818,"Ġapart":3819,"regular":3820,"Ġprevious":3821,"Ġdisappear":3822,"iversity":3823,"Ġmissing":3824,"Ġprocess":3825,"bell":3826,"char":3827,"fit":3828,"made":3829,"sound":3830,"tran":3831,"hered":3832,"inally":3833,"Ġwit":3834,"enath":3835,"Ġbones":3836,"Ġcab":3837,"Ġinex":3838,"Ġlum":3839,"Ġhat":3840,"Ġhabit":3841,"sect":3842,"ional":3843,"Ġann":3844,"ecronomic":3845,"ĠAfric":3846,"Ġring":3847,"ĠSouth":3848,"Ġexisted":3849,"Ġupward":3850,"Ġmanaged":3851,"Ġplateau":3852,"ĠOl":3853,"Ġprints":3854,"Ġcrude":3855,"Ġaccording":3856,"Ġsurround":3857,"Ġregular":3858,"Ġreading":3859,"Ġexplain":3860,"Ġsensation":3861,"uffled":3862,"Ġpriv":3863,"Ġabysses":3864,"Ġsuggestion":3865,"expected":3866,"Ġgradually":3867,"Ġghastly":3868,"Ġfeeble":3869,"Ġnerves":3870,"ecronomicon":3871,"che":3872,"na":3873,"ube":3874,"yard":3875,"Ġwitch":3876,"Ġmis":3877,"Ġmur":3878,"Ġcatch":3879,"Ġpsych":3880,"Ġlamp":3881,"Ġgra":3882,"Ġhence":3883,"Ġones":3884,"amed":3885,"chol":3886,"ĠSh":3887,"ushing":3888,"agon":3889,"Ġmansion":3890,"ĠOther":3891,"Ġwhence":3892,"Ġlock":3893,"Ġscroll":3894,"Ġflame":3895,"rug":3896,"ĠJust":3897,"Ġkill":3898,"Ġchim":3899,"apping":3900,"Ġcavern":3901,"ception":3902,"Ġcenturies":3903,"ĠMrs":3904,"Ġelement":3905,"Ġiron":3906,"Ġfigures":3907,"Ġconnex":3908,"Ġeasily":3909,"yram":3910,"Ġdestro":3911,"Ġmirror":3912,"ĠPerhaps":3913,"Ġearlier":3914,"ĠKadath":3915,"Necronomicon":3916,"digious":3917,"mn":3918,"mark":3919,"Ġsou":3920,"Ġschool":3921,"hap":3922,"half":3923,"Ġburned":3924,"Ġbank":3925,"Ġfun":3926,"ingu":3927,"itement":3928,"orial":3929,"organ":3930,"Ġdig":3931,"Ġinfinitely":3932,"Ġphenomen":3933,"Ġbearded":3934,"otting":3935,"see":3936,"Ġthorough":3937,"Ġstaring":3938,"these":3939,"ainted":3940,"thur":3941,"alleys":3942,"Ġmyth":3943,"ĠSomething":3944,"ĠWhe":3945,"told":3946,"osop":3947,"oken":3948,"Ġsav":3949,"Ġworn":3950,"ĠDalton":3951,"Ġbrother":3952,"hie":3953,"Ġ16":3954,"Ġdetect":3955,"prints":3956,"Ġbroke":3957,"Ġexplore":3958,"Ġbelief":3959,"Ġsquat":3960,"Ġsuppose":3961,"looked":3962,"Ġrecords":3963,"Ġstanding":3964,"Ġlistened":3965,"Ġdescribe":3966,"Ġgulfs":3967,"ĠEnglish":3968,"Ġfancied":3969,"Ġcorridor":3970,"Ġshunned":3971,"Ġunusual":3972,"ermyn":3973,"cing":3974,"cto":3975,"een":3976,"fright":3977,"hu":3978,"por":3979,"Ġwel":3980,"eded":3981,"enry":3982,"Ġmood":3983,"Ġfil":3984,"Ġcust":3985,"Ġcott":3986,"oric":3987,"Ġdull":3988,"aling":3989,"oward":3990,"Ġgas":3991,"acted":3992,"Ġstair":3993,"Ġmeas":3994,"eling":3995,"locked":3996,"ĠMost":3997,"Ġaged":3998,"Ġcomes":3999,"Ġcommenced":4000,"Ġdescent":4001,"Ġlikewise":4002,"action":4003,"Ġimpressions":4004,"awt":4005,"Ġchill":4006,"Ġevidence":4007,"Ġcontr":4008,"nothing":4009,"brid":4010,"monstrous":4011,"Ġresult":4012,"Ġcareful":4013,"Ġartic":4014,"ĠAllen":4015,"Ġadvent":4016,"hemical":4017,"Ġcircle":4018,"arceline":4019,"Ġapproached":4020,"Ġcastle":4021,"Ġsuperst":4022,"Ġordinary":4023,"Ġanswer":4024,"Ġteleph":4025,"Ġmarvellous":4026,"Ġsignificance":4027,"Ġfingers":4028,"Ġphotograph":4029,"far":4030,"gen":4031,"ium":4032,"Ġiv":4033,"Ġfight":4034,"Ġfood":4035,"Ġfine":4036,"Ġciv":4037,"esh":4038,"Ġbeard":4039,"acle":4040,"Ġstag":4041,"ĠAmeric":4042,"Ġnois":4043,"agged":4044,"Ġgreatly":4045,"Ġsheer":4046,"Ġimpossible":4047,"ivable":4048,"Ġentrance":4049,"Ġdeeply":4050,"Ġstudies":4051,"mitage":4052,"Ġquestions":4053,"Ġweeks":4054,"ĠProvidence":4055,"Ġdisappeared":4056,"Ġincreased":4057,"Ġrumours":4058,"Ġdaemoniac":4059,"Ġgroup":4060,"ourage":4061,"Ġanimals":4062,"Ġarchaic":4063,"awtuxet":4064,"little":4065,"inn":4066,"Ġcere":4067,"Ġcru":4068,"Ġdie":4069,"ancient":4070,"atched":4071,"Ġinha":4072,"Ġparent":4073,"Ġlof":4074,"Ġbewild":4075,"uted":4076,"erer":4077,"Ġforget":4078,"Ġvirt":4079,"Ġrail":4080,"Ġrhythm":4081,"ĠHer":4082,"unted":4083,"Ġnobody":4084,"oking":4085,"rang":4086,"ĠOut":4087,"ĠGods":4088,"beyond":4089,"Ġenorm":4090,"ensive":4091,"Ġ15":4092,"Ġoffic":4093,"Ġevent":4094,"ĠKing":4095,"ificial":4096,"Ġslept":4097,"Ġextreme":4098,"Ġfollow":4099,"Ġminute":4100,"ĠProf":4101,"yrin":4102,"Ġoccasional":4103,"gypt":4104,"Ġcalm":4105,"Ġsettled":4106,"Ġdescended":4107,"chers":4108,"aimed":4109,"Ġconcerning":4110,"Ġblasphemous":4111,"Ġdragged":4112,"Ġgardens":4113,"Ġstructure":4114,"Ġignor":4115,"Ġconversation":4116,"Al":4117,"aver":4118,"ique":4119,"life":4120,"saw":4121,"Ġomin":4122,"Ġfung":4123,"once":4124,"itary":4125,"isf":4126,"Ġpall":4127,"Ġpair":4128,"Ġpowers":4129,"Ġhither":4130,"Ġgn":4131,"Ġthus":4132,"Ġthirty":4133,"acy":4134,"rigg":4135,"ĠAugust":4136,"ĠSurama":4137,"unk":4138,"Ġsomewhere":4139,"urnal":4140,"ĠEx":4141,"Ġdescript":4142,"Ġpray":4143,"Ġmonster":4144,"grown":4145,"comple":4146,"Ġadvanced":4147,"Ġsuggested":4148,"lthar":4149,"Ġdiary":4150,"Ġmiddle":4151,"Ġfarmhouse":4152,"Ġbulk":4153,"ĠEngland":4154,"Ġhoped":4155,"Ġrites":4156,"Ġnearer":4157,"Ġdisturbing":4158,"Ġfabulous":4159,"ĠDanforth":4160,"Ġcylinder":4161,"Ġshuddered":4162,"Ġconsiderable":4163,"det":4164,"first":4165,"hist":4166,"lit":4167,"yarl":4168,"Ã©":4169,"Ġwire":4170,"Ġsad":4171,"Ġsong":4172,"Ġfat":4173,"arly":4174,"Ġphant":4175,"Ġgri":4176,"Ġgran":4177,"Ġgained":4178,"Ġhesit":4179,"Ġrele":4180,"Ġrese":4181,"ĠTer":4182,"usk":4183,"Ġconject":4184,"ĠMiskatonic":4185,"Ġshook":4186,"Ġprov":4187,"Ġanyone":4188,"athot":4189,"ĠEl":4190,"icking":4191,"exic":4192,"ĠJermyn":4193,"Ġslab":4194,"Ġsmoke":4195,"Ġcho":4196,"Ġmostly":4197,"Ġentities":4198,"Ġadm":4199,"Ġwrong":4200,"Ġawake":4201,"Ġstrain":4202,"ĠThough":4203,"rench":4204,"Ġamongst":4205,"Ġplainly":4206,"Ġtrail":4207,"Ġwarning":4208,"Ġscreamed":4209,"Ġconditions":4210,"Ġslopes":4211,"Ġwhispers":4212,"Ġmeaning":4213,"Ġsuspected":4214,"Ġmusic":4215,"Ġbrooding":4216,"Ġmillion":4217,"Ġclothing":4218,"Ġcharacter":4219,"Ġstraight":4220,"Ġthroat":4221,"Ġobtained":4222,"Ġuncanny":4223,"Ġconnexion":4224,"every":4225,"hideous":4226,"lim":4227,"oid":4228,"ray":4229,"shad":4230,"Ġtong":4231,"Ġav":4232,"Ġcro":4233,"aten":4234,"Ġpha":4235,"Ġpet":4236,"Ġpause":4237,"Ġlad":4238,"Ġhang":4239,"otted":4240,"Ġstark":4241,"thul":4242,"think":4243,"ums":4244,"umes":4245,"umns":4246,"Ġunlike":4247,"ĠHenry":4248,"uss":4249,"Ġexceed":4250,"ĠWar":4251,"anting":4252,"ĠMore":4253,"Ġaltogether":4254,"Ġshiver":4255,"Ġlips":4256,"ĠPe":4257,"Ġprove":4258,"Ġprogress":4259,"Ġamount":4260,"Ġcurse":4261,"pses":4262,"Ġmenace":4263,"izens":4264,"Ġsubter":4265,"ipher":4266,"ĠAsenath":4267,"Ġmoments":4268,"Ġpossessed":4269,"Ġdeeper":4270,"Ġspecimen":4271,"sugg":4272,"Ġextent":4273,"ĠUp":4274,"Ġexplan":4275,"Ġforever":4276,"Ġforeign":4277,"Ġrocks":4278,"Ġwarm":4279,"Ġvisitors":4280,"Ġshadowy":4281,"Ġfragment":4282,"Ġsuspic":4283,"Ġfields":4284,"Ġproduced":4285,"Ġdeliber":4286,"Ġmysterious":4287,"Ġwanted":4288,"Ġfifty":4289,"Ġmummy":4290,"Ġintellig":4291,"Ġoutlines":4292,"yarlathot":4293,"Now":4294,"away":4295,"diff":4296,"eg":4297,"kin":4298,"lore":4299,"last":4300,"occ":4301,"ooth":4302,"rous":4303,"sight":4304,"zen":4305,"Ġtight":4306,"Ġaston":4307,"Ġsway":4308,"Ġschol":4309,"erby":4310,"Ġbran":4311,"onse":4312,"orph":4313,"anes":4314,"Ġped":4315,"Ġpop":4316,"ste":4317,"ential":4318,"Ġrear":4319,"Ġrever":4320,"Ġstories":4321,"Ġstumbled":4322,"Ġanaly":4323,"eces":4324,"ifest":4325,"ĠSp":4326,"ĠSpan":4327,"ĠDenis":4328,"Ġgrown":4329,"Ġflat":4330,"Ġflesh":4331,"Ġremain":4332,"many":4333,"Ġexped":4334,"without":4335,"Ġregions":4336,"Ġvoid":4337,"Ġphosphoresc":4338,"alem":4339,"Ġhideously":4340,"Ġcoloss":4341,"evil":4342,"Ġsurely":4343,"Ġdrove":4344,"Ġbarrier":4345,"plicable":4346,"Ġcryptic":4347,"Ġmedical":4348,"Ġhyp":4349,"because":4350,"Ġdesigns":4351,"Ġsubtle":4352,"Ġdeliri":4353,"Ġabandoned":4354,"yarlathotep":4355,"!_":4356,"Ab":4357,"One":4358,"With":4359,"bar":4360,"dimens":4361,"hin":4362,"jected":4363,"la":4364,"lance":4365,"nes":4366,"pet":4367,"since":4368,"yer":4369,"Ġess":4370,"Ġtest":4371,"Ġtreat":4372,"asant":4373,"Ġpiece":4374,"Ġlaw":4375,"Ġhum":4376,"lement":4377,"Ġbehold":4378,"ache":4379,"Ġrequ":4380,"Ġwhir":4381,"ads":4382,"ĠAlf":4383,"Ġvig":4384,"Ġyard":4385,"Ġrub":4386,"Ġrats":4387,"ounded":4388,"Ġune":4389,"Ġunnatural":4390,"usions":4391,"Ġsoil":4392,"Ġnoise":4393,"Ġtrack":4394,"ĠLat":4395,"ĠLeng":4396,"cial":4397,"ĠJames":4398,"Ġsmell":4399,"Ġoffered":4400,"grand":4401,"oubted":4402,"Ġharm":4403,"Ġswift":4404,"uttering":4405,"ountains":4406,"Ġfoet":4407,"Ġshewing":4408,"Ġhelped":4409,"Ġsleeping":4410,"Ġlargely":4411,"Ġnamed":4412,"Ġtrap":4413,"Ġwatching":4414,"ĠBefore":4415,"Ġopposite":4416,"Ġdescribed":4417,"account":4418,"Ġdeveloped":4419,"Ġsculptures":4420,"Ġcliffs":4421,"Ġvacant":4422,"Ġceremon":4423,"Be":4424,"ding":4425,"mind":4426,"mos":4427,"van":4428,"vill":4429,"Ġtouched":4430,"Ġaout":4431,"Ġsor":4432,"Ġmask":4433,"ork":4434,"oration":4435,"aries":4436,"arian":4437,"Ġdut":4438,"Ġdue":4439,"another":4440,"Ġinfin":4441,"Ġpicked":4442,"Ġlies":4443,"steps":4444,"Ġgather":4445,"vey":4446,"Ġrelief":4447,"amps":4448,"three":4449,"Ġseat":4450,"ulate":4451,"ilosop":4452,"Ġunconscious":4453,"ĠSm":4454,"ĠHouse":4455,"usive":4456,"Ġspoken":4457,"Ġabrupt":4458,"too":4459,"ĠMexic":4460,"oney":4461,"osen":4462,"agers":4463,"Ġplay":4464,"Ġprodigious":4465,"Ġclust":4466,"Ġcomb":4467,"Ġhorribly":4468,"Ġtwisted":4469,"Ġknowing":4470,"Ġlightning":4471,"Ġcloser":4472,"ĠYig":4473,"Ġunderground":4474,"Ġcob":4475,"Ġthinking":4476,"Ġwaited":4477,"Ġwaiting":4478,"Ġcolon":4479,"Ġdepart":4480,"Ġexcitement":4481,"Ġclimb":4482,"ĠIndians":4483,"Ġanswered":4484,"two":4485,"Ġdirectly":4486,"Ġbaffling":4487,"Ġvegetation":4488,"Ġroute":4489,"Ġenormous":4490,"Ġominous":4491,"thulhu":4492,"book":4493,"course":4494,"dire":4495,"mag":4496,"near":4497,"ox":4498,"pur":4499,"years":4500,"outed":4501,"Ġbent":4502,"Ġfer":4503,"Ġfled":4504,"Ġfav":4505,"Ġfixed":4506,"Ġcy":4507,"Ġpushed":4508,"Ġlit":4509,"stances":4510,"Ġgalley":4511,"Ġep":4512,"rose":4513,"âĢĶâĢĶ":4514,"irc":4515,"ander":4516,"Ġvist":4517,"blem":4518,"olf":4519,"Ġrare":4520,"Ġmel":4521,"indeed":4522,"ĠSil":4523,"ĠWhy":4524,"Ġsole":4525,"cturnal":4526,"Ġplun":4527,"ĠObed":4528,"udder":4529,"liv":4530,"Ġarmy":4531,"Ġblank":4532,"ĠPawtuxet":4533,"Ġproport":4534,"ishly":4535,"ishment":4536,"Ġtroub":4537,"Ġdesol":4538,"icken":4539,"Ġwherein":4540,"Ġlikely":4541,"hipp":4542,"spec":4543,"ounting":4544,"ĠRoman":4545,"Ġcurrent":4546,"Ġseeing":4547,"Ġpoison":4548,"dead":4549,"Ġdoors":4550,"Ġincident":4551,"bris":4552,"Ġregret":4553,"lands":4554,"Ġcolumns":4555,"Ġinvis":4556,"Ġinterior":4557,"Ġemp":4558,"ĠUlthar":4559,"iety":4560,"Ġgiving":4561,"Ġfriends":4562,"Ġimagine":4563,"Ġfalling":4564,"Ġgreenish":4565,"Ġphysician":4566,"Ġpatient":4567,"Ġtype":4568,"eanwhile":4569,"Ġcrawling":4570,"Ġfairly":4571,"Ġbridge":4572,"Ġfurtive":4573,"Ġfaith":4574,"Ġpiping":4575,"Ġhieroglyphs":4576,"An":4577,"bours":4578,"del":4579,"dark":4580,"eenth":4581,"mad":4582,"miss":4583,"phere":4584,"Ġtask":4585,"Ġwore":4586,"Ġsank":4587,"Ġmult":4588,"Ġfro":4589,"Ġlat":4590,"lying":4591,"Ġgar":4592,"Ġhearing":4593,"urt":4594,"urope":4595,"Ġstep":4596,"ĠTom":4597,"ulse":4598,"key":4599,"chie":4600,"ems":4601,"eled":4602,"usp":4603,"Ġshone":4604,"ecting":4605,"Ġovert":4606,"ĠEgypt":4607,"spap":4608,"ensions":4609,"Ġslaves":4610,"manship":4611,"Ġpointed":4612,"Ġterrif":4613,"Ġlighted":4614,"fined":4615,"Ġskull":4616,"Ġcoast":4617,"Ġpossibly":4618,"Ġnatives":4619,"Ġspeed":4620,"Ġartist":4621,"Ġlearn":4622,"Ġdrive":4623,"Ġfrequent":4624,"Ġescaped":4625,"Ġlimit":4626,"Ġquietly":4627,"Ġcompletely":4628,"Ġestab":4629,"ĠOrne":4630,"Ġflashlight":4631,"Ġdegree":4632,"Ġsymbol":4633,"Ġcrazy":4634,"Ġobserved":4635,"Ġhollow":4636,"Ġcivil":4637,"His":4638,"Jo":4639,"gran":4640,"lers":4641,"rad":4642,"wixt":4643,"Ġaver":4644,"inent":4645,"inated":4646,"Ġbark":4647,"Ġfail":4648,"esome":4649,"ashing":4650,"Ġnum":4651,"urs":4652,"âĢĶâĢľ":4653,"rill":4654,"Ġnoted":4655,"kelet":4656,"Ġrim":4657,"Ġsupre":4658,"ĠSalem":4659,"agues":4660,"Ġdoing":4661,"ability":4662,"Ġwhenever":4663,"Ġloc":4664,"ĠDun":4665,"Ġdisquiet":4666,"ĠGreen":4667,"Ġtruly":4668,"lessness":4669,"ĠLater":4670,"spe":4671,"ertainly":4672,"Ġremains":4673,"Ġboat":4674,"alker":4675,"Ġpeak":4676,"Ġfloated":4677,"Ġwrite":4678,"Ġregarding":4679,"Ġdiscover":4680,"Ġcourt":4681,"Ġoccup":4682,"Ġmeth":4683,"ĠVer":4684,"ĠArthur":4685,"ologist":4686,"Ġartificial":4687,"Ġtemples":4688,"Ġdimly":4689,"Ġantarctic":4690,"Ġmotor":4691,"ounter":4692,"Ġsummon":4693,"Ġhappen":4694,"Ġbasalt":4695,"Ġinterested":4696,"Ġautumn":4697,"Ġlisten":4698,"Ġaeon":4699,"Ġresponse":4700,"Ġpainted":4701,"Ġappearance":4702,"Ġobvious":4703,"Ġprimitive":4704,"Ġeternal":4705,"Ġrapidly":4706,"script":4707,"erences":4708,"oubtedly":4709,"io":4710,"mpt":4711,"oo":4712,"oint":4713,"whis":4714,"zed":4715,"Ã¤":4716,"Ġain":4717,"inv":4718,"Ġwise":4719,"Ġsal":4720,"Ġsanity":4721,"Ġmoss":4722,"Ġcries":4723,"Ġcube":4724,"Ġtoday":4725,"Ġpaint":4726,"Ġlying":4727,"Ġlately":4728,"ldom":4729,"Ġstick":4730,"rol":4731,"iration":4732,"alling":4733,"Ġsemi":4734,"ĠAgain":4735,"ĠApril":4736,"olt":4737,"ĠWh":4738,"Ġabhor":4739,"unknown":4740,"ĠMart":4741,"ĠMarceline":4742,"ingsport":4743,"ĠBr":4744,"ops":4745,"Ġdise":4746,"Ġgrim":4747,"Ġshap":4748,"cipit":4749,"Ġener":4750,"Ġhorse":4751,"exper":4752,"ruction":4753,"Ġcursed":4754,"Ġseeking":4755,"Ġprin":4756,"ressing":4757,"ubes":4758,"Ġflood":4759,"Ġresults":4760,"Ġharbour":4761,"headed":4762,"Ġdelight":4763,"Ġqueerly":4764,"Ġexperiments":4765,"Ġdriven":4766,"Ġscreaming":4767,"holy":4768,"Ġturning":4769,"Ġsuggestions":4770,"Ġchest":4771,"Ġcheap":4772,"Ġfrequently":4773,"shaped":4774,"Ġneck":4775,"Ġbottle":4776,"Ġequally":4777,"Ġimportant":4778,"Ġritual":4779,"ĠWilbur":4780,"Ġexactly":4781,"Ġlaugh":4782,"Ġavoid":4783,"Ġjourney":4784,"ĠProfessor":4785,"Ġinvisible":4786,"),":4787,"blo":4788,"bert":4789,"dep":4790,"olet":4791,"squ":4792,"Ġ7":4793,"Ġtaste":4794,"Ġburning":4795,"inging":4796,"ites":4797,"itation":4798,"iture":4799,"aning":4800,"anim":4801,"llen":4802,"atical":4803,"Ġnumb":4804,"Ġgathered":4805,"Ġec":4806,"aches":4807,"Ġrespect":4808,"roof":4809,"ulation":4810,"ĠArab":4811,"arde":4812,"ument":4813,"knew":4814,"Ġuns":4815,"ĠSop":4816,"ĠSuch":4817,"Ġbygone":4818,"ustomed":4819,"outside":4820,"Ġmanifest":4821,"Ġshif":4822,"Ġshining":4823,"ĠOur":4824,"Ġarrange":4825,"ĠDes":4826,"ĠDerby":4827,"ĠPl":4828,"ĠPr":4829,"Ġscience":4830,"Ġthrong":4831,"Ġtrick":4832,"hib":4833,"Ġcurt":4834,"ĠJune":4835,"Ġwinds":4836,"conc":4837,"izard":4838,"Ġoffice":4839,"Ġkeen":4840,"awed":4841,"Ġmonth":4842,"Ġvisited":4843,"Ġextra":4844,"ĠArmitage":4845,"Ġtalking":4846,"ologists":4847,"Ġabsor":4848,"Ġexchan":4849,"Ġsupply":4850,"duced":4851,"Ġminutes":4852,"Ġmarks":4853,"Ġceiling":4854,"Ġparaly":4855,"Ġorganic":4856,"Ġdevelop":4857,"Arkham":4858,"Ġdifficulty":4859,"build":4860,"Ġinfluence":4861,"Ġvital":4862,"Ġcabin":4863,"ĠAfrica":4864,"Ġcolossal":4865,"Mr":4866,"bear":4867,"bbed":4868,"front":4869,"kes":4870,"pair":4871,"sil":4872,"sens":4873,"town":4874,"tical":4875,"uine":4876,"uced":4877,"vals":4878,"Ġtend":4879,"Ġtiny":4880,"Ġaim":4881,"rect":4882,"hal":4883,"Ġmaint":4884,"Ġmists":4885,"Ġchemical":4886,"estern":4887,"Ġdil":4888,"Ġdomin":4889,"asm":4890,"asons":4891,"ators":4892,"Ġinfinite":4893,"Ġloss":4894,"icted":4895,"stud":4896,"stood":4897,"Ġgest":4898,"Ġeld":4899,"idious":4900,"Ġrece":4901,"Ġstore":4902,"Ġaside":4903,"anded":4904,"Ġsealed":4905,"illy":4906,"Ġrays":4907,"ounding":4908,"Ġconqu":4909,"ospit":4910,"ĠBen":4911,"aker":4912,"Ġloomed":4913,"ĠGo":4914,"Ġtracks":4915,"ĠFen":4916,"high":4917,"Ġremind":4918,"Ġremaining":4919,"ĠInstead":4920,"Ġpoet":4921,"Ġchoked":4922,"Ġaccess":4923,"Ġclean":4924,"Ġbetwixt":4925,"object":4926,"Ġfool":4927,"Ġlarger":4928,"Ġmarvel":4929,"Ġdepth":4930,"Ġkeeping":4931,"Ġdimensions":4932,"Ġgenerally":4933,"000":4934,"Ġhole":4935,"Ġstronger":4936,"recogn":4937,"Ġconstantly":4938,"Ġtyp":4939,"Ġflew":4940,"Ġjoined":4941,"Ġleaped":4942,"Ġlaughed":4943,"Ġdetermined":4944,"Ġremoved":4945,"Ġsucceeded":4946,"Ġparents":4947,"complete":4948,"Ġexceedingly":4949,"ĠAlfred":4950,"Ġsupreme":4951,"Chap":4952,"TH":4953,"aemon":4954,"faces":4955,"iable":4956,"sol":4957,"uary":4958,"vable":4959,"will":4960,"inic":4961,"rees":4962,"Ġshant":4963,"erve":4964,"Ġmaj":4965,"Ġdusk":4966,"atus":4967,"Ġinstr":4968,"Ġlest":4969,"Ġbeast":4970,"Ġgaze":4971,"Ġheat":4972,"utch":4973,"ette":4974,"iring":4975,"Ġnotion":4976,"ulted":4977,"Ġrav":4978,"Ġunw":4979,"ĠHall":4980,"Ġdebris":4981,"Ġupstairs":4982,"Ġshudder":4983,"Ġsake":4984,"Ġleather":4985,"Ġplayed":4986,"Ġarg":4987,"ĠDo":4988,"ĠRace":4989,"scape":4990,"white":4991,"wholesome":4992,"Ġattend":4993,"iction":4994,"ĠStill":4995,"herent":4996,"Ġsaying":4997,"rague":4998,"Ġplane":4999,"Ġinvol":5000,"Ġsensitive":5001,"Ġmotions":5002,"Ġghoulish":5003,"Ġelsewhere":5004,"Ġpowerful":5005,"Ġrunning":5006,"Ġfreely":5007,"fortable":5008,"Ġfacts":5009,"Ġmesseng":5010,"Ġrespons":5011,"Ġflying":5012,"Ġimportance":5013,"moon":5014,"writing":5015,"Ġtradition":5016,"Ġmortal":5017,"Ġsailors":5018,"Ġdanger":5019,"Ġaltar":5020,"ĠQu":5021,"broken":5022,"Ġhitherto":5023,"Ġpedest":5024,"granek":5025,"Ġshapeless":5026,"30":5027,"From":5028,"cy":5029,"eh":5030,"gust":5031,"ss":5032,"said":5033,"wo":5034,"ydam":5035,"Ġze":5036,"ĠaÃ«":5037,"relief":5038,"Ġwave":5039,"Ġsitting":5040,"err":5041,"erable":5042,"has":5043,"Ġbow":5044,"Ġcit":5045,"Ġchis":5046,"Ġcried":5047,"Ġinsect":5048,"Ġpos":5049,"alog":5050,"acious":5051,"idity":5052,"Ġrepl":5053,"ament":5054,"ĠTr":5055,"ulated":5056,"olith":5057,"top":5058,"Ġdefinitely":5059,"ĠMc":5060,"Ġaloud":5061,"Ġalike":5062,"Ġships":5063,"Ġlegs":5064,"ranon":5065,"Ġseemingly":5066,"Ġclinic":5067,"Ġbrown":5068,"ĠLand":5069,"Ġflashed":5070,"ressive":5071,"Ġsmooth":5072,"Ġintr":5073,"Ġenter":5074,"Ġnews":5075,"Ġreply":5076,"Ġawaked":5077,"Ġrested":5078,"Ġdelicate":5079,"Ġhelpless":5080,"Ġexplained":5081,"close":5082,"Ġvillagers":5083,"Ġexperiment":5084,"ounced":5085,"Ġruin":5086,"Ġpeculiarly":5087,"himself":5088,"Ġapproach":5089,"echn":5090,"ividual":5091,"Ġincluding":5092,"viving":5093,"Ġcorridors":5094,"Ġnearest":5095,"Ġreports":5096,"Ġpuzzled":5097,"Ġmechanical":5098,"Ġprivate":5099,"Ġivory":5100,"suggest":5101,"mosphere":5102,"ĠSmith":5103,"Ġnumerous":5104,"aout":5105,"cles":5106,"dul":5107,"faced":5108,"iam":5109,"ipped":5110,"mom":5111,"pret":5112,"rows":5113,"ule":5114,"va":5115,"Ġut":5116,"Ġaven":5117,"Ġaud":5118,"Ġskelet":5119,"Ġburn":5120,"Ġfal":5121,"Ġcred":5122,"Ġcost":5123,"itious":5124,"itect":5125,"isen":5126,"Ġdate":5127,"Ġdying":5128,"Ġtom":5129,"Ġpond":5130,"Ġpaws":5131,"Ġnause":5132,"lect":5133,"stant":5134,"Ġbeat":5135,"Ġbeasts":5136,"Ġgit":5137,"Ġgazed":5138,"Ġreck":5139,"Ġmyths":5140,"Ġsear":5141,"Ġseldom":5142,"Ġunless":5143,"Ġunexpected":5144,"Ġunholy":5145,"istence":5146,"Ġsplend":5147,"antically":5148,"ĠMarch":5149,"ranged":5150,"Ġdoom":5151,"ondon":5152,"ortun":5153,"Ġrope":5154,"Ġblast":5155,"Ġproblem":5156,"Ġimper":5157,"Ġcler":5158,"Ġtraces":5159,"Ġshelves":5160,"ĠEurope":5161,"ĠFrench":5162,"Ġglanced":5163,"Ġenem":5164,"ittered":5165,"ĠRom":5166,"exc":5167,"Ġappar":5168,"Ġdaylight":5169,"ganok":5170,"alked":5171,"Ġdreaming":5172,"Ġimpressed":5173,"Ġchosen":5174,"Ġclock":5175,"Ġcrown":5176,"Ġnewspap":5177,"Ġguarded":5178,"appeared":5179,"Ġcool":5180,"eyes":5181,"Ġsilently":5182,"sured":5183,"Ġrefused":5184,"Ġindicated":5185,"Ġconsid":5186,"Ġtransp":5187,"Ġsensations":5188,"Ġgiant":5189,"Ġcrept":5190,"ĠJoe":5191,"Ġlabyrin":5192,"Ġportent":5193,"restrial":5194,"Ġpromise":5195,"Ġlurking":5196,"Ġmerciful":5197,"Ġangles":5198,"illinghast":5199,"Ġantiquity":5200,"Ġcompanion":5201,"Ġwharves":5202,"Ġpillars":5203,"Ġrevelation":5204,"Ġabsolutely":5205,"Ġsituation":5206,"Ġpretty":5207,"Ġsavage":5208,"ctober":5209,"Ġcottage":5210,"Ġtelephone":5211,"Chapter":5212,"NG":5213,"No":5214,"Will":5215,"band":5216,"creat":5217,"dra":5218,"gian":5219,"gener":5220,"iently":5221,"mother":5222,"oa":5223,"pal":5224,"pul":5225,"sa":5226,"sen":5227,"eding":5228,"Ġbatter":5229,"oning":5230,"around":5231,"Ġpred":5232,"Ġpoured":5233,"Ġlap":5234,"Ġlaws":5235,"omal":5236,"Ġham":5237,"left":5238,"lected":5239,"Ġgor":5240,"uranes":5241,"Ġstared":5242,"Ġforces":5243,"terrible":5244,"uled":5245,"ils":5246,"Ġrich":5247,"Ġrotting":5248,"umped":5249,"Ġuncom":5250,"ĠSabb":5251,"uses":5252,"Ġspite":5253,"Ġexotic":5254,"ustr":5255,"Ġnoises":5256,"Ġoutline":5257,"osing":5258,"âĢľâĢĺ":5259,"Ġwouldn":5260,"Ġaroused":5261,"Ġproof":5262,"Ġscra":5263,"ĠEli":5264,"Ġdesire":5265,"ĠFinally":5266,"Ġglim":5267,"Ġdownward":5268,"ials":5269,"hard":5270,"Ġdistingu":5271,"Ġprecipit":5272,"plex":5273,"atters":5274,"Ġinches":5275,"Ġattribut":5276,"Ġmonot":5277,"Ġgovern":5278,"ĠKingsport":5279,"Ġadmit":5280,"Ġended":5281,"Ġsounded":5282,"mont":5283,"Ġpreserved":5284,"Ġcoat":5285,"Ġoccult":5286,"Ġsilver":5287,"supp":5288,"Ġcompany":5289,"Ġmembers":5290,"Ġabsurd":5291,"Ġshoulder":5292,"atively":5293,"Ġadvance":5294,"Ġsumm":5295,"Ġaffair":5296,"Ġillusion":5297,"Ġcomplex":5298,"Ġdiam":5299,"Ġautom":5300,"Ġholding":5301,"Ġreveal":5302,"Ġhyster":5303,"Ġincluded":5304,"Ġcosmos":5305,"contin":5306,"Ġviolently":5307,"Ġengulf":5308,"ravag":5309,"Ġidentity":5310,"ferred":5311,"Ġmachine":5312,"Ġemerged":5313,"Ġimmediate":5314,"Ġgrandfather":5315,"Ġrepresented":5316,"ĠOlney":5317,"Ġtongue":5318,"Ġexpedition":5319,"Ġabruptly":5320,"coll":5321,"dom":5322,"ee":5323,"fant":5324,"fig":5325,"foll":5326,"hil":5327,"iving":5328,"lies":5329,"litten":5330,"much":5331,"pent":5332,"sk":5333,"sent":5334,"sign":5335,"tem":5336,"tell":5337,"¯s":5338,"Â°":5339,"Ã¯s":5340,"Ġ4":5341,"Ġtort":5342,"heres":5343,"incl":5344,"Ġtheory":5345,"Ġbull":5346,"Ġmuffled":5347,"Ġfaced":5348,"Ġcou":5349,"asse":5350,"Ġpure":5351,"ication":5352,"Ġgoss":5353,"Ġrev":5354,"Ġstol":5355,"Ġstage":5356,"Ġstony":5357,"Ġascend":5358,"ulsion":5359,"keep":5360,"Ġyield":5361,"ifice":5362,"ardonic":5363,"ounds":5364,"ĠSan":5365,"Ġspl":5366,"Ġspaces":5367,"ĠMany":5368,"ĠMalone":5369,"Ġnocturnal":5370,"oses":5371,"Ġleaves":5372,"Ġdoct":5373,"abor":5374,"ĠNyarlathotep":5375,"Ġgrace":5376,"Ġshaft":5377,"Ġthrone":5378,"Ġmadden":5379,"ĠLook":5380,"began":5381,"Ġperceived":5382,"Ġapprehen":5383,"ĠJan":5384,"death":5385,"pleasant":5386,"Ġintense":5387,"Ġaccident":5388,"mbers":5389,"appro":5390,"Ġpassing":5391,"Ġpassages":5392,"Ġretreat":5393,"lights":5394,"Ġswamp":5395,"Ġawa":5396,"Ġawesome":5397,"Ġoccur":5398,"ĠThor":5399,"elepha":5400,"Ġsnake":5401,"Ġwildly":5402,"Ġmystic":5403,"Ġtowns":5404,"Ġwooden":5405,"Ġcollap":5406,"Ġruined":5407,"Ġirregular":5408,"Ġroads":5409,"ĠIndeed":5410,"Ġlistening":5411,"Ġpreviously":5412,"curious":5413,"Ġdamned":5414,"fortun":5415,"Ġbadly":5416,"Ġincreasing":5417,"Ġrepeat":5418,"Ġborne":5419,"Ġneighbours":5420,"Ġmysteries":5421,"dreams":5422,"Ġcharacters":5423,"Ġtotal":5424,"Ġremarkable":5425,"Ġimmediately":5426,"Ġpieces":5427,"Ġseparate":5428,"conceivable":5429,"Ġneighbouring":5430,"boro":5431,"Ġwitness":5432,"Ġinexplicable":5433,"Ġluminous":5434,"Ġstaircase":5435,"Ġnoisome":5436,"Ġinfinity":5437,"elephaÃ¯s":5438,"Dr":5439,"She":5440,"grey":5441,"nec":5442,"pict":5443,"racted":5444,"sis":5445,"shi":5446,"Ġtone":5447,"Ġtread":5448,"inations":5449,"inning":5450,"inative":5451,"Ġwis":5452,"Ġmile":5453,"Ġmidst":5454,"Ġfaded":5455,"ont":5456,"ittering":5457,"arry":5458,"Ġdrug":5459,"anted":5460,"anoth":5461,"Ġpier":5462,"omb":5463,"ĠIranon":5464,"hatanoth":5465,"stones":5466,"Ġbell":5467,"Ġgap":5468,"oted":5469,"Ġstiff":5470,"Ġstock":5471,"Ġstayed":5472,"ades":5473,"Ġanxious":5474,"ĠSha":5475,"eler":5476,"isting":5477,"ussed":5478,"ĠWalker":5479,"ĠCthulhu":5480,"Ġshout":5481,"Ġliqu":5482,"Ġworm":5483,"open":5484,"ĠDon":5485,"ĠGer":5486,"Ġ_âĢľ":5487,"behind":5488,"Ġnights":5489,"Ġforming":5490,"Ġbackward":5491,"conv":5492,"Ġking":5493,"Ġcontained":5494,"Ġgoal":5495,"brought":5496,"Ġacute":5497,"Ġdetest":5498,"Ġbuzz":5499,"iah":5500,"imply":5501,"arris":5502,"rawled":5503,"overing":5504,"Ġfury":5505,"Ġsupposed":5506,"Ġleader":5507,"Ġwalking":5508,"!âĢĿ_":5509,"Ġpolic":5510,"Ġdrop":5511,"Ġbasement":5512,"Ġapproaching":5513,"Ġpersonal":5514,"Ġpersonality":5515,"Ġsatisf":5516,"Ġshortly":5517,"Ġreflect":5518,"althy":5519,"Ġsharply":5520,"Ġshrieking":5521,"Ġcrawled":5522,"Ġsubtly":5523,"ĠAbdul":5524,"Ġswept":5525,"walls":5526,"Ġtitanic":5527,"Ġfurniture":5528,"ĠUniversity":5529,"Ġdesperate":5530,"Ġvainly":5531,"Ġzo":5532,"Ġpenetr":5533,"Ġstrangeness":5534,"Ġechoes":5535,"Ġclutched":5536,"Ġcircumstance":5537,"Ġbirds":5538,"ulsive":5539,"Ġmonstros":5540,"Ġdizz":5541,"Ġhateful":5542,"Ġchimney":5543,"yramid":5544,"Ġlofty":5545,"Ġtightly":5546,"hatanothoa":5547,"Well":5548,"_âĢľ":5549,"aud":5550,"bber":5551,"bott":5552,"bbing":5553,"care":5554,"ded":5555,"egr":5556,"friend":5557,"familiar":5558,"hou":5559,"houses":5560,"tor":5561,"vas":5562,"Ġuttered":5563,"Ġwinter":5564,"eden":5565,"enough":5566,"Ġmer":5567,"Ġfra":5568,"Ġcam":5569,"Ġcrew":5570,"especially":5571,"Ġdazed":5572,"Ġdaughter":5573,"atives":5574,"Ġink":5575,"Ġpaid":5576,"Ġlun":5577,"Ġna":5578,"icient":5579,"storm":5580,"owly":5581,"Ġbeach":5582,"Ġthrew":5583,"Ġstout":5584,"etery":5585,"amm":5586,"Ġven":5587,"emetery":5588,"umble":5589,"Ġunable":5590,"ĠWal":5591,"ellent":5592,"igg":5593,"pton":5594,"Ġisol":5595,"rane":5596,"abol":5597,"ĠOctober":5598,"ĠNgranek":5599,"Ġdisord":5600,"ĠGu":5601,"Ġgrasp":5602,"Ġgrues":5603,"Ġshel":5604,"Ġperplex":5605,"ĠJuly":5606,"Ġslim":5607,"Ġ12":5608,"Ġcontents":5609,"Ġadmitted":5610,"Ġreported":5611,"Ġrealise":5612,"ampbell":5613,"appear":5614,"Ġchanges":5615,"Ġpresently":5616,"Ġskill":5617,"Ġlandscape":5618,"Ġplanned":5619,"rence":5620,"atching":5621,"Ġwilder":5622,"Ġsorts":5623,"ĠWeeden":5624,"Ġfaintly":5625,"Ġserved":5626,"Ġsolution":5627,"Ġsummit":5628,"Ġdrink":5629,"Ġfolklore":5630,"Ġbusy":5631,"Ġpriest":5632,"urban":5633,"Ġfreed":5634,"Ġfootprints":5635,"priest":5636,"Ġsimilar":5637,"standing":5638,"Ġimmem":5639,"Ġaccounts":5640,"Ġfeverish":5641,"Ġsuffered":5642,"Ġflee":5643,"Ġ176":5644,"Ġfearsome":5645,"nameless":5646,"Ġpulled":5647,"Ġpleasant":5648,"Ġsymbols":5649,"Ġaccompl":5650,"Ġresemblance":5651,"Ġemotions":5652,"Ġstupendous":5653,"Ġtrembling":5654,"Ġunmistakable":5655,"ĠSuydam":5656,"floor":5657,"Ġexhaust":5658,"Ġstagg":5659,"Ġdescription":5660,"Ġvistas":5661,"Ġecst":5662,"ospital":5663,"Ġgruesome":5664,"Cl":5665,"aa":5666,"avern":5667,"cis":5668,"circ":5669,"frag":5670,"gal":5671,"hour":5672,"ipp":5673,"post":5674,"possible":5675,"rm":5676,"rist":5677,"ritch":5678,"wond":5679,"ye":5680,"zt":5681,"Ġtension":5682,"Ġawe":5683,"inced":5684,"Ġoper":5685,"Ġwrigg":5686,"Ġshed":5687,"erred":5688,"happ":5689,"Ġbung":5690,"Ġbattle":5691,"Ġmuttered":5692,"Ġmakes":5693,"Ġcas":5694,"Ġcup":5695,"ingled":5696,"Ġder":5697,"asingly":5698,"Ġlake":5699,"omp":5700,"omy":5701,"Ġgall":5702,"sea":5703,"Ġwasn":5704,"Ġthreat":5705,"Ġrept":5706,"Ġreass":5707,"versed":5708,"ĠTillinghast":5709,"irch":5710,"Ġforty":5711,"Ġassured":5712,"throp":5713,"Ġatmosphere":5714,"ilities":5715,"odie":5716,"Ġrushed":5717,"quis":5718,"rait":5719,"Ġunpre":5720,"Ġunivers":5721,"Ġunbelie":5722,"ĠSometimes":5723,"loft":5724,"Ġallowed":5725,"Ġexec":5726,"Ġdeb":5727,"hants":5728,"above":5729,"rys":5730,"Ġdismal":5731,"Ġoverhead":5732,"Ġshare":5733,"Ġshared":5734,"ĠLondon":5735,"being":5736,"ciety":5737,"Ġperf":5738,"Ġflung":5739,"Ġobl":5740,"Ġobserv":5741,"reek":5742,"people":5743,"ordial":5744,"ivity":5745,"Ġhousehold":5746,"ĠYork":5747,"Ġusually":5748,"Ġeveryone":5749,"Ġchanting":5750,"ervation":5751,"Ġlanding":5752,"Ġplans":5753,"Ġsilhou":5754,"Ġinvolved":5755,"Ġintervals":5756,"Ġrig":5757,"Ġindividual":5758,"anything":5759,"Ġscreams":5760,"Ġclimbing":5761,"remem":5762,"Ġbesides":5763,"Ġcommand":5764,"window":5765,"Ġoccasionally":5766,"Ġhastened":5767,"ĠNothing":5768,"Ġgrowth":5769,"ĠAbout":5770,"odded":5771,"Ġvictims":5772,"Ġconcerned":5773,"Ġclothes":5774,"Ġgenuine":5775,"Ġdamnable":5776,"Ġcrossing":5777,"Ġnegro":5778,"Ġdangerous":5779,"Ġvapours":5780,"Ġpotent":5781,"Ġformulae":5782,"Ġtrembled":5783,"Ġfascination":5784,"Ġgranite":5785,"ĠElwood":5786,"ĠUpon":5787,"ĠLatin":5788,"Ġduty":5789,"ĠDunwich":5790,"Ġenergy":5791,";_":5792,"bul":5793,"both":5794,"bury":5795,"eal":5796,"either":5797,"four":5798,"field":5799,"grave":5800,"green":5801,"iant":5802,"iences":5803,"len":5804,"lab":5805,"pa":5806,"pest":5807,"say":5808,"sun":5809,"wa":5810,"hest":5811,"Ġarose":5812,"Ġsection":5813,"ndike":5814,"Ġbub":5815,"Ġmounting":5816,"inger":5817,"escri":5818,"atew":5819,"Ġpinn":5820,"âĢĵ":5821,"Ġliter":5822,"lets":5823,"alow":5824,"Ġbeating":5825,"Ġgal":5826,"Ġgates":5827,"otion":5828,"ĠTown":5829,"Ġascent":5830,"Ġassemb":5831,"theast":5832,"Ġmyri":5833,"choked":5834,"ĠAd":5835,"Ġraid":5836,"Ġramb":5837,"ĠHarris":5838,"ouring":5839,"ĠWho":5840,"ĠCor":5841,"ĠCity":5842,"ĠCelephaÃ¯s":5843,"ĠMountain":5844,"Ġoutward":5845,"Ġshivered":5846,"Ġsaf":5847,"Ġweed":5848,"ections":5849,"Ġarched":5850,"ĠGr":5851,"plane":5852,"Ġclam":5853,"Ġmadman":5854,"Ġjung":5855,"olded":5856,"Ġotherwise":5857,"igny":5858,"phin":5859,"Ġobliv":5860,"ĠInganok":5861,"Ġpreced":5862,"Ġkin":5863,"ordingly":5864,"ordinary":5865,"Ġmonolith":5866,"gram":5867,"Ġaccustomed":5868,"Ġnewly":5869,"Ġearthly":5870,"orship":5871,"Ġworking":5872,"Ġcaut":5873,"soon":5874,"Ġsmaller":5875,"Ġphilosop":5876,"ĠAtal":5877,"engu":5878,"engarde":5879,"ĠVan":5880,"rews":5881,"arently":5882,"Ġtempor":5883,"Ġgenerations":5884,"Ġserious":5885,"Ġinsidious":5886,"Ġcloudy":5887,"Ġedifice":5888,"Ġaffected":5889,"Ġtransl":5890,"Ġundoubtedly":5891,"Ġglassy":5892,"Ġcircular":5893,"Ġorgans":5894,"ĠGeorge":5895,"addith":5896,"view":5897,"Ġarchitect":5898,"ĠNorth":5899,"became":5900,"Ġvolume":5901,"attleboro":5902,"Ġsurprise":5903,"Ġhurt":5904,"Ġteeth":5905,"Ġefforts":5906,"arnath":5907,"Ġtangible":5908,"Ġvalue":5909,"Ġlantern":5910,"Ġsteadily":5911,"Ġsurviv":5912,"Ġtremendous":5913,"Ġbirth":5914,"Ġmocking":5915,"uggoth":5916,"---":5917,"large":5918,"ĠWheeler":5919,"Ġwelcome":5920,"Ġcustom":5921,"Ġsuspicion":5922,"Ġemplo":5923,"Ġsummoned":5924,"Ġpositive":5925,"rmengarde":5926,"bb":5927,"bus":5928,"city":5929,"cry":5930,"covered":5931,"fr":5932,"hns":5933,"iers":5934,"lished":5935,"mis":5936,"mess":5937,"oes":5938,"poss":5939,"pany":5940,"uish":5941,"Ġtro":5942,"Ġol":5943,"ero":5944,"Ġbi":5945,"orious":5946,"isingly":5947,"Ġdance":5948,"Ġdouble":5949,"athing":5950,"Ġpay":5951,"Ġpage":5952,"Ġpile":5953,"Ġluck":5954,"Ġnether":5955,"Ġhus":5956,"icine":5957,"acon":5958,"acial":5959,"idents":5960,"riage":5961,"iron":5962,"Ġanomal":5963,"ĠAcc":5964,"Ġsullen":5965,"ques":5966,"umph":5967,"ĠSl":5968,"ĠSat":5969,"ĠSarnath":5970,"ourt":5971,"Ġspr":5972,"ĠCan":5973,"ĠMus":5974,"Ġnoxious":5975,"Ġsailed":5976,"abodie":5977,"udo":5978,"arer":5979,"oping":5980,"Ġproject":5981,"ĠNever":5982,"Ġdisgust":5983,"aths":5984,"Ġshaking":5985,"ogg":5986,"Ġjest":5987,"Ġjagged":5988,"Ġbrink":5989,"ĠLong":5990,"Ġglist":5991,"forg":5992,"Ġrecoll":5993,"Ġboys":5994,"alking":5995,"gedy":5996,"conf":5997,"attering":5998,"integr":5999,"Ġchose":6000,"Ġchuck":6001,"Ġcontent":6002,"Ġattitude":6003,"Ġcarry":6004,"Ġreplied":6005,"Ġdecor":6006,"amped":6007,"Ġresist":6008,"Ġwrit":6009,"Ġcalling":6010,"Ġhillside":6011,"Ġpersistent":6012,"Ġplanes":6013,"Ġfinished":6014,"Ġspeaking":6015,"Ġextravag":6016,"should":6017,"elebr":6018,"Ġwildest":6019,"probably":6020,"Ġsqual":6021,"Ġserve":6022,"Ġcontinu":6023,"Ġcharge":6024,"Ġviewed":6025,"Ġreturning":6026,"Ġcryptical":6027,"Ġinclined":6028,"Ġcountryside":6029,"Ġlurked":6030,"Ġexamined":6031,"Ġafar":6032,"Ġcrawl":6033,"Ġsacred":6034,"earthly":6035,"Ġangle":6036,"Ġgroups":6037,"Ġgenius":6038,"Ġgleaming":6039,"Ġsending":6040,"Ġvalise":6041,"Ġsurvived":6042,"Ġprecise":6043,"Ġcompanions":6044,"Ġpattern":6045,"Ġreluctant":6046,"Ġsacrifices":6047,"Ġdigging":6048,"Ġthoroughly":6049,"Ġexplanation":6050,"Ġplunged":6051,"ĠVermont":6052,"ĠSophie":6053,"Ġinstruments":6054,"Ġzeal":6055,"Ġimmemorial":6056,"phinx":6057,"Ward":6058,"bod":6059,"bits":6060,"find":6061,"fear":6062,"felt":6063,"list":6064,"lant":6065,"morning":6066,"rum":6067,"ration":6068,"sin":6069,"sim":6070,"tri":6071,"turned":6072,"whe":6073,"xim":6074,"Ġ8":6075,"Ġtechn":6076,"Ġwid":6077,"Ġben":6078,"Ġcrag":6079,"Ġcelebr":6080,"orical":6081,"Ġdu":6082,"Ġdense":6083,"Ġdug":6084,"Ġpounding":6085,"Ġlav":6086,"Ġhom":6087,"stri":6088,"alities":6089,"Ġbend":6090,"Ġgain":6091,"Ġgasp":6092,"Ġresc":6093,"Ġreared":6094,"Ġreaching":6095,"Ġwholesome":6096,"etic":6097,"âĢĶâĢĿ":6098,"rig":6099,"ira":6100,"Ġashes":6101,"Ġasleep":6102,"ores":6103,"ulu":6104,"emic":6105,"iform":6106,"quite":6107,"Ġunre":6108,"ĠSphinx":6109,"estone":6110,"ourn":6111,"Ġabroad":6112,"antage":6113,"Ġsold":6114,"ptember":6115,"ranean":6116,"Ġweather":6117,"ĠBet":6118,"cking":6119,"udrey":6120,"opened":6121,"Ġlog":6122,"Ġquaint":6123,"ĠPres":6124,"Ġproceeded":6125,"These":6126,"Ġclaws":6127,"Ġclaim":6128,"ĠElder":6129,"Ġglare":6130,"Ġenvelo":6131,"spir":6132,"spread":6133,"Ġtwice":6134,"Ġhowl":6135,"deep":6136,"devil":6137,"Ġbecoming":6138,"Ġterrestrial":6139,"Ġ10":6140,"Ġimpulse":6141,"Ġoffer":6142,"interest":6143,"Ġintens":6144,"Ġentering":6145,"ĠKuranes":6146,"Ġrepellent":6147,"Ġsket":6148,"Ġvoy":6149,"Ġphr":6150,"elessly":6151,"Ġviolet":6152,"Ġwonders":6153,"Ġspecies":6154,"Ġsights":6155,"Ġextended":6156,"ĠAny":6157,"ĠAnother":6158,"Ġpolished":6159,"Ġfrantically":6160,"Ġcrest":6161,"Ġcreaking":6162,"ĠJohan":6163,"Ġheavily":6164,"Ġuncertain":6165,"Ġfourth":6166,"Ġterrors":6167,"shew":6168,"Ġlimited":6169,"Ġmeanwhile":6170,"Ġfamiliarity":6171,"Ġmistake":6172,"Ġrecognise":6173,"small":6174,"Ġcaptain":6175,"Ġmassive":6176,"Ġequal":6177,"Ġordered":6178,"Ġbeautiful":6179,"namable":6180,"Ġsoftly":6181,"Ġcatac":6182,"Ġthousands":6183,"Ġdistinctly":6184,"Ġbleak":6185,"Ġhurried":6186,"Ġpropert":6187,"Ġdamnably":6188,"Ġtraveller":6189,"Ġquarters":6190,"Ġroughly":6191,"Ġ1928":6192,"Ġcopy":6193,"Ġmathem":6194,"ĠIsland":6195,"Ġunmistakably":6196,"Ġhonour":6197,"Ġyawned":6198,"Ġdisappearance":6199,"Ġmurder":6200,"Ġrailway":6201,"historic":6202,"ĠPeople":6203,"Ġdelirium":6204,"Ġsorry":6205,"ointment":6206,"Ġeldritch":6207,"Ġapparatus":6208,"Ġzoogs":6209,"remembered":6210,"Curwen":6211,"Eng":6212,"Not":6213,"Soth":6214,"To":6215,"bal":6216,"cast":6217,"cond":6218,"full":6219,"fact":6220,"iation":6221,"iries":6222,"jud":6223,"kward":6224,"kins":6225,"kai":6226,"lor":6227,"ma":6228,"ris":6229,"vague":6230,"west":6231,"zied":6232,"zai":6233,"Ġtide":6234,"Ġtaught":6235,"heav":6236,"iner":6237,"Ġtheories":6238,"Ġwine":6239,"Ġwinged":6240,"Ġwizard":6241,"Ġsardonic":6242,"Ġmut":6243,"esides":6244,"arches":6245,"ashes":6246,"Ġinsp":6247,"Ġlain":6248,"Ġhit":6249,"Ġhide":6250,"icle":6251,"Ġhated":6252,"Ġgently":6253,"Ġgib":6254,"Ġstare":6255,"âĢĻ,":6256,"âĢĻ.":6257,"irl":6258,"Ġvalleys":6259,"Ġrud":6260,"Ġsuspect":6261,"Ġsuitable":6262,"Ġunwholesome":6263,"ĠSw":6264,"ĠSlater":6265,"Ġsprang":6266,"Ġexcell":6267,"ĠWhere":6268,"ĠCertainly":6269,"ĠCampbell":6270,"ption":6271,"ĠBirch":6272,"Ġsomeone":6273,"liked":6274,"âĢĿâĢĶ":6275,"ĠPar":6276,"ĠGhatanothoa":6277,"Ġshaken":6278,"Ġthrown":6279,"mention":6280,"ĠLet":6281,"beasts":6282,"Ġnighted":6283,"space":6284,"endent":6285,"Ġperform":6286,"Ġflu":6287,"Ġarea":6288,"Ġsmile":6289,"conn":6290,"ultane":6291,"Ġsecured":6292,"Ġintact":6293,"Ġrealms":6294,"Ġaccept":6295,"Ġresumed":6296,"Ġchambers":6297,"lighted":6298,"Ġfooth":6299,"ugs":6300,"keness":6301,"ienced":6302,"Ġtemper":6303,"Ġwarned":6304,"Ġcontinuous":6305,"Ġdrift":6306,"Ġvaried":6307,"Ġnorthward":6308,"Ġtorches":6309,"Ġverd":6310,"Ġportal":6311,"Ġbodily":6312,"Ġmedicine":6313,"Ġhybrid":6314,"rabona":6315,"Ġimmense":6316,"Ġservice":6317,"young":6318,"Ġhaste":6319,"III":6320,"Ġfashioned":6321,"Ġancestors":6322,"Ġstirred":6323,"Ġstirring":6324,"Ġidi":6325,"Ġradiance":6326,"Ġlovely":6327,"Ġintellect":6328,"Ġcapable":6329,"Ġsteady":6330,"Ġvapour":6331,"Ġformula":6332,"Ġrepresent":6333,"Ġcandles":6334,"Ġhotel":6335,"Ġdeclared":6336,"Ġdecadent":6337,"Ġgraves":6338,"Ġignorance":6339,"Ġpallid":6340,"Ġbranches":6341,"Ġdisquieting":6342,"Ġmessenger":6343,"moment":6344,"Ġutmost":6345,"Ġportentous":6346,"Ġmaddening":6347,"ĠGerman":6348,"Ġfreedom":6349,"escribable":6350,"ateway":6351,"God":6352,"Leen":6353,"Man":6354,"Once":6355,"bited":6356,"cence":6357,"fac":6358,"five":6359,"gold":6360,"iance":6361,"lin":6362,"lay":6363,"matter":6364,"material":6365,"opp":6366,"sometimes":6367,"take":6368,"toward":6369,"uel":6370,"hemy":6371,"rene":6372,"Ġsen":6373,"Ġshat":6374,"Ġsid":6375,"Ġscept":6376,"Ġband":6377,"Ġbits":6378,"itution":6379,"esthe":6380,"Ġtoad":6381,"Ġinward":6382,"Ġinspect":6383,"Ġpist":6384,"Ġpitch":6385,"Ġpengu":6386,"Ġlose":6387,"Ġnin":6388,"Ġbeams":6389,"Ġef":6390,"Ġthou":6391,"acled":6392,"vere":6393,"Ġreef":6394,"Ġwhist":6395,"Ġrat":6396,"ĠSc":6397,"ĠHar":6398,"Ġspires":6399,"Ġabaout":6400,"unct":6401,"antel":6402,"took":6403,"ĠCon":6404,"ĠCount":6405,"hanted":6406,"Ġkne":6407,"Ġisn":6408,"rancis":6409,"oped":6410,"Ġarranged":6411,"asses":6412,"plan":6413,"Ġtraced":6414,"ĠEast":6415,"Ġglowing":6416,"Ġperman":6417,"phys":6418,"Ġcurved":6419,"Ġherself":6420,"Ġhowling":6421,"Ġdistorted":6422,"Ġ11":6423,"Ġevident":6424,"Ġattack":6425,"noticed":6426,"Ġsurviving":6427,"Ġeverybody":6428,"ĠKe":6429,"enefit":6430,"Ġgugs":6431,"itional":6432,"iped":6433,"Ġretic":6434,"Ġchap":6435,"Ġcaves":6436,"cloud":6437,"Ġnaturally":6438,"ĠThings":6439,"comm":6440,"version":6441,"Ġstudying":6442,"Ġsunlight":6443,"Ġcompar":6444,"Ġdepos":6445,"shock":6446,"century":6447,"Ġforehead":6448,"Ġfurry":6449,"Ġpurple":6450,"Ġabsent":6451,"Ġvillages":6452,"Ġrocky":6453,"Ġuseless":6454,"ylath":6455,"Ġplains":6456,"Ġcolle":6457,"Ġimagined":6458,"Ġdoubtless":6459,"Ġminor":6460,"hoof":6461,"Ġcircles":6462,"Ġfellows":6463,"Ġsouls":6464,"Ġstartling":6465,"aunt":6466,"Ġpromised":6467,"Ġconstant":6468,"whole":6469,"Ġeffects":6470,"Ġabnormality":6471,"Ġbreathing":6472,"Ġsearching":6473,"Ġrumour":6474,"Ġbringing":6475,"umping":6476,"present":6477,"ĠJohnny":6478,"Ġwestward":6479,"Ġmeeting":6480,"Ġstriking":6481,"second":6482,"Ġwandered":6483,"Ġlinked":6484,"Ġshuddering":6485,"Street":6486,"Ġslipped":6487,"Ġunfamiliar":6488,"Ġarrived":6489,"Ġlanes":6490,"Ġjudge":6491,"Ġbridges":6492,"Ġaccompan":6493,"ĠMarigny":6494,"Ġcandle":6495,"Ġlingered":6496,"Ġlouder":6497,"Ġfrenzy":6498,"Ġrevolver":6499,"Ġsouthern":6500,"Ġsuperstitious":6501,"Ġvirtually":6502,"averns":6503,"Ġsongs":6504,"ĠMexico":6505,"Ġcobwe":6506,"anderhoof":6507,"Ġtroubled":6508,"ĠBrattleboro":6509,"Ġshifting":6510,"pulch":6511,"Ġglimpses":6512,"Ġstaggered":6513,"Ġsafety":6514,"How":6515,"Pro":6516,"eight":6517,"fire":6518,"iate":6519,"oor":6520,"sat":6521,"sum":6522,"vast":6523,"wit":6524,"whel":6525,"yog":6526,"Ġing":6527,"Ġtal":6528,"Ġtur":6529,"Ġtap":6530,"Ġtense":6531,"inel":6532,"inner":6533,"Ġobe":6534,"Ġomn":6535,"Ġwre":6536,"haz":6537,"ederal":6538,"Ġbird":6539,"Ġmoney":6540,"Ġcouch":6541,"esse":6542,"ester":6543,"armed":6544,"Ġdressed":6545,"Ġdomes":6546,"asters":6547,"lling":6548,"Ġpse":6549,"Ġpad":6550,"Ġpave":6551,"Ġpaw":6552,"Ġpages":6553,"stained":6554,"alo":6555,"alos":6556,"always":6557,"Ġbeck":6558,"Ġgazing":6559,"sequent":6560,"imin":6561,"acent":6562,"idences":6563,"Ġrend":6564,"Ġrestr":6565,"Ġwhit":6566,"ado":6567,"adv":6568,"ady":6569,"ĠTre":6570,"eck":6571,"essors":6572,"Ġsevent":6573,"ulg":6574,"emen":6575,"eming":6576,"Ġunaccount":6577,"Ġspheres":6578,"unis":6579,"unning":6580,"ĠCha":6581,"agle":6582,"Ġmaniac":6583,"Ġweeds":6584,"ĠBell":6585,"Ġlives":6586,"ortal":6587,"Ġneat":6588,"opled":6589,"arts":6590,"ĠPn":6591,"Ġprobable":6592,"ĠGreek":6593,"Ġclum":6594,"ccent":6595,"Ġtrust":6596,"Ġdespair":6597,"Ġthroughout":6598,"ovember":6599,"Ġenv":6600,"exter":6601,"othic":6602,"Ġsmiled":6603,"Ġdreamland":6604,"Ġimpro":6605,"Ġimplied":6606,"Ġcontrol":6607,"ĠYuggoth":6608,"grant":6609,"Ġunderstood":6610,"ĠKey":6611,"Ġexpert":6612,"Ġdecipher":6613,"angible":6614,"Ġcoarse":6615,"Ġdiscern":6616,"Ġsetting":6617,"Ġpossess":6618,"ibilities":6619,"queer":6620,"Ġvibr":6621,"ĠThree":6622,"Ġfoc":6623,"sued":6624,"Ġdeparted":6625,"Ġrift":6626,"Ġdoubly":6627,"entional":6628,"Ġsnapped":6629,"Ġelabor":6630,"closed":6631,"Ġtragedy":6632,"Ġframe":6633,"despite":6634,"Ġundert":6635,"glimp":6636,"ĠSoon":6637,"ĠProbably":6638,"pointed":6639,"Ġhoary":6640,"Ġguessed":6641,"recy":6642,"Ġnervously":6643,"Ġbulging":6644,"atheg":6645,"Ġgrove":6646,"Ġlurk":6647,"ĠBlack":6648,"Ġblasphemy":6649,"ĠNorrys":6650,"Ġhighest":6651,"Ġattempts":6652,"Ġdirections":6653,"Ġsurprised":6654,"secret":6655,"between":6656,"ĠChrist":6657,"Ġwhispering":6658,"Ġmumm":6659,"Ġdrawing":6660,"Ġdoesn":6661,"Ġdesperately":6662,"Ġarrival":6663,"Ġstreams":6664,"Ġventure":6665,"Ġdisplayed":6666,"ixture":6667,"person":6668,"Ġtentacles":6669,"Ġscramb":6670,"Ġinquiries":6671,"Ġspeculations":6672,"Ġcircumstances":6673,"Ġfrenzied":6674,"Ġmeasure":6675,"Ġphotographs":6676,"orphous":6677,"ĠSpanish":6678,"Ġhypnot":6679,"About":6680,"grandfather":6681,"Ġcolonial":6682,"uspected":6683,"Ġnumbers":6684,"Ġtypical":6685,"Ġshantak":6686,"utchins":6687,"Ġchiselled":6688,"Ġmonoton":6689,"ĠThorndike":6690,"Ġslimy":6691,"Clarendon":6692,"Ġbungalow":6693,"Ġunbelievable":6694,"Ġmyriad":6695,"Ġoblivion":6696,"ĠMusides":6697,"Sothoth":6698,"Ġfoothills":6699,"Ġpseudo":6700,"?_":6701,"Charles":6702,"Geor":6703,"ING":6704,"Old":6705,"akness":6706,"cut":6707,"cous":6708,"cop":6709,"count":6710,"fast":6711,"fish":6712,"joy":6713,"nings":6714,"oz":6715,"ointed":6716,"path":6717,"pared":6718,"piece":6719,"tha":6720,"table":6721,"vest":6722,"went":6723,"words":6724,"Ġ6":6725,"Ġtorn":6726,"reached":6727,"Ġsinking":6728,"Ġsimply":6729,"eries":6730,"haunted":6731,"Ġmild":6732,"Ġmatch":6733,"Ġmurd":6734,"Ġfru":6735,"Ġfanc":6736,"Ġfrank":6737,"Ġfainted":6738,"Ġcemetery":6739,"orrow":6740,"Ġdank":6741,"asure":6742,"ana":6743,"lled":6744,"Ġinj":6745,"Ġinconceivable":6746,"Ġpack":6747,"Ġpenc":6748,"Ġlod":6749,"Ġnur":6750,"Ġhospital":6751,"Ġhath":6752,"alden":6753,"Ġeccent":6754,"Ġheap":6755,"erers":6756,"adok":6757,"ircle":6758,"Ġseet":6759,"child":6760,"Ġvort":6761,"Ġramp":6762,"Ġunutter":6763,"Ġunlocked":6764,"ĠSqu":6765,"elve":6766,"Ġspare":6767,"Ġspark":6768,"Ġsphere":6769,"Ġexcl":6770,"ĠCal":6771,"Ġdeaf":6772,"Ġalc":6773,"ptic":6774,"Ġshow":6775,"Ġsaved":6776,"Ġplenty":6777,"ĠBel":6778,"Ġloved":6779,"ĠDob":6780,"Ġprospect":6781,"Ġscar":6782,"ĠGrey":6783,"Ġoverwhel":6784,"ĠFirst":6785,"ĠRh":6786,"Ġhorde":6787,"scream":6788,"Ġpermitted":6789,"Ġflowers":6790,"rupted":6791,"olly":6792,"hens":6793,"Ġprime":6794,"Ġdistr":6795,"Ġpeaked":6796,"Ġdoorways":6797,"ĠAndrews":6798,"Ġcontaining":6799,"ĠYaddith":6800,"ĠYalden":6801,"Ġcarrying":6802,"mbling":6803,"Ġtriumph":6804,"Ġfloating":6805,"Ġharder":6806,"tyard":6807,"ification":6808,"Ġpossession":6809,"Ġawaken":6810,"Ġstricken":6811,"obody":6812,"coming":6813,"Ġmeteor":6814,"Ġcoloured":6815,"Ġcolumn":6816,"Ġquestioned":6817,"Ġadvice":6818,"Ġserpent":6819,"Ġcreeping":6820,"Ġenchanted":6821,"Ġpresented":6822,"Ġbasis":6823,"normal":6824,"Ġboyhood":6825,"Ġparall":6826,"point":6827,"Ġhalluc":6828,"Ġlimbs":6829,"Ġprepar":6830,"incre":6831,"Ġbrill":6832,"Ġbottles":6833,"Ġservant":6834,"Ġhastily":6835,"Ġhaunting":6836,"Ġshrieked":6837,"Ġviolent":6838,"Ġmerchants":6839,"Ġjoin":6840,"Ġstatues":6841,"Ġexpectancy":6842,"Ġwaning":6843,"Ġfifteen":6844,"Ġblasphemies":6845,"Ġsignificant":6846,"passed":6847,"change":6848,"against":6849,"cellar":6850,"Ġrattling":6851,"Ġmonsters":6852,"Ġbelonged":6853,"Ġfiendish":6854,"Ġapartment":6855,"trans":6856,"Ġfungi":6857,"Ġscholar":6858,"Ġreverber":6859,"Ġphosphorescence":6860,"dimensional":6861,"Ġfoetid":6862,"Ġgathering":6863,"ĠSilver":6864,"Ġproportion":6865,"Ġmethods":6866,"Ġdisease":6867,"building":6868,"Ġreminded":6869,"Ġmajor":6870,"Ġskeleton":6871,"Ġnauseous":6872,"Ġlabyrinth":6873,"signific":6874,"Ġgossip":6875,"Ġdoctors":6876,"quisite":6877,"Ġduplic":6878,"Here":6879,"Just":6880,"aur":6881,"bon":6882,"bri":6883,"bound":6884,"chen":6885,"dest":6886,"fre":6887,"fare":6888,"filled":6889,"iated":6890,"past":6891,"sn":6892,"same":6893,"suddenly":6894,"tal":6895,"Ġ|":6896,"Ġtough":6897,"Ġtended":6898,"rele":6899,"Ġwo":6900,"Ġwed":6901,"Ġsister":6902,"erned":6903,"Ġban":6904,"Ġbother":6905,"Ġbord":6906,"Ġbands":6907,"Ġmounted":6908,"Ġmingled":6909,"Ġcot":6910,"Ġcourage":6911,"Ġcubes":6912,"itchen":6913,"ision":6914,"Ġdanced":6915,"asi":6916,"Ġinland":6917,"Ġinhuman":6918,"Ġlon":6919,"icians":6920,"lyeh":6921,"legend":6922,"Ġbeam":6923,"otto":6924,"uts":6925,"Ġthirst":6926,"Ġreasons":6927,"urous":6928,"vert":6929,"verns":6930,"âĢĻ-":6931,"ĠTem":6932,"ĠTulu":6933,"Ġanx":6934,"Ġatop":6935,"Ġseam":6936,"Ġseiz":6937,"kempt":6938,"ĠApp":6939,"ĠAudrey":6940,"Ġvener":6941,"ements":6942,"Ġrank":6943,"Ġrisen":6944,"umbed":6945,"Ġunexpl":6946,"Ġunpleasant":6947,"resent":6948,"ĠHave":6949,"ĠHatheg":6950,"istently":6951,"Ġsparse":6952,"Ġalley":6953,"Ġexter":6954,"Ġexhib":6955,"ĠCol":6956,"ĠChar":6957,"ĠMem":6958,"ĠMeanwhile":6959,"igger":6960,"vening":6961,"agr":6962,"Ġshouted":6963,"Ġleering":6964,"ĠBesides":6965,"Ġdoc":6966,"ĠOri":6967,"Ġliked":6968,"Ġlikeness":6969,"therly":6970,"Ġblow":6971,"Ġbluish":6972,"Ġloathing":6973,"ĠDylath":6974,"ĠPort":6975,"ĠPabodie":6976,"athom":6977,"Ġcompl":6978,"Ġshake":6979,"Ġshaped":6980,"pering":6981,"Ġshell":6982,"Ġdesk":6983,"ĠFrank":6984,"Ġglittering":6985,"Ġdownstairs":6986,"ignity":6987,"fulness":6988,"Ġpron":6989,"Ġremot":6990,"Ġslave":6991,"oths":6992,"Ġgreet":6993,"Ġhanded":6994,"Ġhandwriting":6995,"Ġevolution":6996,"Ġattract":6997,"Ġopin":6998,"Ġcrack":6999,"Ġcrushed":7000,"Ġtrifle":7001,"Ġdarkly":7002,"Ġadj":7003,"strong":7004,"Ġexpress":7005,"cedented":7006,"Ġguest":7007,"Ġguided":7008,"Ġchant":7009,"Ġpresum":7010,"Ġwrought":7011,"Ġregard":7012,"Ġskin":7013,"Ġcaverns":7014,"Ġcleared":7015,"Ġaware":7016,"Ġmarine":7017,"Ġdoubted":7018,"Ġobjective":7019,"Ġinduced":7020,"proport":7021,"flict":7022,"ugged":7023,"Ġelements":7024,"Ġleaders":7025,"Ġsymp":7026,"Ġ193":7027,"Ġdripping":7028,"cox":7029,"Ġvisitor":7030,"Ġportrait":7031,"ambrel":7032,"Ġwidely":7033,"abouts":7034,"visions":7035,"visible":7036,"Ġfireplace":7037,"Ġvaults":7038,"Ġcaptive":7039,"Ġcalcul":7040,"Ġgroves":7041,"access":7042,"Ġconvinced":7043,"Ġdusty":7044,"respons":7045,"Ġconcealed":7046,"ĠSea":7047,"ĠSeptember":7048,"Ġstatue":7049,"urdy":7050,"Ġentirely":7051,"Ġwandering":7052,"Ġpitiful":7053,"Ġdenizens":7054,"Ġtravellers":7055,"hallowed":7056,"Ġventured":7057,"Ġstruggle":7058,"hillips":7059,"falls":7060,"Ġgentleman":7061,"Ġauthority":7062,"Ġrattled":7063,"Ġdizzy":7064,"Ġpsychological":7065,"Ġresearch":7066,"Ġsubterranean":7067,"Ġswaying":7068,"Ġuneas":7069,"Ġdesolation":7070,"Ġfrozen":7071,"Ġgarret":7072,"Ġterrific":7073,"Ġenemy":7074,"Ġstolen":7075,"necess":7076,"Ġdetestable":7077,"Ġdisordered":7078,"Ġhusband":7079,"Ġexcellent":7080,"!âĢĶ":7081,"Am":7082,"Bl":7083,"IV":7084,"ON":7085,"Some":7086,"Suddenly":7087,"breat":7088,"cre":7089,"corn":7090,"cosm":7091,"don":7092,"dri":7093,"darkness":7094,"fab":7095,"hort":7096,"iary":7097,"ki":7098,"pol":7099,"peculiar":7100,"phant":7101,"sue":7102,"wing":7103,"yes":7104,"Ġtones":7105,"heph":7106,"Ġaloft":7107,"Ġoil":7108,"Ġwra":7109,"Ġsom":7110,"Ġsink":7111,"erd":7112,"hable":7113,"Ġbaying":7114,"Ġmutter":7115,"Ġmuttering":7116,"Ġfumbling":7117,"Ġcults":7118,"oner":7119,"onograph":7120,"ingy":7121,"itan":7122,"escap":7123,"ora":7124,"archa":7125,"Ġdancing":7126,"asants":7127,"atically":7128,"aturally":7129,"Ġla":7130,"Ġlined":7131,"Ġnu":7132,"Ġnodded":7133,"Ġhudd":7134,"Ġhushed":7135,"icious":7136,"ĠIm":7137,"lear":7138,"street":7139,"Ġga":7140,"Ġgirl":7141,"Ġgateway":7142,"Ġethere":7143,"Ġthread":7144,"Ġthither":7145,"acity":7146,"Ġreward":7147,"Ġrelie":7148,"Ġstim":7149,"Ġstages":7150,"ĠTime":7151,"ĠTwo":7152,"ousand":7153,"Ġseason":7154,"Ġsepulch":7155,"ilian":7156,"ĠAira":7157,"Ġroused":7158,"Ġsuit":7159,"quarter":7160,"Ġmead":7161,"ppery":7162,"ĠHal":7163,"ellig":7164,"ĠCourt":7165,"ĠMiss":7166,"Ġsoot":7167,"Ġplaying":7168,"ĠOrabona":7169,"oph":7170,"living":7171,"ĠDid":7172,"ĠDevil":7173,"aph":7174,"Ġscri":7175,"Ġanybody":7176,"ĠGate":7177,"ĠGood":7178,"Ġclung":7179,"urns":7180,"arked":7181,"Ġmadly":7182,"ograp":7183,"inex":7184,"peri":7185,"ĠEs":7186,"Ġjoy":7187,"beaut":7188,"cience":7189,"force":7190,"forms":7191,"Ġpercept":7192,"Ġsecrecy":7193,"Ġcontain":7194,"ivably":7195,"Ġvisits":7196,"myself":7197,"Ġchain":7198,"Ġvocal":7199,"Ġstepped":7200,"Ġawkward":7201,"Ġplanets":7202,"Ġrestore":7203,"Ġcorrect":7204,"Ġspecific":7205,"Ġfamous":7206,"Ġstudents":7207,"suff":7208,"Ġsunk":7209,"Ġsunken":7210,"Ġextensive":7211,"Ġburial":7212,"Ġdaown":7213,"Ġvastly":7214,"Ġdevices":7215,"Ġshallow":7216,"Ġpurcha":7217,"Ġwindowless":7218,"Ġeleven":7219,"Ġwooded":7220,"Ġwalks":7221,"Ġlearning":7222,"Ġcontinue":7223,"Ġinsisted":7224,"ĠWilliam":7225,"doors":7226,"Ġimaginative":7227,"Ġ190":7228,"Ġconnect":7229,"Ġwatchers":7230,"hole":7231,"Ġassist":7232,"Ġrecorded":7233,"uddy":7234,"voice":7235,"pecial":7236,"Ġhoarse":7237,"Ġodours":7238,"incred":7239,"Ġperiods":7240,"bitants":7241,"Ġcorners":7242,"Ġexample":7243,"Ġheights":7244,"Ġtombs":7245,"Ġlevels":7246,"Ġfutile":7247,"Ġmerchant":7248,"Ġproduct":7249,"Ġridic":7250,"Ġancestor":7251,"ĠChurch":7252,"Ġpuzzling":7253,"board":7254,"Ġtangle":7255,"Ġgarden":7256,"Ġprofoundly":7257,"Ġantiquarian":7258,"ĠCompton":7259,"Ġinvestigation":7260,"Ġpressure":7261,"effect":7262,"Ġconcluded":7263,"Ġpursuit":7264,"Ġfitted":7265,"Ġknocked":7266,"Ġboldly":7267,"cipal":7268,"ĠBarzai":7269,"Ġrolled":7270,"Ġterraces":7271,"Ġsurrounding":7272,"Ġdestroy":7273,"frightful":7274,"Ġbewildered":7275,"Ġignorant":7276,"Ġprayers":7277,"everything":7278,"Ġphase":7279,"Ġphases":7280,"different":7281,"Ġpopular":7282,"Ġfavour":7283,"Ġexchange":7284,"Ġmarvels":7285,"Ġfalse":7286,"Ġbattery":7287,"ĠSabbat":7288,"fantastic":7289,"keeper":7290,"Ġshelter":7291,"Ġunprecedented":7292,"Ġbubb":7293,"Ġjungle":7294,"forgotten":7295,"Ġsqualid":7296,"ĠJohansen":7297,"hazred":7298,"utchinson":7299,"Ġeccentric":7300,"Ġethereal":7301,"Every":7302,"Ind":7303,"Later":7304,"Zamacona":7305,"bore":7306,"crown":7307,"fash":7308,"good":7309,"ij":7310,"ker":7311,"may":7312,"sense":7313,"tra":7314,"uk":7315,"viously":7316,"wic":7317,"yle":7318,"Ã¡":7319,"Ġtel":7320,"Ġtear":7321,"Ġtired":7322,"Ġaur":7323,"Ġachie":7324,"inwall":7325,"rete":7326,"Ġwake":7327,"enn":7328,"Ġbat":7329,"Ġbought":7330,"Ġbog":7331,"Ġment":7332,"esc":7333,"isable":7334,"isms":7335,"arth":7336,"Ġdingy":7337,"Ġinscript":7338,"Ġpadd":7339,"Ġnit":7340,"story":7341,"sequently":7342,"utt":7343,"Ġthy":7344,"acts":7345,"Ġreanim":7346,"urity":7347,"urance":7348,"etted":7349,"ithing":7350,"among":7351,"ĠTan":7352,"rie":7353,"Ġank":7354,"thed":7355,"esses":7356,"thro":7357,"ulars":7358,"Ġvon":7359,"Ġvest":7360,"Ġyards":7361,"olent":7362,"Ġrate":7363,"Ġrang":7364,"Ġmeat":7365,"Ġunlo":7366,"Ġunimag":7367,"Ġunearthly":7368,"Ġunkempt":7369,"ĠSte":7370,"ĠSince":7371,"ĠSuddenly":7372,"ĠHy":7373,"usc":7374,"Ġalleys":7375,"ĠWell":7376,"Ġabys":7377,"Ġabode":7378,"unc":7379,"unction":7380,"erson":7381,"ĠCar":7382,"ĠCle":7383,"ĠCong":7384,"ĠMain":7385,"Ġaltern":7386,"agging":7387,"agger":7388,"Ġknife":7389,"Ġshru":7390,"Ġweight":7391,"Ġweakness":7392,"ĠBook":7393,"akotic":7394,"ĠOver":7395,"Ġworship":7396,"Ġarrest":7397,"Ġarray":7398,"Ġblasted":7399,"ĠDuring":7400,"ĠDexter":7401,"ĠPh":7402,"ĠPhillips":7403,"ĠNight":7404,"ĠNovember":7405,"ishop":7406,"Ġthrow":7407,"ĠEagle":7408,"Ġenjoy":7409,"spinwall":7410,"ĠRed":7411,"Ġhorned":7412,"sculpt":7413,"Ġperished":7414,"Ġflick":7415,"ĠJun":7416,"Ġformless":7417,"Ġproud":7418,"Ġremn":7419,"Ġslant":7420,"Ġslime":7421,"wholly":7422,"Ġourselves":7423,"Ġprecip":7424,"Ġboard":7425,"Ġmenacing":7426,"intellig":7427,"awd":7428,"awyer":7429,"Ġnorthern":7430,"Ġsurm":7431,"Ġsurvey":7432,"Ġvisual":7433,"retched":7434,"Ġtrips":7435,"ĠKheph":7436,"finished":7437,"Ġrepulsive":7438,"withstanding":7439,"apparently":7440,"Ġacce":7441,"atta":7442,"Ġcaution":7443,"Ġhumanity":7444,"Ġsteam":7445,"clot":7446,"Ġmomentary":7447,".âĢĿ_":7448,"Ġlesser":7449,"Ġwondering":7450,"Ġstudio":7451,"ĠVanderhoof":7452,"Ġburrows":7453,"ĠArcha":7454,"Ġrelated":7455,"Ġinterpret":7456,"Ġdaily":7457,"archment":7458,"Ġsnatched":7459,"Ġelusive":7460,"Ġneeds":7461,"prof":7462,"prop":7463,"hamber":7464,"ternal":7465,"ĠZadok":7466,"idescent":7467,"Ġsupplied":7468,"Ġsyll":7469,"Ġtraff":7470,"Ġfriendly":7471,"doctor":7472,"Ġconfusion":7473,"Ġdrows":7474,"Ġafford":7475,"Ġdreadful":7476,"ouching":7477,"Ġdiabol":7478,"Ġ20":7479,"Ġvertical":7480,"pective":7481,"Ġlimestone":7482,"Ġforgot":7483,"Ġreflection":7484,"trad":7485,"Ġideas":7486,"Ġpleased":7487,"windows":7488,"Ġrespond":7489,"Ġhaunt":7490,"Ġrumoured":7491,"consciousness":7492,"Ġtravel":7493,"distant":7494,"Ġvolumes":7495,"Ġformerly":7496,"Ġestate":7497,"Ġsweet":7498,"Ġpalae":7499,"ĠWilcox":7500,"Ġwander":7501,"Ġstragg":7502,"Ġpleasure":7503,"Ġbaffled":7504,"Ġdegener":7505,"Ġarchae":7506,"Ġcrowded":7507,"Ġstrove":7508,"Ġdisplay":7509,"Ġvegetable":7510,"Ġsafely":7511,"Ġfortun":7512,"ĠEverything":7513,"memories":7514,"Ġacquired":7515,"Ġprisoners":7516,"consider":7517,"Ġauthorities":7518,"Ġdestroyed":7519,"Ġfuneral":7520,"ĠWhether":7521,"Ġarticle":7522,"ĠAmerica":7523,"Ġinhabited":7524,"Ġeventually":7525,"Ġphantas":7526,"Ġconjecture":7527,"Ġladder":7528,"Ġintelligence":7529,"ĠSpani":7530,"Ġphosphorescent":7531,"Ġuneasy":7532,"Ġswiftly":7533,"Ġclustered":7534,"Ġdeparture":7535,"Ġlatent":7536,"chief":7537,"Ġlimitless":7538,"Ġabhorrent":7539,"ĠMartense":7540,"ĠFenner":7541,"Ġnewspaper":7542,"Ġdiameter":7543,"Ġgaping":7544,"Ġcasual":7545,"lenze":7546,"Ġpinnacles":7547,"Ġenvelope":7548,"Ġvoyage":7549,"Ġomnip":7550,"IÃ¤":7551,"Meanwhile":7552,"Nor":7553,"Yes":7554,"aus":7555,"ba":7556,"called":7557,"dro":7558,"doub":7559,"daemon":7560,"fan":7561,"fell":7562,"few":7563,"ihil":7564,"mir":7565,"mass":7566,"mach":7567,"ole":7568,"prom":7569,"pap":7570,"sid":7571,"scient":7572,"trees":7573,"wills":7574,"your":7575,"yards":7576,"zath":7577,"Ġtour":7578,"Ġtick":7579,"Ġtax":7580,"inence":7581,"reci":7582,"Ġwolf":7583,"Ġwestern":7584,"Ġsir":7585,"Ġsque":7586,"Ġsalt":7587,"nded":7588,"Ġbay":7589,"Ġbond":7590,"Ġbite":7591,"Ġmil":7592,"Ġfis":7593,"Ġcul":7594,"Ġcrab":7595,"Ġcounter":7596,"onze":7597,"orters":7598,"Ġdear":7599,"Ġdun":7600,"Ġdemon":7601,"anse":7602,"Ġinn":7603,"Ġpul":7604,"Ġpra":7605,"Ġpick":7606,"Ġpits":7607,"Ġlatch":7608,"Ġnine":7609,"Ġhovered":7610,"omand":7611,"icular":7612,"start":7613,"owder":7614,"Ġgrav":7615,"Ġgables":7616,"section":7617,"search":7618,"several":7619,"Ġheed":7620,"Ġheerd":7621,"acher":7622,"acific":7623,"accom":7624,"vered":7625,"Ġrenew":7626,"Ġonward":7627,"rog":7628,"roplane":7629,"church":7630,"olis":7631,"Ġrow":7632,"Ġrational":7633,"Ġsuns":7634,"inding":7635,"rable":7636,"Ġunp":7637,"usi":7638,"astically":7639,"Ġexquisite":7640,"Ġabomin":7641,"unned":7642,"unken":7643,"owness":7644,"Ġnovel":7645,"Ġshop":7646,"Ġweap":7647,"ĠBur":7648,"ĠBrid":7649,"Ġworshi":7650,"Ġagin":7651,"Ġagent":7652,"Ġdisliked":7653,"ĠGl":7654,"places":7655,"Ġclay":7656,"Ġcomment":7657,"arkomand":7658,"Ġtramp":7659,"ĠFe":7660,"ĠFrancis":7661,"Ġglowed":7662,"ĠRo":7663,"Ġhorses":7664,"ruct":7665,"arying":7666,"Ġappalling":7667,"Ġrecl":7668,"Ġslanting":7669,"Ġpool":7670,"Ġprehistoric":7671,"Ġwinding":7672,"Ġboarded":7673,"Ġdreamer":7674,"Ġimpass":7675,"Ġclos":7676,"Ġattached":7677,"Ġnorm":7678,"everal":7679,"Ġintent":7680,"Ġusing":7681,"ails":7682,"Ġtribes":7683,"avig":7684,"ĠKalos":7685,"Ġnearby":7686,"Ġexpressed":7687,"Ġexposed":7688,"Ġrepulsion":7689,"Ġdecre":7690,"Ġsubconscious":7691,"Ġworkmanship":7692,"Ġphonograph":7693,"Ġawed":7694,"Ġstrict":7695,"Ġmoonlit":7696,"ĠThrough":7697,"Ġrestless":7698,"iaev":7699,"ĠVery":7700,"Ġrelation":7701,"Ġrelate":7702,"Ġrelax":7703,"anked":7704,"flies":7705,"Ġmystical":7706,"Ġdevice":7707,"ĠZann":7708,"Ġnames":7709,"Ġexperienced":7710,"Ġconfidence":7711,"Ġdoubtful":7712,"Ġhappy":7713,"Ġbarn":7714,"ceeding":7715,"Ġassumed":7716,"sett":7717,"Ġconduct":7718,"Ġholds":7719,"Ġpanes":7720,"Ġsingularly":7721,"Ġsteeple":7722,"Ġfactory":7723,"Ġpreparing":7724,"Ġthickly":7725,"ermined":7726,"Ġfacult":7727,"velled":7728,"ĠAlhazred":7729,"Ġdraught":7730,"ackson":7731,"distance":7732,"Ġsources":7733,"Ġsufficient":7734,"Ġflights":7735,"Ġincredibly":7736,"Ġconceal":7737,"Ġbitter":7738,"Ġprotect":7739,"Ġsurprisingly":7740,"Ġsculptor":7741,"Ġquestioning":7742,"Ġstrike":7743,"Ġrusty":7744,"Ġheavens":7745,"Ġfinger":7746,"knowledge":7747,"Ġneglected":7748,"Ġjudged":7749,"Ġsubjects":7750,"Ġstrangers":7751,"Ġclutching":7752,"Ġfishy":7753,"Ġdissolved":7754,"Ġemotion":7755,"Ġgeomet":7756,"Ġpatterns":7757,"Ġrolling":7758,"Ġneighbourhood":7759,"Ġyawning":7760,"Ġsacrifice":7761,"Ġhealthy":7762,"yramids":7763,"Ġphenomenon":7764,"ĠAmerican":7765,"Ġresearches":7766,"ĠTerrible":7767,"Ġconjectures":7768,"Ġprovided":7769,"Ġpetrified":7770,"ĠWarren":7771,"Ġessential":7772,"Ġfoetor":7773,"Ġsolemn":7774,"Ġdesolate":7775,"hipple":7776,"Ġcivilisation":7777,"ĠWhite":7778,"Ġargued":7779,"Ġpedestal":7780,"Ġcrowned":7781,"Ġgorge":7782,"Ġhysterical":7783,"continued":7784,"Ġcouple":7785,"Ġbuzzing":7786,"iggur":7787,"hnson":7788,"Ġolive":7789,"sinister":7790,"Ġlava":7791,"Ġshattered":7792,"Ġpistol":7793,"oorwills":7794,"Ġclumsy":7795,"Ġmonotonous":7796,"Ġpencil":7797,"Ġparallel":7798,"Ġvenerable":7799,"accessible":7800,"ĠKhephren":7801,"zathoth":7802,"50":7803,"During":7804,"If":7805,"Jones":7806,"Mo":7807,"New":7808,"OTH":7809,"Per":7810,"West":7811,"beneath":7812,"cular":7813,"dr":7814,"given":7815,"late":7816,"mill":7817,"mountains":7818,"nar":7819,"ners":7820,"nigh":7821,"oh":7822,"pen":7823,"power":7824,"sions":7825,"six":7826,"sided":7827,"trem":7828,"vin":7829,"wat":7830,"xible":7831,"Ġ9":7832,"ĠX":7833,"Ġtin":7834,"ina":7835,"Ġoo":7836,"Ġsang":7837,"edney":7838,"enas":7839,"Ġbab":7840,"Ġbitten":7841,"Ġmap":7842,"Ġmute":7843,"Ġmaid":7844,"Ġfain":7845,"Ġfame":7846,"Ġfoul":7847,"Ġcher":7848,"itor":7849,"itud":7850,"itself":7851,"itably":7852,"orus":7853,"Ġdart":7854,"Ġdirty":7855,"Ġlaughter":7856,"Ġhun":7857,"Ġhired":7858,"ĠIb":7859,"Ġhal":7860,"lead":7861,"Ġgay":7862,"sequ":7863,"utation":7864,"Ġthrill":7865,"imon":7866,"acit":7867,"idemic":7868,"Ġrejo":7869,"Ġstif":7870,"Ġstyle":7871,"rodu":7872,"irs":7873,"Ġasking":7874,"Ġnotions":7875,"Ġnothin":7876,"Ġate":7877,"Ġseas":7878,"ĠThem":7879,"Ġrage":7880,"raim":7881,"Ġunfortun":7882,"Ġuniform":7883,"Ġunhallowed":7884,"ĠHigh":7885,"Ġspawn":7886,"ĠWould":7887,"ĠWhipple":7888,"Ġabund":7889,"Ġconj":7890,"Ġconception":7891,"elly":7892,"ĠMad":7893,"Ġaltered":7894,"agn":7895,"Ġshutter":7896,"Ġleagues":7897,"ĠBinger":7898,"abs":7899,"urewic":7900,"Ġthereafter":7901,"Ġworth":7902,"artic":7903,"Ġquarry":7904,"Ġseeming":7905,"Ġdisintegr":7906,"Ġgrotto":7907,"Ġcomfort":7908,"Ġshade":7909,"ogene":7910,"oggu":7911,"perfect":7912,"Ġtrade":7913,"Ġshelf":7914,"ĠFederal":7915,"ĠLike":7916,"Ġamb":7917,"begin":7918,"Ġmusty":7919,"hire":7920,"ignant":7921,"inkled":7922,"phraim":7923,"ruary":7924,"Ġcanvas":7925,"Ġprinted":7926,"others":7927,"Ġkitchen":7928,"neys":7929,"Ġimpat":7930,"Ġsecure":7931,"Ġincom":7932,"Ġclosing":7933,"grou":7934,"grad":7935,"grasse":7936,"ubbs":7937,"gging":7938,"Ġeverywhere":7939,"Ġenth":7940,"Ġexpanse":7941,"brush":7942,"angular":7943,"Ġacid":7944,"Ġpresences":7945,"Ġworkmen":7946,"Ġchasm":7947,"Ġheaded":7948,"eks":7949,"eking":7950,"Ġdiscourse":7951,"sole":7952,"azurewic":7953,"Ġclever":7954,"class":7955,"Ġstrained":7956,"Ġfearful":7957,"obsc":7958,"Ġpersu":7959,"enches":7960,"Ġcolours":7961,"shri":7962,"Ġespecial":7963,"Ġsignal":7964,"Ġdeaths":7965,"Ġindep":7966,"Ġindescribable":7967,"Ġwhiskey":7968,"Ġdevoid":7969,"Ġconsult":7970,"Ġfeelings":7971,"Ġelev":7972,"Ġsupplies":7973,"horrible":7974,"Ġdimension":7975,"Ġwaterfront":7976,"letter":7977,"Ġyourself":7978,"riday":7979,"fee":7980,"feet":7981,"Ġexperiences":7982,"ĠNoyes":7983,"ĠAnge":7984,"Ġconnecting":7985,"eadow":7986,"deserted":7987,"Ġclimax":7988,"Ġbarred":7989,"Ġsuggesting":7990,"Ġsuggestive":7991,"Ġstands":7992,"paned":7993,"ĠSociety":7994,"Ġgraveyard":7995,"Ġfootsteps":7996,"voc":7997,"Ġprevented":7998,"shall":7999,"Ġvaulted":8000,"Ġcaptured":8001,"buried":8002,"Ġincreasingly":8003,"Ġgroping":8004,"Ġyellowish":8005,"Ġviolence":8006,"Ġraise":8007,"surface":8008,"expression":8009,"Ġproduce":8010,"Ġsouthward":8011,"Ġelderly":8012,"Ġsurprising":8013,"Ġstatement":8014,"moved":8015,"Ġglobe":8016,"Ġleaned":8017,"Ġtraditions":8018,"ourable":8019,"Ġmillions":8020,"Ġfabled":8021,"Ġspreading":8022,"Ġancestral":8023,"marine":8024,"Ġprimordial":8025,"Ġdwelling":8026,"Ġmachines":8027,"question":8028,"Ġwaxen":8029,"struct":8030,"Ġresembled":8031,"jointed":8032,"Ġdetermination":8033,"memory":8034,"Ġassociated":8035,"ebruary":8036,"ĠQue":8037,"ĠBarry":8038,"ĠLegrasse":8039,"immering":8040,"eziah":8041,"Ġurged":8042,"Ġphenomena":8043,"Ġsquatted":8044,"ĠOutside":8045,"Ġwireless":8046,"Ġrelease":8047,"thinkable":8048,"Ġtreated":8049,"Ġvigil":8050,"Ġepidemic":8051,"Ġterrifying":8052,"Ġestablish":8053,"investig":8054,"Ġpaintings":8055,"Ġprinci":8056,"roofed":8057,"Ġabsorbed":8058,"bearing":8059,"Ġmaintained":8060,"Ġdilig":8061,"Ġdominant":8062,"Ġconquered":8063,"reliefs":8064,"Ġclerk":8065,"ĠRomero":8066,"Willett":8067,"ĠEliot":8068,"Ġgovernment":8069,"ĠJanuary":8070,"Ġliquid":8071,"Ġisolated":8072,"Ġaccomplished":8073,"Ġexhaustion":8074,"Ġecstasy":8075,"Ġassembled":8076,"ĠParis":8077,"Ġfluid":8078,"ultaneously":8079,"Ġpenguins":8080,"esterday":8081,"Ġpavement":8082,"ĠPnakotic":8083,"Ġseething":8084,"Ġunutterable":8085,"Ġopinion":8086,"Ġadjacent":8087,"iaeval":8088,"iggurath":8089,"oggua":8090,"azurewicz":8091,"19":8092,"Con":8093,"ER":8094,"ES":8095,"Ed":8096,"Niggurath":8097,"Why":8098,"Yet":8099,"aul":8100,"bulous":8101,"brane":8102,"cra":8103,"cross":8104,"dust":8105,"fellow":8106,"gave":8107,"home":8108,"lings":8109,"mas":8110,"mod":8111,"making":8112,"name":8113,"oved":8114,"phed":8115,"poses":8116,"rust":8117,"swe":8118,"till":8119,"taking":8120,"trave":8121,"uit":8122,"vial":8123,"hell":8124,"Ġast":8125,"inst":8126,"inery":8127,"Ġox":8128,"ref":8129,"reve":8130,"Ġsan":8131,"Ġsne":8132,"oung":8133,"enus":8134,"enance":8135,"enkin":8136,"Ġball":8137,"Ġbree":8138,"Ġfill":8139,"Ġfond":8140,"Ġchat":8141,"arthy":8142,"asped":8143,"Ġpil":8144,"Ġnour":8145,"Ġnose":8146,"Ġnaked":8147,"Ġhoney":8148,"icing":8149,"ĠIbid":8150,"ĠIÃ¤":8151,"leg":8152,"sto":8153,"ghoul":8154,"alien":8155,"Ġgli":8156,"Ġgaining":8157,"Ġgalleys":8158,"Ġgaunt":8159,"Ġeman":8160,"acid":8161,"across":8162,"Ġrequest":8163,"urable":8164,"uria":8165,"Ġhadn":8166,"Ġwhither":8167,"rock":8168,"ami":8169,"ceased":8170,"ĠThing":8171,"rian":8172,"theless":8173,"ainly":8174,"ousin":8175,"Ġsev":8176,"geance":8177,"ĠAspinwall":8178,"ĠTheunis":8179,"Ġyak":8180,"olm":8181,"Ġrows":8182,"Ġraced":8183,"ifying":8184,"queness":8185,"ĠSec":8186,"ĠSawyer":8187,"ĠHutchinson":8188,"usal":8189,"uncle":8190,"ustral":8191,"ĠMuseum":8192,"ĠMazurewicz":8193,"Ġalert":8194,"Ġnoble":8195,"ewalk":8196,"Ġplague":8197,"abyss":8198,"ĠOs":8199,"Ġliber":8200,"Ġtherein":8201,"Ġtherefore":8202,"Ġworried":8203,"ortation":8204,"Ġroots":8205,"Ġnebulous":8206,"liz":8207,"ĠDa":8208,"ĠPha":8209,"ĠPrague":8210,"Ġscent":8211,"assed":8212,"Ġdisjointed":8213,"ĠGard":8214,"Ġclue":8215,"Ġolden":8216,"ĠHeyl":8217,"Ġgray":8218,"Ġoverheard":8219,"Ġthrust":8220,"Ġthank":8221,"Ġbrains":8222,"Ġbronze":8223,"ĠFar":8224,"ĠLi":8225,"ĠLord":8226,"ĠLittle":8227,"Ġamorphous":8228,"Ġwhereby":8229,"ĠRem":8230,"ĠRiver":8231,"Ġtwelve":8232,"Ġpermit":8233,"Ġperformed":8234,"ĠJackson":8235,"Ġslate":8236,"deal":8237,"Ġterms":8238,"Ġterrified":8239,"Ġpeered":8240,"Ġpeasants":8241,"Ġkins":8242,"Ġlooks":8243,"izen":8244,"Ġincess":8245,"Ġchilled":8246,"Ġchoking":8247,"Ġattended":8248,"ivated":8249,"ivities":8250,"ĠYoth":8251,"Ġintric":8252,"Ġintangible":8253,"Ġcarving":8254,"Ġsurfaces":8255,"returned":8256,"angle":8257,"Ġgets":8258,"monia":8259,"Ġresolution":8260,"Ġpressed":8261,"Ġwriter":8262,"Ġwrithing":8263,"Ġworkroom":8264,"Ġdisclo":8265,"Ġlethal":8266,"aza":8267,"Ġcourtyard":8268,"ĠAtlant":8269,"Ġpersistently":8270,"Ġkindred":8271,"comb":8272,"Ġfinish":8273,"ĠAround":8274,"Ġsooner":8275,"Ġdeadly":8276,"Ġdelay":8277,"Ġmarried":8278,"Ġinterrupted":8279,"Ġhelmet":8280,"Ġexploring":8281,"somewhat":8282,"Ġpurposes":8283,"rifted":8284,"Ġexcav":8285,"Ġadvancing":8286,"Ġadvantage":8287,"hemist":8288,"Ġmotioned":8289,"Ġcharnel":8290,"uffalo":8291,"Ġsolar":8292,"Ġiridescent":8293,"Ġdriving":8294,"Ġeduc":8295,"Ġbushes":8296,"Ġadditional":8297,"Ġbarren":8298,"Ġuncovered":8299,"Ġchildhood":8300,"Ġencounter":8301,"however":8302,"Ġtorrent":8303,"Ġveritable":8304,"Ġconcern":8305,"Ġconcrete":8306,"Ġspeaker":8307,"current":8308,"shapes":8309,"Ġstarting":8310,"Ġspectacle":8311,"Ġreflections":8312,"Ġmisty":8313,"ĠGeorgian":8314,"Ġnightmares":8315,"oyle":8316,"Ġ188":8317,"uscripts":8318,"Ġgrotesquely":8319,"Ġcapture":8320,"Ġmasses":8321,"Ġopportun":8322,"Ġsettle":8323,"disturb":8324,"Ġhostile":8325,"Ġpalace":8326,"Ġbrooded":8327,"Ġdisposed":8328,"Ġgradual":8329,"ruption":8330,"Ġfurnished":8331,"Ġtottering":8332,"Ġmouldy":8333,"Ġstructures":8334,"Ġtunnels":8335,"Ġstruggling":8336,"Ġspeculation":8337,"Ġseparated":8338,"Ġclawed":8339,"Ġcovering":8340,"Ġsickly":8341,"Ġbarely":8342,"Ġurge":8343,"Ġprocesses":8344,"sounds":8345,"ĠShub":8346,"Ġfiltered":8347,"Ġadventure":8348,"Ġsuperstition":8349,"Ġgrip":8350,"Ġreleased":8351,"Ġchoice":8352,"Ġastonishing":8353,"vanished":8354,"Ġbarking":8355,"ursday":8356,"ĠGoat":8357,"Ġbowl":8358,"Ġavenues":8359,"Ġsplendid":8360,"Ġconsidered":8361,"bbery":8362,"circum":8363,"Ġrigid":8364,"ĠGrand":8365,"Ġtemporary":8366,"Ġanomalous":8367,"Ġextravagant":8368,"Ġaccompanied":8369,"ĠTrever":8370,"Ġmummies":8371,"Ġvortex":8372,"ĠSquare":8373,"Ġdistrict":8374,"Ġstimul":8375,"quarters":8376,"Ġabysmal":8377,"ĠJunzt":8378,"Ġomnipresent":8379,"Ġclosest":8380,"15":8381,"Dan":8382,"EL":8383,"Jan":8384,"ND":8385,"Out":8386,"RO":8387,"Robert":8388,"Un":8389,"call":8390,"draw":8391,"gard":8392,"gment":8393,"hidden":8394,"ik":8395,"iqu":8396,"iest":8397,"length":8398,"mmet":8399,"nature":8400,"oqu":8401,"pi":8402,"put":8403,"piration":8404,"rather":8405,"rayed":8406,"sudden":8407,"tent":8408,"taken":8409,"tales":8410,"uer":8411,"vidently":8412,"win":8413,"Ġthar":8414,"Ġtacit":8415,"Ġaether":8416,"Ġakin":8417,"Ġaesthe":8418,"inity":8419,"rehe":8420,"refle":8421,"Ġwaked":8422,"Ġwounds":8423,"erry":8424,"erior":8425,"having":8426,"ouches":8427,"Ġbony":8428,"Ġmars":8429,"Ġmixture":8430,"Ġfare":8431,"Ġfathom":8432,"itted":8433,"Ġdose":8434,"aton":8435,"atform":8436,"Ġinch":8437,"Ġinev":8438,"Ġpand":8439,"Ġpest":8440,"Ġpink":8441,"Ġparchment":8442,"Ġnigh":8443,"Ġhid":8444,"omas":8445,"ombs":8446,"icial":8447,"Ġhabits":8448,"started":8449,"along":8450,"Ġgambrel":8451,"othe":8452,"Ġeat":8453,"Ġheh":8454,"Ġhero":8455,"Ġhered":8456,"Ġwashed":8457,"Ġreeled":8458,"Ġreaches":8459,"Ġstal":8460,"Ġstated":8461,"Ġstamp":8462,"amous":8463,"iry":8464,"aines":8465,"ighted":8466,"orey":8467,"ulously":8468,"Ġrul":8469,"Ġraven":8470,"ifully":8471,"ifiable":8472,"quate":8473,"uming":8474,"Ġungu":8475,"Ġunheard":8476,"Ġunbroken":8477,"Ġunnamable":8478,"ĠSer":8479,"ĠSarkomand":8480,"esty":8481,"ĠHor":8482,"ĠHop":8483,"ĠHook":8484,"Ġorg":8485,"ĠWa":8486,"Ġconve":8487,"Ġconcent":8488,"Ġconvey":8489,"anton":8490,"ĠChe":8491,"ĠClo":8492,"ĠMass":8493,"ĠMeadow":8494,"Ġalpha":8495,"Ġmanage":8496,"Ġshoot":8497,"oster":8498,"Ġleered":8499,"akened":8500,"Ġsomebody":8501,"Ġdoomed":8502,"Ġrobe":8503,"Ġarts":8504,"Ġquasi":8505,"ĠPark":8506,"ĠPyramid":8507,"ĠPacific":8508,"ĠNe":8509,"Ġscaly":8510,"athy":8511,"Ġclaimed":8512,"Ġcomfortable":8513,"Ġsheet":8514,"Ġsheets":8515,"ĠErmengarde":8516,"Ġjew":8517,"ĠFl":8518,"ĠFry":8519,"ĠFather":8520,"ĠFebruary":8521,"hibet":8522,"Ġhorns":8523,"forward":8524,"ignation":8525,"ruce":8526,"Ġobst":8527,"Ġcurving":8528,"Ġherd":8529,"Ġpride":8530,"Ġprayed":8531,"Ġslack":8532,"Ġhowled":8533,"Ġpoly":8534,"Ġmoor":8535,"Ġlighting":8536,"Ġpeopled":8537,"Ġpartial":8538,"Ġincidents":8539,"Ġevilly":8540,"Ġcontact":8541,"Ġwilling":8542,"Ġintim":8543,"Ġaccents":8544,"Ġunderbrush":8545,"Ġdarkened":8546,"Ġdecide":8547,"Ġends":8548,"angs":8549,"ĠStubbs":8550,"ipment":8551,"Ġharmon":8552,"Ġdiscuss":8553,"Ġcalls":8554,"Ġsteel":8555,"Ġdetached":8556,"clim":8557,"Ġhighway":8558,"alevol":8559,"Ġperspective":8560,"ĠThursday":8561,"ronted":8562,"super":8563,"prot":8564,"ĠVenus":8565,"Ġburden":8566,"Ġdeliver":8567,"Ġmarriage":8568,"Ġdepend":8569,"short":8570,"arring":8571,"Ġreferences":8572,"rawling":8573,"Ġmemor":8574,"elect":8575,"Ġdoubts":8576,"Ġexploration":8577,"Ġyounger":8578,"Ġsnakes":8579,"centuries":8580,"Ġsquaw":8581,"Ġconsisted":8582,"Ġleaden":8583,"Ġadvised":8584,"Ġdimin":8585,"Ġtraversed":8586,"asphem":8587,"Ġinsistent":8588,"Ġsolitude":8589,"Ġconfused":8590,"evidently":8591,"evana":8592,"ringe":8593,"ĠAncient":8594,"Ġfalls":8595,"onai":8596,"days":8597,"Ġrecalling":8598,"Ġmarkings":8599,"Ġaffairs":8600,"Ġbarrel":8601,"Ġassailed":8602,"Ġnarrative":8603,"Ġprofessors":8604,"Ġglasses":8605,"Ġshocked":8606,"glass":8607,"remember":8608,"Ġeastern":8609,"cursed":8610,"atics":8611,"Ġstrongly":8612,"Ġmediaeval":8613,"Ġimmortal":8614,"Ġ189":8615,"hands":8616,"Ġhasty":8617,"athetic":8618,"Ġsixteen":8619,"Ġorders":8620,"Ġsettlement":8621,"Ġchairs":8622,"airo":8623,"Ġmounds":8624,"Ġarchway":8625,"Ġdescending":8626,"Ġconceivable":8627,"preserved":8628,"slowly":8629,"Ġstretch":8630,"strangely":8631,"Ġpaths":8632,"Ġdevils":8633,"Ġdevilish":8634,"wrought":8635,"Ġengine":8636,"Ġridge":8637,"Ġleaping":8638,"better":8639,"Ġcylinders":8640,"Ġdemand":8641,"Ġtotally":8642,"Ġslippery":8643,"Ġgleamed":8644,"Ġvividness":8645,"Ġdesperation":8646,"Ġfeebly":8647,"Ġnerve":8648,"Ġstrode":8649,"Ġstrokes":8650,"believe":8651,"Ġechoed":8652,"Ġpillar":8653,"Ġspells":8654,"Ġmagnific":8655,"Ġfascinated":8656,"Ġeagerness":8657,"Ġperfectly":8658,"break":8659,"ĠTsathoggua":8660,"Ġexhausted":8661,"Ġannals":8662,"Ġsurrounded":8663,"Ġmurm":8664,"seeing":8665,"Ġ169":8666,"Ġinhabitants":8667,"Ġloft":8668,"shadow":8669,"Ġexplanations":8670,"Ġdeliberate":8671,"Ġanalysis":8672,"Ġdelirious":8673,"ville":8674,"Ġfaithful":8675,"mission":8676,"Ġaverage":8677,"speak":8678,"blood":8679,"Ġextraordinary":8680,"Ġreceiving":8681,"objects":8682,"ĠHallow":8683,"Ġinvolving":8684,"Ġcitizens":8685,"Ġconsidering":8686,"Ġdistinguish":8687,"including":8688,"Ġgraceful":8689,"Ġmonstrosity":8690,"bottom":8691,"Ġfragrant":8692,"Ġwriggling":8693,"Ġobliter":8694,"Ġsilhouetted":8695,"Ġmonoliths":8696,"Ġarchitecture":8697,"message":8698,"ironment":8699,"oggoths":8700,"mentionable":8701,"connected":8702,"Ġdrifting":8703,"Ġknees":8704,"Ġfruit":8705,"Ġfrankly":8706,"relev":8707,"Ġtelesc":8708,"ĠSpaniard":8709,"scientific":8710,"Ġenthusi":8711,"ĠAngell":8712,"Ġtelescope":8713,"18":8714,"AT":8715,"Americ":8716,"April":8717,"De":8718,"Do":8719,"Gilman":8720,"Hall":8721,"Kla":8722,"More":8723,"Ne":8724,"Narg":8725,"aved":8726,"ahead":8727,"aired":8728,"bous":8729,"bra":8730,"bew":8731,"boy":8732,"cod":8733,"cab":8734,"cery":8735,"cases":8736,"capt":8737,"chamber":8738,"di":8739,"dwell":8740,"each":8741,"eaten":8742,"fail":8743,"fasc":8744,"god":8745,"gest":8746,"gled":8747,"hon":8748,"jour":8749,"lur":8750,"mitt":8751,"pered":8752,"race":8753,"sac":8754,"sive":8755,"sure":8756,"slight":8757,"sleep":8758,"tre":8759,"talk":8760,"times":8761,"uated":8762,"var":8763,"woman":8764,"worship":8765,"year":8766,"yellow":8767,"ĠâĢ":8768,"Ġta":8769,"Ġtumbled":8770,"Ġafore":8771,"Ġastr":8772,"inch":8773,"inable":8774,"Ġocto":8775,"reason":8776,"Ġwist":8777,"Ġsands":8778,"era":8779,"Ġbor":8780,"Ġbolt":8781,"Ġmix":8782,"Ġfug":8783,"Ġfumes":8784,"Ġcraft":8785,"Ġcipher":8786,"onado":8787,"itage":8788,"arled":8789,"Ġdy":8790,"Ġded":8791,"Ġdome":8792,"Ġdru":8793,"astern":8794,"anned":8795,"Ġinaccessible":8796,"Ġpity":8797,"Ġpub":8798,"Ġlawn":8799,"icip":8800,"Ġhaven":8801,"ald":8802,"owds":8803,"Ġbelf":8804,"Ġgust":8805,"Ġether":8806,"utions":8807,"imental":8808,"imitable":8809,"Ġreign":8810,"eting":8811,"erely":8812,"ĠTel":8813,"irmed":8814,"Ġforb":8815,"terns":8816,"Ġanew":8817,"Ġanno":8818,"Ġanthrop":8819,"ainable":8820,"ousness":8821,"thick":8822,"alls":8823,"anda":8824,"Ġseed":8825,"Ġvamp":8826,"Ġvines":8827,"Ġvarying":8828,"empl":8829,"emons":8830,"empted":8831,"Ġyesterday":8832,"ola":8833,"oline":8834,"Ġride":8835,"Ġruled":8836,"Ġmegal":8837,"uminous":8838,"rabs":8839,"Ġunpl":8840,"Ġspied":8841,"Ġexagger":8842,"Ġexternal":8843,"ĠWade":8844,"unks":8845,"Ġcone":8846,"Ġconflict":8847,"antation":8848,"ĠCast":8849,"ĠCorey":8850,"ĠMu":8851,"Ġsocial":8852,"hanging":8853,"Ġnostri":8854,"ctly":8855,"agraph":8856,"Ġshine":8857,"Ġshops":8858,"iousness":8859,"ĠBab":8860,"ĠBuffalo":8861,"Ġarter":8862,"Ġblurred":8863,"artment":8864,"Ġqualities":8865,"ĠNone":8866,"Ġscale":8867,"ĠGothic":8868,"Ġclatter":8869,"Ġoldest":8870,"ĠHead":8871,"Ġgrat":8872,"mented":8873,"Ġtruck":8874,"Ġtraded":8875,"Ġbrushed":8876,"Ġbrisk":8877,"Ġample":8878,"Ġammonia":8879,"beings":8880,"bearded":8881,"Ġglen":8882,"Ġglory":8883,"ĠRic":8884,"endously":8885,"Ġhorrified":8886,"ford":8887,"Ġperception":8888,"Ġperpet":8889,"Ġflaming":8890,"existence":8891,"pswich":8892,"Ġappears":8893,"Ġpretern":8894,"Ġpeer":8895,"Ġhandsome":8896,"Ġchron":8897,"Ġevidences":8898,"ival":8899,"ĠYog":8900,"Ġcrouching":8901,"Ġintently":8902,"Ġgoes":8903,"ĠKlenze":8904,"ĠKeziah":8905,"brain":8906,"enealog":8907,"Ġendlessly":8908,"Ġrealized":8909,"Ġguards":8910,"angled":8911,"within":8912,"Ġretired":8913,"Ġmindless":8914,"Ġdischar":8915,"Ġlanded":8916,"Ġswim":8917,"claimed":8918,"Ġkinds":8919,"Ġfewer":8920,"ĠThus":8921,"roning":8922,"encies":8923,"Ġextract":8924,"Ġextending":8925,"Ġburying":8926,"Ġrelic":8927,"clear":8928,"Ġbloss":8929,"Ġinterview":8930,"Ġcareless":8931,"Ġexplored":8932,"Ġindist":8933,"Ġindiff":8934,"issue":8935,"Ġsleepy":8936,"Ġsleeper":8937,"Innsmouth":8938,"ierce":8939,"Ġwatery":8940,"chair":8941,"Ġcollection":8942,"Ġcontinent":8943,"Ġconfirm":8944,"Ġirony":8945,"Ġgreyish":8946,"Ġfigured":8947,"Ġpolar":8948,"nightm":8949,"cending":8950,"Ġcreated":8951,"Ġsecretly":8952,"Ġyouthful":8953,"Ġprofessor":8954,"Ġapproxim":8955,"Ġ25":8956,"Ġpanelling":8957,"Ġshrill":8958,"Ġdisappointment":8959,"singular":8960,"afternoon":8961,"plications":8962,"Ġprompt":8963,"Ġprompted":8964,"Ġabnormally":8965,"greater":8966,"Ġspiral":8967,"Ġtitle":8968,"burst":8969,"Ġmusical":8970,"Ġmuscular":8971,"ĠBeyond":8972,"Ġexamination":8973,"Only":8974,"Ġshrieks":8975,"Ġboxes":8976,"themselves":8977,"Ġhistorical":8978,"become":8979,"Ġrounded":8980,"Ġremembering":8981,"Ġmanuscripts":8982,"Thus":8983,"ouraged":8984,"Ġpulling":8985,"Ġfurnish":8986,"parts":8987,"Ġembal":8988,"Ġidols":8989,"Ġprophe":8990,"Ġdeny":8991,"Ġhieroglyphed":8992,"Ġmachinery":8993,"Ġprecious":8994,"Ġprecaut":8995,"Ġearliest":8996,"discovered":8997,"Ġposture":8998,"Ġwaxed":8999,"Ġbrighter":9000,"Ġrapid":9001,"Ġfurtively":9002,"Ġavoided":9003,"Ġabandon":9004,"Ġlingering":9005,"Ġpractical":9006,"Ġpracticed":9007,"Ġprisoner":9008,"Ġlegion":9009,"Ġreluctance":9010,"Ġerr":9011,"Ġcorrespondence":9012,"Ġweary":9013,"Ġfateful":9014,"marked":9015,"Ġbanks":9016,"Ġarticulate":9017,"Ġofficials":9018,"Ġfungous":9019,"Ġgnaw":9020,"Ġfatig":9021,"Ġavail":9022,"umsily":9023,"Ġsubterrene":9024,"Ġastonished":9025,"Ġscholars":9026,"Ġbranch":9027,"Ġrequired":9028,"Ġharmless":9029,"Ġceremonial":9030,"village":9031,"Ġproportions":9032,"madness":9033,"Johnson":9034,"Ġdiscoveries":9035,"Ġmethod":9036,"Ġabhorred":9037,"Ġprincipal":9038,"Ġarrangement":9039,"Ġdevelopment":9040,"Ġfoolish":9041,"Ġresponsible":9042,"Ġreplaced":9043,"stantial":9044,"creature":9045,"Ġtorture":9046,"ĠLooking":9047,"Ġpolicy":9048,"Ġnaow":9049,"Ġuniversal":9050,"Ġpreceding":9051,"missed":9052,"ĠAccordingly":9053,"Ġrecollection":9054,"whether":9055,"ĠBetter":9056,"ĠPresently":9057,"shewed":9058,"Ġintellectual":9059,"Ġunaccountable":9060,"Ġenvironment":9061,"Ġfocus":9062,"Ġelaborate":9063,"glimpsed":9064,"Georgina":9065,"thaa":9066,"Ġoverwhelming":9067,"Ġanxiety":9068,"ĠCharging":9069,"necessary":9070,"crowned":9071,"Ġprecipice":9072,"Ġaccepted":9073,"Ġrenewed":9074,"Ġworshipped":9075,"Perhaps":9076,"ogeneous":9077,"Nargai":9078,"ĠâĢ¢":9079,"Ġnostrils":9080,"EN":9081,"Eve":9082,"Great":9083,"IT":9084,"Let":9085,"Lake":9086,"Something":9087,"Up":9088,"bag":9089,"cro":9090,"cold":9091,"cult":9092,"cylind":9093,"done":9094,"ehan":9095,"fil":9096,"fold":9097,"faint":9098,"furt":9099,"got":9100,"give":9101,"hours":9102,"iams":9103,"liness":9104,"mic":9105,"mantel":9106,"pat":9107,"press":9108,"pread":9109,"rich":9110,"rowing":9111,"sle":9112,"tight":9113,"tried":9114,"war":9115,"wide":9116,"winged":9117,"walking":9118,"yub":9119,"youth":9120,"Ã¶":9121,"Ġic":9122,"Ġtip":9123,"Ġtiar":9124,"hear":9125,"inha":9126,"inis":9127,"Ġoak":9128,"rers":9129,"Ġwound":9130,"Ġsite":9131,"Ġsigh":9132,"Ġsons":9133,"erment":9134,"Ġbatt":9135,"Ġbased":9136,"Ġbade":9137,"Ġmail":9138,"Ġfed":9139,"Ġfolded":9140,"Ġcud":9141,"Ġcattle":9142,"ita":9143,"ital":9144,"itches":9145,"orter":9146,"orations":9147,"ari":9148,"Ġdub":9149,"Ġdaring":9150,"Ġdrifted":9151,"asions":9152,"Ġineff":9153,"Ġpor":9154,"Ġpig":9155,"Ġpouring":9156,"Ġpyramids":9157,"Ġlent":9158,"Ġlamps":9159,"Ġloung":9160,"Ġnic":9161,"Ġhomes":9162,"iceless":9163,"icism":9164,"iciently":9165,"state":9166,"alc":9167,"also":9168,"owered":9169,"owering":9170,"Ġgenealog":9171,"Ġeer":9172,"Ġeaten":9173,"immedi":9174,"acter":9175,"Ġreduced":9176,"urther":9177,"Ġstub":9178,"Ġud":9179,"Ġitems":9180,"rook":9181,"roduced":9182,"amidst":9183,"ĠTy":9184,"ĠTran":9185,"ĠThibet":9186,"irp":9187,"irgin":9188,"Ġash":9189,"ights":9190,"allic":9191,"Ġseated":9192,"Ġseize":9193,"ili":9194,"Ġvowed":9195,"Ġvesse":9196,"eman":9197,"olted":9198,"Ġraces":9199,"ifted":9200,"quick":9201,"quire":9202,"Ġunthinkable":9203,"ĠSund":9204,"ĠShip":9205,"ĠSkai":9206,"resco":9207,"ĠHaving":9208,"Ġspy":9209,"Ġspacious":9210,"ĠWed":9211,"ĠWolf":9212,"Ġabstr":9213,"ĠCent":9214,"ĠCould":9215,"ĠColl":9216,"Ġdeemed":9217,"ĠMer":9218,"ĠMen":9219,"Ġupset":9220,"venient":9221,"ĠBugs":9222,"ĠBishop":9223,"abby":9224,"Ġlibr":9225,"hington":9226,"Ġworry":9227,"lier":9228,"ĠItal":9229,"Ġarouse":9230,"Ġblessed":9231,"Ġblaze":9232,"ĠDark":9233,"ĠDav":9234,"Ġprolong":9235,"Ġprosa":9236,"ĠNigger":9237,"Ġagree":9238,"ĠGedney":9239,"Ġgrinning":9240,"Ġovercome":9241,"Ġtrained":9242,"ĠEnd":9243,"ĠEll":9244,"ĠFoster":9245,"bey":9246,"beast":9247,"Ġglancing":9248,"ovel":9249,"specul":9250,"ĠRose":9251,"ĠRice":9252,"enses":9253,"former":9254,"forbid":9255,"Ġflound":9256,"Ġflames":9257,"inkling":9258,"Ġapplied":9259,"ĠJenkin":9260,"Ġpole":9261,"actic":9262,"actions":9263,"neigh":9264,"Ġimpressive":9265,"Ġattained":9266,"Ġblackened":9267,"grow":9268,"grotesque":9269,"Ġcracked":9270,"Ġcrowds":9271,"Ġcarav":9272,"Ġsurge":9273,"Ġvisiting":9274,"Ġvisibly":9275,"return":9276,"Ġentry":9277,"Ġentries":9278,"avin":9279,"Ġexplo":9280,"ĠStation":9281,"Ġresidence":9282,"Ġretained":9283,"Ġheadless":9284,"Ġregarded":9285,"Ġskies":9286,"Ġcoach":9287,"Ġdiscussed":9288,"umbered":9289,"Ġactions":9290,"Ġopenly":9291,"Ġlandl":9292,"ouded":9293,"Ġswarthy":9294,"Ġdetailed":9295,"Ġpossibility":9296,"Ġpossibilities":9297,"ungent":9298,"Ġreader":9299,"Ġsilk":9300,"Ġcorrel":9301,"ceptions":9302,"Ġstudent":9303,"Ġextinct":9304,"Ġburnt":9305,"Ġdelusion":9306,"impressions":9307,"Ġcomposed":9308,"Ġreligious":9309,"Ġrelatives":9310,"Ġinstantly":9311,"Ġreference":9312,"Ġmembrane":9313,"veliness":9314,"Ġripp":9315,"Ġsinging":9316,"Ġbelt":9317,"Ġcarelessly":9318,"whatever":9319,"ĠUltimate":9320,"answ":9321,"prov":9322,"Ġdevast":9323,"Ġsquatters":9324,"idespread":9325,"Ġdifference":9326,"Ġsuppressed":9327,"Ġmonstrously":9328,"blasphem":9329,"Ġgives":9330,"Ġsecondary":9331,"features":9332,"Ġcolloqu":9333,"Ġcharm":9334,"Ġrule":9335,"Ġirrelev":9336,"Ġdrown":9337,"Ġtowering":9338,"reshold":9339,"cended":9340,"Ġgrounds":9341,"Ġlegendry":9342,"Ġaffection":9343,"Ġchildish":9344,"Ġundec":9345,"Ġprofession":9346,"Ġinterests":9347,"Ġinteresting":9348,"Ġstandard":9349,"Ġcease":9350,"extreme":9351,"Ġparap":9352,"Ġparagraph":9353,"Ġfootfalls":9354,"Ġhallway":9355,"Ġprevailing":9356,"curiously":9357,"Ġmoder":9358,"Ġsteeply":9359,"Ġstartled":9360,"Ġsuperior":9361,"Ġcrypts":9362,"record":9363,"ĠWithout":9364,"Ġ184":9365,"Ġconstell":9366,"Ġconstruction":9367,"Ġfacing":9368,"Ġoriginally":9369,"Ġtypes":9370,"Ġobscene":9371,"ĠAmong":9372,"rolled":9373,"Ġconventional":9374,"Ġ177":9375,"ocene":9376,"surv":9377,"Ġscientist":9378,"Ġforbidding":9379,"Ġblindly":9380,"oddess":9381,"Ġtelepath":9382,"Ġgloom":9383,"ĠWilmar":9384,"Ġcrystall":9385,"Ġlinkage":9386,"ĠWhateleys":9387,"Ġslip":9388,"Ġmortals":9389,"Ġidle":9390,"Ġidol":9391,"Ġtravelled":9392,"Ġarrive":9393,"ĠWashington":9394,"Ġrevelations":9395,"Ġinvestigate":9396,"Ġemotional":9397,"Ġmainly":9398,"Ġacquaint":9399,"Ġcommunication":9400,"rehension":9401,"corrid":9402,"scribed":9403,"Ġhorizontal":9404,"Ġghosts":9405,"Ġghostly":9406,"culable":9407,"Ġshrines":9408,"Ġlifeless":9409,"Ġdecadence":9410,"horrors":9411,"agonal":9412,"hield":9413,"Ġdetectives":9414,"Ġexplorers":9415,"Ġmoods":9416,"Ġgasoline":9417,"Ġcontrary":9418,"bridge":9419,"Ġforeigners":9420,"Ġfragmentary":9421,"steep":9422,"nesia":9423,"Ġessence":9424,"achete":9425,"Before":9426,"direction":9427,"Ġregretted":9428,"Ġlatest":9429,"Ġunsuspected":9430,"ĠDespite":9431,"Ġparalysed":9432,"Ġtendency":9433,"Ġgestures":9434,"completely":9435,"ĠaÃ«roplane":9436,"Ġcredit":9437,"Ġsearched":9438,"ĠEuropean":9439,"general":9440,"Ġengulfed":9441,"Ġbullet":9442,"Ġcollapse":9443,"Ġpierced":9444,"Ġshouting":9445,"Ġmonstrosities":9446,"Ġdizzily":9447,"Ġvengeance":9448,"fragments":9449,"Ġgalax":9450,"Ġrambling":9451,"Ġcautiously":9452,"ĠSatan":9453,"Ġglistening":9454,"Ġchuckle":9455,"Ġprecisely":9456,"Ġtechnique":9457,"Ġproperties":9458,"Ġsidewalk":9459,"planet":9460,"Ġcolleagues":9461,"Ġwreck":9462,"Ġseventeenth":9463,"Ġundertaker":9464,"country":9465,"Ġalcove":9466,"ĠDobson":9467,"Ġawakening":9468,"Ġseamen":9469,"Ġuneasiness":9470,"cosmic":9471,"incredible":9472,"ĠClearly":9473,"ĠArchaean":9474,"doubt":9475,"sequences":9476,"Ġbreeze":9477,"Ġinevitable":9478,"Ġprosaic":9479,"ĠWilmarth":9480,"?âĢĶ":9481,"Akeley":9482,"Dalton":9483,"Ex":9484,"Even":9485,"Hthaa":9486,"MA":9487,"Marsh":9488,"Oh":9489,"Other":9490,"Pres":9491,"Randolph":9492,"Se":9493,"VI":9494,"Wal":9495,"Yn":9496,"bank":9497,"bby":9498,"ca":9499,"eke":9500,"equ":9501,"free":9502,"farm":9503,"ference":9504,"gn":9505,"gar":9506,"gro":9507,"holes":9508,"hills":9509,"ias":9510,"ige":9511,"ipping":9512,"lad":9513,"lest":9514,"law":9515,"mor":9516,"mock":9517,"mountain":9518,"nest":9519,"nerv":9520,"oge":9521,"public":9522,"rate":9523,"rated":9524,"rise":9525,"tes":9526,"tle":9527,"tically":9528,"uell":9529,"upe":9530,"uously":9531,"wight":9532,"xes":9533,"Ġtum":9534,"Ġtrop":9535,"Ġtakes":9536,"Ġtables":9537,"Ġtubes":9538,"Ġade":9539,"ino":9540,"inate":9541,"inating":9542,"inction":9543,"inosity":9544,"Ġware":9545,"Ġwicked":9546,"Ġsam":9547,"ouis":9548,"outhern":9549,"oughed":9550,"Ġmaps":9551,"Ġmasters":9552,"Ġfest":9553,"Ġfishing":9554,"Ġfires":9555,"Ġcart":9556,"Ġcord":9557,"Ġcunning":9558,"Ġcousin":9559,"estering":9560,"arrange":9561,"Ġdarted":9562,"Ġdignity":9563,"aseless":9564,"Ġtoler":9565,"athed":9566,"atural":9567,"Ġinert":9568,"Ġinform":9569,"Ġinformed":9570,"Ġinjected":9571,"Ġpacked":9572,"âĢ²":9573,"Ġlic":9574,"Ġlimp":9575,"Ġlane":9576,"Ġlacked":9577,"Ġlittered":9578,"Ġnavig":9579,"oma":9580,"omar":9581,"ickness":9582,"Ġhaow":9583,"Ġhagg":9584,"Ġhaze":9585,"lysm":9586,"stran":9587,"alty":9588,"owley":9589,"Ġgutt":9590,"ldon":9591,"Ġeth":9592,"Ġease":9593,"sell":9594,"Ġhed":9595,"acement":9596,"Ġreven":9597,"urg":9598,"uried":9599,"Ġwhim":9600,"Ġwhine":9601,"âĢĻâĢĶ":9602,"robor":9603,"Ġsext":9604,"ulsed":9605,"ilies":9606,"illars":9607,"ĠAnt":9608,"ĠAustral":9609,"ĠArabs":9610,"Ġvag":9611,"Ġvine":9612,"Ġyell":9613,"Ġsucked":9614,"Ġweren":9615,"ĠSam":9616,"ĠSally":9617,"ĠSign":9618,"ĠSpr":9619,"ĠSeveral":9620,"ĠHaines":9621,"loved":9622,"early":9623,"earthed":9624,"isturbed":9625,"ourished":9626,"ĠWor":9627,"ĠWay":9628,"ĠWood":9629,"Ġconceived":9630,"Ġconfined":9631,"hers":9632,"ĠCo":9633,"ĠMerc":9634,"ĠMorgan":9635,"Ġsoap":9636,"ongrel":9637,"ateful":9638,"osure":9639,"ago":9640,"aging":9641,"Ġknob":9642,"Ġplaster":9643,"ĠBal":9644,"ĠBol":9645,"ĠBenefit":9646,"ĠBatta":9647,"ĠOb":9648,"ĠOoth":9649,"udge":9650,"Ġrode":9651,"ledges":9652,"Ġblazing":9653,"ĠDis":9654,"Ġquiver":9655,"ĠPri":9656,"Ġagg":9657,"Ġscru":9658,"Ġdisaster":9659,"ĠGll":9660,"Ġclinging":9661,"Ġclumsily":9662,"Ġshambling":9663,"ccess":9664,"ĠEarth":9665,"ĠEphraim":9666,"ĠEvidently":9667,"olds":9668,"ickety":9669,"Ġglac":9670,"Ġensued":9671,"scene":9672,"Ġperp":9673,"Ġflutes":9674,"Ġfoundations":9675,"inked":9676,"phosphoresc":9677,"Ġappreci":9678,"Ġheritage":9679,"Ġrecon":9680,"Ġrecovered":9681,"Ġprism":9682,"Ġslumber":9683,"actually":9684,"ilderry":9685,"Ġsecl":9686,"Ġincal":9687,"Ġchlor":9688,"Ġevoked":9689,"Ġcontours":9690,"ĠYes":9691,"Ġintol":9692,"Ġaccent":9693,"Ġtriump":9694,"Ġtrivial":9695,"avour":9696,"stricken":9697,"Ġnewcom":9698,"Ġrepet":9699,"Ġreputed":9700,"Ġreporters":9701,"Ġreputation":9702,"Ġfloat":9703,"Ġfloors":9704,"ĠState":9705,"Ġchances":9706,"Ġchannel":9707,"Ġworks":9708,"Ġchaotic":9709,"Ġregained":9710,"Ġcoinc":9711,"Ġcoherent":9712,"Ġcohort":9713,"Ġactive":9714,"Ġactivity":9715,"Ġswore":9716,"Ġswear":9717,"Ġswung":9718,"Ġswelled":9719,"Ġfrightfully":9720,"Ġreadily":9721,"utterly":9722,"Ġperspiration":9723,"Ġplanning":9724,"meas":9725,"ĠThomas":9726,"common":9727,"Ġresting":9728,"Ġrestored":9729,"Ġlowered":9730,"renched":9731,"ĠWhatever":9732,"Ġmetallic":9733,"Ġbury":9734,"Ġburrow":9735,"Ġdelivered":9736,"Ġrelent":9737,"Ġrelations":9738,"Ġrelatively":9739,"Ġdepended":9740,"shr":9741,"shudd":9742,"Ġinvent":9743,"Ġrefuge":9744,"Ġintermin":9745,"Ġintervening":9746,"overnor":9747,"Ġkeeps":9748,"ĠZenas":9749,"rifying":9750,"Ġdirected":9751,"horribly":9752,"ylon":9753,"ylum":9754,"Ġgeneration":9755,"feel":9756,"Ġwarn":9757,"Ġsolitary":9758,"Ġconfronted":9759,"ounce":9760,"Ġdram":9761,"Ġdrums":9762,"Ġtowered":9763,"prepared":9764,"Ġmarking":9765,"Ġvariety":9766,"desert":9767,"design":9768,"descri":9769,"Ġillum":9770,"Ġassigned":9771,"Ġtransfer":9772,"Ġtransferred":9773,"Ġalienists":9774,"Ġundul":9775,"itching":9776,"otesqueness":9777,"Ġphysicians":9778,"Ġmagaz":9779,"asionally":9780,"Ġcondu":9781,"Ġgravely":9782,"Ġsteeples":9783,"Ġlimits":9784,"Ġexisting":9785,"Ġrevealing":9786,"Ġspectators":9787,"Ġodor":9788,"incing":9789,"recalled":9790,"Ġcutting":9791,"Ġfacial":9792,"vision":9793,"visited":9794,"Ġsuspended":9795,"Ġhairy":9796,"Ġpainting":9797,"Ġmovement":9798,"ominie":9799,"Ġdestruction":9800,"below":9801,"surround":9802,"Ġtouching":9803,"Ġelectrical":9804,"Ġvolcan":9805,"Ġconceivably":9806,"cannot":9807,"Ġgrowths":9808,"Ġsculptured":9809,"olutely":9810,"Ġleaning":9811,"Though":9812,"Ġpalaces":9813,"Ġdisturbance":9814,"Ġidentify":9815,"Ġgrassy":9816,"Ġmarvelled":9817,"Ġmarvellously":9818,"Ġcylindrical":9819,"going":9820,"Ġ30":9821,"Ġpuzzle":9822,"passing":9823,"abbled":9824,"Ġbriefly":9825,"Ġghasts":9826,"ĠCaptain":9827,"Ġseeker":9828,"Ġremarked":9829,"Ġlanterns":9830,"Ġpicturesque":9831,"changed":9832,"Ġwharf":9833,"Ġunusually":9834,"Ġgrandmother":9835,"Ġmalignant":9836,"Ġstupor":9837,"Ġcommunic":9838,"Ġcommunity":9839,"Ġknocking":9840,"Ġpractice":9841,"Ġinfluences":9842,"Ġclawing":9843,"Ġremoval":9844,"Ġreluctantly":9845,"folks":9846,"Ġerud":9847,"Ġdivine":9848,"Ġcorresponding":9849,"north":9850,"Ġlacking":9851,"Ġhatred":9852,"Ġhabitation":9853,"ĠAfrican":9854,"Ġmissed":9855,"marks":9856,"Ġbewildering":9857,"ĠHerbert":9858,"Ġdescriptions":9859,"determined":9860,"Ġgranted":9861,"Ġhesitate":9862,"Ġslabs":9863,"liminary":9864,"Ġavid":9865,"Ġhanging":9866,"Ġdeliberately":9867,"Ġintelligent":9868,"Ġanalyse":9869,"ĠSprague":9870,"ĠMexican":9871,"Ġcombined":9872,"books":9873,"magn":9874,"Ġcycles":9875,"Ġplunge":9876,"Ġtroubles":9877,"Ġestablished":9878,"Ġsticky":9879,"experience":9880,"Ġcurtains":9881,"Ġgesture":9882,"Ġinsects":9883,"Ġintrud":9884,"Ġnewspapers":9885,"Ġhamlet":9886,"Ġautomatic":9887,"Ġrevived":9888,"Ġascended":9889,"Ġapprehension":9890,"Ġawaited":9891,"Ġwitnessed":9892,"Ġsatisfied":9893,"carefully":9894,"Ġnaive":9895,"ĠGuide":9896,"fragment":9897,"ĠCoronado":9898,"gramme":9899,"cryst":9900,"Ġintensity":9901,"Ġcatacombs":9902,"Ġcobwebs":9903,"Ġscrambled":9904,"Ġfancies":9905,"Ġhallucination":9906,"Ġbrilliant":9907,"legends":9908,"ĠTempest":9909,"Ġunexplained":9910,"escape":9911,"Ġrelieved":9912,"Ġmeadows":9913,"period":9914,"kerchief":9915,"Ġremnants":9916,"Ġsyllables":9917,"Ġwanderings":9918,"ĠFrancisco":9919,"Ġnormally":9920,"Ġfaculties":9921,"waters":9922,"Ġunfortunate":9923,"gardens":9924,"ĠHopkins":9925,"Ġalphabet":9926,"Ġineffable":9927,"ĠSunday":9928,"ĠWednes":9929,"Ynn":9930,"ogean":9931,"upef":9932,"..":9933,".âĢĻ":9934,"10":9935,"12":9936,"20":9937,"Again":9938,"CE":9939,"Com":9940,"Don":9941,"Denis":9942,"Finally":9943,"Having":9944,"Mur":9945,"OR":9946,"Rogers":9947,"Whe":9948,"aen":9949,"bow":9950,"cer":9951,"cities":9952,"dog":9953,"eur":9954,"fo":9955,"fed":9956,"iber":9957,"kau":9958,"lan":9959,"lod":9960,"laid":9961,"mus":9962,"make":9963,"non":9964,"nant":9965,"none":9966,"nake":9967,"pher":9968,"pled":9969,"rim":9970,"rings":9971,"rally":9972,"rusted":9973,"slo":9974,"sought":9975,"sick":9976,"sky":9977,"tend":9978,"tts":9979,"uv":9980,"wings":9981,"worn":9982,"watch":9983,"ygen":9984,"zo":9985,"zing":9986,"zra":9987,"Ã±":9988,"Ġton":9989,"Ġtast":9990,"Ġturban":9991,"Ġape":9992,"Ġaided":9993,"Ġarab":9994,"inear":9995,"Ġoars":9996,"revel":9997,"Ġwing":9998,"Ġward":9999,"Ġsagging":10000,"Ġsledges":10001,"ougl":10002,"ourers":10003,"Ġbred":10004,"Ġbough":10005,"Ġbats":10006,"Ġmaze":10007,"Ġfiss":10008,"Ġfiled":10009,"Ġfulf":10010,"Ġfading":10011,"Ġfountains":10012,"Ġcared":10013,"itated":10014,"itiveness":10015,"orig":10016,"aned":10017,"atre":10018,"Ġpun":10019,"Ġpiled":10020,"Ġpyramid":10021,"Ġpowder":10022,"Ġpungent":10023,"Ġlust":10024,"Ġlions":10025,"Ġlift":10026,"Ġnet":10027,"Ġnest":10028,"Ġhovering":10029,"ĠIpswich":10030,"altogether":10031,"Ġgaps":10032,"oter":10033,"othered":10034,"seem":10035,"Ġthumping":10036,"Ġthreshold":10037,"image":10038,"idance":10039,"Ġrent":10040,"Ġredd":10041,"Ġrefin":10042,"Ġwhining":10043,"Ġwhipp":10044,"Ġster":10045,"Ġstor":10046,"Ġstable":10047,"Ġsturdy":10048,"amily":10049,"Ġanat":10050,"Ġanch":10051,"Ġangu":10052,"echo":10053,"Ġnoting":10054,"Ġnotwithstanding":10055,"Ġsevere":10056,"kept":10057,"odorous":10058,"Ġrings":10059,"Ġrural":10060,"Ġrush":10061,"Ġrisk":10062,"Ġrickety":10063,"iforn":10064,"umption":10065,"indoo":10066,"Ġunreal":10067,"Ġunbear":10068,"ĠSound":10069,"ĠHolm":10070,"Ġornam":10071,"lost":10072,"ussy":10073,"Ġspi":10074,"Ġspat":10075,"Ġexit":10076,"Ġexult":10077,"uns":10078,"Ġconfin":10079,"antiqu":10080,"ĠCath":10081,"ĠCorn":10082,"Ġdefe":10083,"Ġdeeds":10084,"ĠMuch":10085,"ĠMnar":10086,"Ġsober":10087,"igs":10088,"iguous":10089,"ptical":10090,"Ġupright":10091,"Ġouts":10092,"Ġoutfit":10093,"osis":10094,"Ġmangled":10095,"Ġshift":10096,"Ġshoggoths":10097,"hedron":10098,"Ġplung":10099,"Ġplatform":10100,"Ġwealth":10101,"akers":10102,"Ġdozen":10103,"abled":10104,"ĠOonai":10105,"orts":10106,"Ġrobed":10107,"often":10108,"Ġblazed":10109,"ĠDel":10110,"Ġquar":10111,"ĠPeck":10112,"Ġprob":10113,"Ġprogramme":10114,"ĠNobody":10115,"Ġagony":10116,"Their":10117,"Ġscre":10118,"Ġscant":10119,"Ġscrawled":10120,"Ġanywhere":10121,"Ġdismissed":10122,"Ġclad":10123,"Ġclicking":10124,"Ġcommer":10125,"Ġoverlooking":10126,"Ġoverlooked":10127,"mentioned":10128,"Ġtrim":10129,"Ġtrunk":10130,"ĠEach":10131,"Ġjoke":10132,"Ġdesired":10133,"Ġfeast":10134,"Ġbride":10135,"ĠFriday":10136,"ĠLaf":10137,"nesses":10138,"Ġamid":10139,"older":10140,"Ġglaring":10141,"Ġglances":10142,"Ġglorious":10143,"Ġglacial":10144,"hier":10145,"hips":10146,"ĠRowley":10147,"forced":10148,"Ġlonging":10149,"scattered":10150,"Ġflowed":10151,"Ġflashes":10152,"exam":10153,"except":10154,"Ġobstru":10155,"Ġareas":10156,"psy":10157,"ollen":10158,"ĠJack":10159,"Ġprint":10160,"harp":10161,"Ġreminis":10162,"Ġprey":10163,"Ġsmoking":10164,"concl":10165,"convers":10166,"Ġkilling":10167,"Ġdreamers":10168,"Ġoffering":10169,"achment":10170,"achuse":10171,"Ġcontour":10172,"Ġattacks":10173,"Ġattracted":10174,"Ġattempted":10175,"ivorous":10176,"growing":10177,"Ġcrash":10178,"Ġcrouched":10179,"ggy":10180,"Ġsurged":10181,"Ġdarker":10182,"ĠKilderry":10183,"Ġado":10184,"finable":10185,"reading":10186,"butius":10187,"Ġending":10188,"onsense":10189,"Ġchanging":10190,"attention":10191,"Ġowner":10192,"Ġresent":10193,"Ġresignation":10194,"ĠAsia":10195,"Ġheadlands":10196,"Ġvoids":10197,"Ġharb":10198,"Ġdiscus":10199,"Ġthinks":10200,"Ġacting":10201,"Ġactivities":10202,"Ġcleft":10203,"Ġstealth":10204,"Ġkindly":10205,"comed":10206,"Ġrestoration":10207,"Ġdeepest":10208,"Ġhideousness":10209,"ceptible":10210,"Ġtreasure":10211,"print":10212,"ĠVal":10213,"ĠValley":10214,"import":10215,"impression":10216,"Ġcompared":10217,"Ġcomprehe":10218,"Ġdepression":10219,"Ġrefr":10220,"Ġshews":10221,"Ġdais":10222,"ugues":10223,"Ġartists":10224,"Ġartistic":10225,"closing":10226,"Ġexcess":10227,"Ġshoulders":10228,"Ġsensible":10229,"blue":10230,"disappear":10231,"Ġseconds":10232,"Ġcollected":10233,"Ġinsanity":10234,"Ġcharred":10235,"evolution":10236,"Ġmineral":10237,"Ġdrunken":10238,"Ġdrill":10239,"prehens":10240,"arcely":10241,"descript":10242,"minate":10243,"Ġcountless":10244,"Ġcountenance":10245,"coat":10246,"Ġveh":10247,"Ġalienage":10248,"Ġturns":10249,"astery":10250,"humans":10251,"Ġ22":10252,"Ġprevent":10253,"Ġdisappointed":10254,"Ġstole":10255,"priate":10256,"Ġdamage":10257,"Ġideal":10258,"Ġspots":10259,"plicably":10260,"asket":10261,"?âĢĿ_":10262,"Ġfacade":10263,"handed":10264,"Ġcells":10265,"Ġinfre":10266,"Ġspirits":10267,"Ġpausing":10268,"longer":10269,"Ġmuscles":10270,"Ġchurchyard":10271,"Ġequipment":10272,"Ġexamine":10273,"Ġexamining":10274,"Ġaccurate":10275,"Ġmorbidity":10276,"Ġradical":10277,"twilight":10278,"Ġflexible":10279,"naturally":10280,"named":10281,"Ġarchways":10282,"Ġhoping":10283,"Ġprotest":10284,"imentary":10285,"ĠManuscripts":10286,"moving":10287,"Ġsweep":10288,"Ġsandstone":10289,"Ġsuccession":10290,"Ġblew":10291,"Through":10292,"secrets":10293,"ĠHowever":10294,"Ġshores":10295,"Ġguardian":10296,"Ġidentified":10297,"Ġrustic":10298,"Ġabnormalities":10299,"untarily":10300,"Ġmouths":10301,"Ġvacation":10302,"Still":10303,"Ġdemands":10304,"Ġanimation":10305,"Ġdegrees":10306,"ĠDeath":10307,"Ġconsiderably":10308,"Ġmoulded":10309,"Ġobtain":10310,"Ġhungry":10311,"Ġstroke":10312,"Ġphotograp":10313,"ĠPoe":10314,"Ġconclusions":10315,"Ġobserve":10316,"colour":10317,"fallen":10318,"Ġlinger":10319,"Ġ500":10320,"Ġinstinctively":10321,"Ġfirmly":10322,"damn":10323,"Ġcoffins":10324,"Ġbald":10325,"Ġdivided":10326,"Ġparticularly":10327,"immered":10328,"Ġterrace":10329,"Ġluminosity":10330,"Ġwitchcraft":10331,"ĠOthers":10332,"organic":10333,"frightened":10334,"Ġadventurous":10335,"Ġbewilderment":10336,"ĠOuter":10337,"Ġofficers":10338,"Ġgnawed":10339,"Ġchoose":10340,"shadowed":10341,"Ġrubber":10342,"ĠLatitude":10343,"grandmother":10344,"John":10345,"radually":10346,"Ġfailure":10347,"Ġlocality":10348,"whispered":10349,"Ġarrangements":10350,"Ġthrongs":10351,"concert":10352,"Ġexchanged":10353,"silent":10354,"solid":10355,"ĠaÃ«rial":10356,"suggestion":10357,"Ġtomorrow":10358,"Ġponderous":10359,"Ġtransportation":10360,"drawn":10361,"Ġuncomfortable":10362,"Ġscraps":10363,"Ġdistinguished":10364,"Ġsummits":10365,"figure":10366,"picture":10367,"Ġliquor":10368,"Ġpenetrate":10369,"Ġpenetrated":10370,"ĠWalter":10371,"wonder":10372,"happened":10373,"Ġoblig":10374,"Ġobservation":10375,"buryport":10376,"ealous":10377,"labyrin":10378,"Ġweedy":10379,"Ġcautious":10380,"Ġdecorative":10381,"Ġrescue":10382,"Ġphrase":10383,"Ġphrases":10384,"England":10385,"English":10386,"condition":10387,"Ġinspired":10388,"Ġtemperature":10389,"Ġpermanent":10390,"Ġreticence":10391,"Ġneatly":10392,"Ġdeafening":10393,"ĠPortugues":10394,"fabulous":10395,"Ġhuddled":10396,"Ġnitrous":10397,"Ġdecrepit":10398,"itudes":10399,"hellish":10400,"Ġnourishment":10401,"ĠSecond":10402,"ĠAtlantis":10403,"Ġtaciturn":10404,"ĠWaite":10405,"ĠFrye":10406,"bewild":10407,"Ġdrugs":10408,"nightmare":10409,"Ġdevastating":10410,"ĠBolton":10411,"ĠWednesday":10412,"Murdo":10413,"kauba":10414,"Ġarabes":10415,"ouglas":10416,"Ġwhippoorwills":10417,"ifornia":10418,"achusetts":10419,"ĠPortuguese":10420,"29":10421,"Capt":10422,"Den":10423,"Ermengarde":10424,"Her":10425,"Is":10426,"Most":10427,"Nyarlathotep":10428,"OU":10429,"Our":10430,"Such":10431,"Where":10432,"Yog":10433,"aire":10434,"ahar":10435,"bas":10436,"bad":10437,"bir":10438,"bled":10439,"bany":10440,"dared":10441,"died":10442,"drew":10443,"dogs":10444,"eing":10445,"furn":10446,"fresh":10447,"fires":10448,"gly":10449,"gods":10450,"grew":10451,"ht":10452,"hol":10453,"hum":10454,"lat":10455,"lour":10456,"lap":10457,"lines":10458,"mble":10459,"merely":10460,"nod":10461,"nate":10462,"oe":10463,"rud":10464,"south":10465,"soul":10466,"surely":10467,"tall":10468,"toms":10469,"upp":10470,"ulet":10471,"word":10472,"wife":10473,"yles":10474,"zily":10475,"Ġtied":10476,"Ġtors":10477,"Ġtaverns":10478,"hent":10479,"inal":10480,"Ġoaks":10481,"really":10482,"reach":10483,"Ġwet":10484,"Ġwomen":10485,"Ġwidespread":10486,"Ġsilly":10487,"oust":10488,"Ġbill":10489,"Ġboring":10490,"Ġmul":10491,"Ġmalevol":10492,"Ġmachete":10493,"Ġfought":10494,"Ġfangs":10495,"Ġcache":10496,"itute":10497,"oral":10498,"oriously":10499,"isly":10500,"isions":10501,"isman":10502,"arms":10503,"arians":10504,"Ġdin":10505,"Ġdre":10506,"Ġdress":10507,"Ġdumb":10508,"Ġdorm":10509,"Ġtops":10510,"anthrop":10511,"Ġinno":10512,"Ġpace":10513,"Ġpuff":10514,"Ġpushing":10515,"Ġlaun":10516,"omatic":10517,"leans":10518,"leading":10519,"stir":10520,"stars":10521,"strang":10522,"stretched":10523,"Ġgale":10524,"Ġecon":10525,"Ġepo":10526,"Ġegress":10527,"Ġheaps":10528,"entinel":10529,"acqu":10530,"vet":10531,"idal":10532,"ione":10533,"Ġrect":10534,"Ġreigned":10535,"urrying":10536,"Ġstumble":10537,"eteenth":10538,"Ġitem":10539,"adel":10540,"amble":10541,"cember":10542,"Ġanted":10543,"ousing":10544,"thr":10545,"thunder":10546,"ilit":10547,"ĠAc":10548,"ĠAzathoth":10549,"Ġvic":10550,"Ġvile":10551,"odes":10552,"olve":10553,"Ġray":10554,"Ġrite":10555,"Ġrouse":10556,"Ġracing":10557,"Ġrushing":10558,"Ġmell":10559,"Ġbutler":10560,"rage":10561,"Ġunhe":10562,"Ġunrest":10563,"Ġunique":10564,"Ġunmentionable":10565,"ĠSchool":10566,"else":10567,"resist":10568,"Ġwheel":10569,"Ġwheez":10570,"estic":10571,"ĠHart":10572,"ĠHindoo":10573,"log":10574,"Ġspade":10575,"Ġsplit":10576,"Ġspasm":10577,"astered":10578,"Ġallow":10579,"Ġexerc":10580,"ĠWing":10581,"ĠWater":10582,"ĠWhile":10583,"antations":10584,"ustere":10585,"ĠCome":10586,"ĠCap":10587,"ĠCairo":10588,"ĠMark":10589,"ĠMevana":10590,"Ġalter":10591,"Ġoutspread":10592,"Ġsaving":10593,"acking":10594,"Ġplacid":10595,"ĠBay":10596,"Ġdoings":10597,"onday":10598,"Ġworthy":10599,"Ġroar":10600,"Ġrobes":10601,"lived":10602,"Ġarc":10603,"Ġarmed":10604,"Ġblur":10605,"Ġloveliness":10606,"ĠDen":10607,"ĠDouglas":10608,"ĠPhil":10609,"apid":10610,"Ġprovisions":10611,"Ġdislike":10612,"Ġdismiss":10613,"ĠGround":10614,"Ġclub":10615,"Ġshame":10616,"Ġfeature":10617,"Ġamp":10618,"Ġamused":10619,"beams":10620,"ĠRou":10621,"ĠRue":10622,"scr":10623,"Ġflag":10624,"Ġflashing":10625,"Ġfounded":10626,"phit":10627,"phot":10628,"ruck":10629,"Ġformation":10630,"hence":10631,"Ġrecently":10632,"harmed":10633,"manuscript":10634,"Ġpools":10635,"Ġpreferred":10636,"Ġpreliminary":10637,"bering":10638,"Ġlighter":10639,"order":10640,"Ġpartitions":10641,"Ġchorus":10642,"Ġcontro":10643,"Ġcontag":10644,"Ġnortheast":10645,"tele":10646,"tebr":10647,"teenth":10648,"ĠYe":10649,"owski":10650,"Ġcramped":10651,"Ġsurging":10652,"Ġwelled":10653,"Ġtrial":10654,"ĠKn":10655,"Ġadmin":10656,"strown":10657,"brous":10658,"Ġdecaying":10659,"Ġrealisation":10660,"Ġsubsequent":10661,"Ġsubsided":10662,"Ġflock":10663,"Ġguidance":10664,"ĠStan":10665,"myster":10666,"Ġreserve":10667,"Ġpreserve":10668,"Ġpreservation":10669,"Ġwrist":10670,"Ġtells":10671,"Ġdiscerned":10672,"umbers":10673,"azz":10674,"Ġcourts":10675,"Ġclearing":10676,"Ġswarm":10677,"Ġsteal":10678,"Ġdetected":10679,"Ġawakened":10680,"Ġmomentarily":10681,"Ġbuy":10682,"pedition":10683,"enery":10684,"eye":10685,"Ġplank":10686,"ĠThousand":10687,"Ġrestlessness":10688,"Ġlowest":10689,"Ġslender":10690,"Ġcorpses":10691,"Ġlateral":10692,"versing":10693,"Ġindefinite":10694,"noxious":10695,"Ġmarch":10696,"Ġrelics":10697,"shot":10698,"cleus":10699,"ologic":10700,"rawl":10701,"Ġeminent":10702,"ĠUll":10703,"Ġexplorations":10704,"Ġsnap":10705,"Ġindust":10706,"Ġforefather":10707,"rewd":10708,"ission":10709,"somewhere":10710,"proof":10711,"Ġshades":10712,"Ġsuddenness":10713,"Ġexcite":10714,"Ġexcuse":10715,"Ġsupplement":10716,"Ġwoodland":10717,"Ġmerest":10718,"Ġuseful":10719,"leton":10720,"Ġseriously":10721,"Ġtraverse":10722,"feeling":10723,"ĠWilliams":10724,"Ġconfident":10725,"altes":10726,"Ġ1930":10727,"author":10728,"Ġpolit":10729,"Ġcreep":10730,"Ġvari":10731,"Ġaddress":10732,"minating":10733,"Ġveter":10734,"Ġsecretive":10735,"Ġlaboured":10736,"Ġprofusion":10737,"setse":10738,"Ġbasic":10739,"Ġmagical":10740,"ĠYoung":10741,"Ġchecked":10742,"ĠNewport":10743,"Ġfeller":10744,"Ġescaping":10745,"axon":10746,"Ġ23":10747,"poor":10748,"region":10749,"Ġpanor":10750,"priests":10751,"Ġorganised":10752,"Ġpatches":10753,"Ġ187":10754,"fortably":10755,"olesale":10756,"Ġpaved":10757,"Ġgroped":10758,"Ġoppressive":10759,"Ġdragging":10760,"Ġmorbidly":10761,"Ġsettlers":10762,"distinct":10763,"umpled":10764,"Ġconviction":10765,"Ġarchives":10766,"Ġhopeless":10767,"Ġhopelessly":10768,"Ġconceive":10769,"presented":10770,"woods":10771,"Ġdwar":10772,"Ġblinding":10773,"Ġmirage":10774,"Ġdesertion":10775,"Ġsweeping":10776,"Ġlanguages":10777,"Ġangled":10778,"Ġfifth":10779,"Those":10780,"Ġhurry":10781,"Ġdispos":10782,"until":10783,"untary":10784,"Ġteeming":10785,"party":10786,"Ġ300":10787,"Ġslipping":10788,"crumbling":10789,"Ġproposed":10790,"Ġsailor":10791,"Ġbreathless":10792,"box":10793,"Ġvividly":10794,"Ġtangled":10795,"Ġprocession":10796,"Ġsurvive":10797,"Ġeighteenth":10798,"Ġeternity":10799,"beside":10800,"nalia":10801,"Ġclutch":10802,"Ġemerg":10803,"Ġthunderstorm":10804,"ĠPoer":10805,"Ġinvestigations":10806,"Ġfortress":10807,"Ġfortune":10808,"Ġconclusion":10809,"Ġscratching":10810,"Ġinquiry":10811,"Ġoutlined":10812,"Ġpipes":10813,"Ġperilous":10814,"Ġeagerly":10815,"decided":10816,"Ġsucceed":10817,"Ġhieroglyphics":10818,"Ġfastened":10819,"vilinear":10820,"Ġhonest":10821,"Ġalarming":10822,"Ġterrain":10823,"Ġlifet":10824,"Ġlifted":10825,"imagination":10826,"transp":10827,"Ġannihil":10828,"Ġsurroundings":10829,"Ġpsychology":10830,"Ġsoutheast":10831,"Ġfunction":10832,"Ġexplorer":10833,"Ġcustoms":10834,"Ġgasped":10835,"Ġtelephoned":10836,"Ġgnarled":10837,"Ġprayer":10838,"history":10839,"Ġsadly":10840,"Ġhesitated":10841,"Ġadmiration":10842,"Ġtongues":10843,"Ġhangings":10844,"ĠMoreover":10845,"Ġshivering":10846,"occurred":10847,"Ġswayed":10848,"Ġrequire":10849,"Ġwhirling":10850,"Ġvigorous":10851,"Ġceremonies":10852,"Ġduties":10853,"nearly":10854,"Ġcycle":10855,"Ġmelted":10856,"ĠEgyptian":10857,"Ġlocation":10858,"Ġoccupied":10859,"mptoms":10860,"Ġdiseased":10861,"ĠPratt":10862,"Ġchemicals":10863,"recognised":10864,"Ġpedestals":10865,"Ġavenue":10866,"Ġaudible":10867,"ortunately":10868,"Ġenemies":10869,"creatures":10870,"Ġgovernor":10871,"Ġsummons":10872,"figures":10873,"following":10874,"Ġyielded":10875,"Ġawaiting":10876,"pictures":10877,"Ġdizzying":10878,"friends":10879,"Ġcamera":10880,"Ġperplexed":10881,"Ġreptiles":10882,"business":10883,"Ġbiological":10884,"ĠLongitude":10885,"Ġglistened":10886,"Ġcelebrated":10887,"Ġlogical":10888,"spirit":10889,"Ġsketches":10890,"Ġproperty":10891,"Ġmathematical":10892,"Ġmathematics":10893,"Ġmurderous":10894,"heavy":10895,"ĠSwami":10896,"facet":10897,"Ġinspection":10898,"ĠCounty":10899,"Ġhypnotic":10900,"Ġnurse":10901,"ĠRhode":10902,"Ġreverberations":10903,"Ġseizure":10904,"Ġexhibition":10905,"agrams":10906,"Ġpronounced":10907,"Ġpresumably":10908,"proportion":10909,"Black":10910,"ĠHalf":10911,"Ġscript":10912,"inexplicable":10913,"beauty":10914,"Ġassistant":10915,"Ġpadding":10916,"Ġunlock":10917,"Ġshrubbery":10918,"considerable":10919,"Ġcrabbed":10920,"accompl":10921,"Ġabominable":10922,"Ġweapon":10923,"ĠBridge":10924,"Ġimpassable":10925,"group":10926,"obscure":10927,"Ġindependent":10928,"Ġoxygen":10929,"ĠLibrary":10930,"Ġintricate":10931,"tentacles":10932,"American":10933,"failure":10934,"fascinated":10935,"Ġwistful":10936,"Ġbelfry":10937,"Ġmegalith":10938,"Ġexaggerated":10939,"Ġpreternatural":10940,"Ġprecautions":10941,"Ġfatigue":10942,"Ġavailable":10943,"Ġtiara":10944,"Ġdubious":10945,"ĠTrans":10946,"blasphemous":10947,"Ġtelepathic":10948,"Ġhaggard":10949,"Ġsexton":10950,"ĠSpring":10951,"ĠBalbutius":10952,"prehensible":10953,"aharna":10954,"Ġepoch":10955,"17":10956,"AA":10957,"Book":10958,"Can":10959,"Cthulhu":10960,"EE":10961,"March":10962,"Many":10963,"Miskatonic":10964,"Marceline":10965,"Roman":10966,"ST":10967,"Surama":10968,"Squire":10969,"aes":10970,"bolt":10971,"cif":10972,"caut":10973,"dent":10974,"dened":10975,"eas":10976,"eus":10977,"elder":10978,"fted":10979,"fears":10980,"fixed":10981,"gor":10982,"gers":10983,"gate":10984,"hundred":10985,"iage":10986,"low":10987,"lined":10988,"loud":10989,"lah":10990,"mot":10991,"mound":10992,"mechan":10993,"nivorous":10994,"oir":10995,"oves":10996,"ocean":10997,"poke":10998,"rÃ©":10999,"tim":11000,"try":11001,"tale":11002,"uke":11003,"vard":11004,"vity":11005,"ware":11006,"yd":11007,"Ġtar":11008,"Ġtrag":11009,"Ġticking":11010,"Ġtavern":11011,"heaven":11012,"Ġapt":11013,"inside":11014,"influ":11015,"rept":11016,"repe":11017,"reaching":11018,"Ġwin":11019,"Ġwiz":11020,"Ġwailing":11021,"Ġsod":11022,"enith":11023,"Ġbrave":11024,"Ġma":11025,"Ġmig":11026,"Ġmorn":11027,"Ġmines":11028,"Ġmourn":11029,"Ġmongrel":11030,"Ġfet":11031,"Ġfert":11032,"Ġfoss":11033,"Ġfresco":11034,"Ġcore":11035,"Ġcres":11036,"iti":11037,"itter":11038,"itched":11039,"orously":11040,"isp":11041,"isations":11042,"aran":11043,"arri":11044,"Ġdens":11045,"Ġdomed":11046,"Ġdots":11047,"Ġdressing":11048,"Ġdroning":11049,"Ġtools":11050,"anke":11051,"anak":11052,"ller":11053,"atches":11054,"ateness":11055,"Ġinject":11056,"Ġinky":11057,"Ġpurely":11058,"Ġlid":11059,"Ġlure":11060,"Ġlatt":11061,"Ġlapping":11062,"Ġnonsense":11063,"Ġhue":11064,"Ġhook":11065,"omination":11066,"leaving":11067,"stell":11068,"sters":11069,"stream":11070,"Ġbeaten":11071,"Ġgang":11072,"Ġgoddess":11073,"Ġell":11074,"seized":11075,"seeking":11076,"utable":11077,"entin":11078,"idable":11079,"iddle":11080,"Ġstained":11081,"Ġstraw":11082,"Ġstern":11083,"vering":11084,"Ġul":11085,"Ġult":11086,"Ġugly":11087,"adays":11088,"adox":11089,"amorph":11090,"terror":11091,"ayette":11092,"oreal":11093,"ulating":11094,"ĠAk":11095,"Ġvice":11096,"Ġyours":11097,"Ġrotten":11098,"Ġrowers":11099,"Ġrises":11100,"ardman":11101,"Ġmeal":11102,"indict":11103,"Ġunused":11104,"Ġuntold":11105,"ĠSurely":11106,"ĠSimon":11107,"ĠSaltes":11108,"resolved":11109,"Ġordeal":11110,"Ġornate":11111,"istered":11112,"Ġspire":11113,"astrous":11114,"Ġalleg":11115,"ĠWich":11116,"ĠWind":11117,"ĠWestern":11118,"unting":11119,"Ġconical":11120,"Ġconstr":11121,"Ġconvenient":11122,"ĠCertain":11123,"ĠCrown":11124,"ĠCape":11125,"Ġdeceased":11126,"ĠMary":11127,"ĠMason":11128,"ĠMerr":11129,"Ġsoared":11130,"Ġsociety":11131,"Ġalarmed":11132,"ighed":11133,"ateur":11134,"Ġ._":11135,"oscop":11136,"agre":11137,"Ġmania":11138,"Ġshrank":11139,"Ġshoes":11140,"Ġshrewd":11141,"Ġleaf":11142,"Ġplastic":11143,"ĠBruce":11144,"abnormal":11145,"ephen":11146,"ĠOuk":11147,"Ġthereby":11148,"orton":11149,"aret":11150,"arets":11151,"lique":11152,"library":11153,"Ġarches":11154,"Ġarcan":11155,"Ġblotted":11156,"Ġloaf":11157,"ĠDagon":11158,"ĠDwight":11159,"ĠPol":11160,"forest":11161,"Ġprostr":11162,"Ġprovoc":11163,"ĠNile":11164,"ĠNeither":11165,"Ġagon":11166,"Ġagency":11167,"ĠGawd":11168,"played":11169,"Ġcling":11170,"Ġclues":11171,"Ġgrasped":11172,"Ġgrisly":11173,"mental":11174,"ĠEastern":11175,"ĠEzra":11176,"Ġbru":11177,"Ġbrass":11178,"ĠFear":11179,"ĠLavin":11180,"ĠLomar":11181,"Ġamaz":11182,"Ġamiss":11183,"Ġamuse":11184,"Ġamnesia":11185,"olden":11186,"aternal":11187,"spic":11188,"spawn":11189,"ĠRes":11190,"ĠRussy":11191,"endicular":11192,"Ġperverse":11193,"Ġflies":11194,"ruins":11195,"ructions":11196,"Ġcurvilinear":11197,"Ġherds":11198,"Ġhermit":11199,"Ġfarmer":11200,"Ġfarms":11201,"Ġrecur":11202,"Ġrecesses":11203,"Ġprow":11204,"Ġprone":11205,"Ġslain":11206,"ĠInn":11207,"ĠInst":11208,"Ġpoets":11209,"Ġpoignant":11210,"Ġdistances":11211,"def":11212,"dev":11213,"Ġboast":11214,"yson":11215,"active":11216,"Ġpeal":11217,"need":11218,"Ġstillness":11219,"Ġimpious":11220,"ancest":11221,"intendent":11222,"awful":11223,"Ġhandkerchief":11224,"Ġchurning":11225,"Ġevas":11226,"ĠYek":11227,"Ġblackest":11228,"notes":11229,"Ġcrumbled":11230,"Ġcrimin":11231,"Ġcrumpled":11232,"Ġaccum":11233,"Ġsurg":11234,"Ġviscous":11235,"Ġtribe":11236,"Ġadjust":11237,"Ġdeck":11238,"ĠStrange":11239,"Ġchanted":11240,"Ġacted":11241,"Ġacrid":11242,"iping":11243,"attic":11244,"Ġcaved":11245,"ifications":11246,"Ġswam":11247,"Ġstrata":11248,"Ġmoonbeams":11249,"Ġpersistence":11250,"Ġoccasions":11251,"meaning":11252,"comp":11253,"versions":11254,"prous":11255,"Ġdelic":11256,"Ġcompet":11257,"Ġfollows":11258,"aneous":11259,"Ġrelig":11260,"shop":11261,"Ġtalks":11262,"clearly":11263,"Ġlayer":11264,"Ġinstitution":11265,"Ġrefusal":11266,"Ġblock":11267,"Ġblocked":11268,"Ġinterval":11269,"Ġintermitt":11270,"Ġdaemons":11271,"Ġemiss":11272,"Ġcareer":11273,"Ġeffaced":11274,"profound":11275,"Ġshadowed":11276,"Ġdevoted":11277,"Ġsquares":11278,"Ġconsumed":11279,"ĠAllister":11280,"ĠZkauba":11281,"Ġtranqu":11282,"Ġanticip":11283,"Ġlearnt":11284,"Ġfriendship":11285,"Ġcollect":11286,"uffed":11287,"Ġconfessed":11288,"Ġconference":11289,"imalay":11290,"event":11291,"Ġpictured":11292,"Ġirrit":11293,"Ġhappening":11294,"Ġdrastic":11295,"Ġdrunk":11296,"ltered":11297,"Ġfrown":11298,"Ġwatcher":11299,"emonium":11300,"Ġillusions":11301,"Ġaddressed":11302,"Ġclimate":11303,"Ġbarbar":11304,"Ġassume":11305,"covery":11306,"Ġveined":11307,"Ġveiled":11308,"Ġtransient":11309,"Ġapex":11310,"Ġshockingly":11311,"Ġceaseless":11312,"Ġparlour":11313,"ĠSheehan":11314,"mouths":11315,"regions":11316,"Ġhalls":11317,"shelves":11318,"curiosity":11319,"Ġmode":11320,"Ġtablet":11321,"amba":11322,"single":11323,"afterward":11324,"Ġorganisms":11325,"Ġsupernal":11326,"Ġmedium":11327,"Ġbriers":11328,"Ġpathe":11329,"Ġcommonplace":11330,"Ġrecognition":11331,"Ġinferior":11332,"ĠAlso":11333,"Ġsearchlight":11334,"Ġincrease":11335,"Ġrepeating":11336,"ĠAmidst":11337,"Ġtravels":11338,"Ġsufficiently":11339,"twisted":11340,"Ġdestined":11341,"Ġraising":11342,"violet":11343,"surpr":11344,"Ġhopes":11345,"Ġdawned":11346,"ritus":11347,"presence":11348,"olphins":11349,"Ġprotection":11350,"Ġsubtler":11351,"ropolis":11352,"certainly":11353,"subject":11354,"substance":11355,"Ġsandy":11356,"odding":11357,"Ġgloomy":11358,"ĠOrleans":11359,"Ġtraders":11360,"Ġmotionless":11361,"Ġdispers":11362,"Ġnecessarily":11363,"Ġriding":11364,"Ġrusted":11365,"Ġrustics":11366,"phas":11367,"Ġancestry":11368,"Ġdematerial":11369,"ĠUncle":11370,"passage":11371,"Ġsnowy":11372,"Ġgleam":11373,"Ġunderstanding":11374,"Ġneglect":11375,"Ġremarks":11376,"Ġpockets":11377,"Ġforests":11378,"Ġzenith":11379,"Ġaccompany":11380,"Ġdefence":11381,"Ġpostp":11382,"Ġpillared":11383,"Ġemerge":11384,"metal":11385,"servants":11386,"Ġcopies":11387,"Ġcopied":11388,"Ġpiec":11389,"Ġstruggled":11390,"Ġinquis":11391,"Ġgeologic":11392,"Ġeastward":11393,"coloured":11394,"Ġdampness":11395,"Ġmagnetic":11396,"Ġclassic":11397,"Ġclassify":11398,"corpse":11399,"correspond":11400,"Ġaltars":11401,"Ġaltitude":11402,"Ġvitality":11403,"Ġsickened":11404,"Ġlegions":11405,"concealed":11406,"brood":11407,"Ġbelonging":11408,"Ġsuccessful":11409,"Ġfiendishly":11410,"Ġdisappearances":11411,"Ġinexplicably":11412,"Ġannounced":11413,"Ġchimneys":11414,"Ġwelcomed":11415,"Ġcottages":11416,"Ġcontrast":11417,"Ġarticles":11418,"farther":11419,"Ġcruel":11420,"Ġrhythmic":11421,"Alert":11422,"ĠExham":11423,"Ġmeaningless":11424,"Ġcroaking":11425,"Ġceremony":11426,"minds":11427,"minded":11428,"Ġcluster":11429,"directly":11430,"purg":11431,"âĢĶâĢĶâĢĶ":11432,"Ġvista":11433,"Ġflooded":11434,"Ġrituals":11435,"Ġlaughing":11436,"Ġshifted":11437,"Ġtrickle":11438,"buildings":11439,"senses":11440,"Ġaimlessly":11441,"Ġreceive":11442,"Ġconquer":11443,"Ġpoetry":11444,"ĠMcMurdo":11445,"closely":11446,"Ġsplendour":11447,"Ġlabyrinths":11448,"safe":11449,"Ġprecipitous":11450,"Ġdiamond":11451,"college":11452,"followed":11453,"Ġcollapsed":11454,"Ġbells":11455,"torch":11456,"Ġlunch":11457,"Ġisolation":11458,"posts":11459,"Ġgalle":11460,"Ġthreatened":11461,"Ġreptilian":11462,"Ġclamour":11463,"Ġphilosoph":11464,"Ġphilosophy":11465,"Ġemploy":11466,"bodied":11467,"Ġcataclysm":11468,"Ġhurriedly":11469,"Ġidiot":11470,"shocking":11471,"Ġpadlocked":11472,"Ġbeckoning":11473,"Ġwhitish":11474,"Ġrampart":11475,"Ġmajority":11476,"significant":11477,"significance":11478,"Ġexterior":11479,"Ġdocument":11480,"ĠOriab":11481,"Ġcomplained":11482,"Ġsympathetic":11483,"Ġsombre":11484,"Ġperceptibly":11485,"Ġ1908":11486,"fashioned":11487,"Ġaura":11488,"Ġachieved":11489,"Ġreanimation":11490,"Ġarrested":11491,"clothes":11492,"Ġpalaeogean":11493,"machine":11494,"ĠFeldon":11495,"Ġstifling":11496,"articulate":11497,"beginning":11498,"Ġincomprehensible":11499,"revealed":11500,"Ġhoneycom":11501,"ĠGardner":11502,"ĠRemember":11503,"Danforth":11504,"Ġaesthetic":11505,"Ġfarewell":11506,"Ġpandemonium":11507,"Ġhereditary":11508,"Ġravenous":11509,"Ġorgies":11510,"Ġ1692":11511,"Ġoctop":11512,"ĠTeloth":11513,"Ġunplumbed":11514,"Ġindistinct":11515,"Ġgnawing":11516,"Upon":11517,"furtive":11518,"Ġicy":11519,"Ġtipto":11520,"Ġvessel":11521,"ĠCentral":11522,"ĠCollege":11523,"Ġprolonged":11524,"ĠEllston":11525,"forbidden":11526,"provided":11527,"Ġcolloquy":11528,"Ġirrelevant":11529,"ekeli":11530,"arrangement":11531,"stranger":11532,"Ġguttural":11533,"Ġrevenge":11534,"Ġincalculable":11535,"Ġintolerable":11536,"uvian":11537,"Ġboughs":11538,"Ġspiky":11539,"Ġoutsider":11540,"Ġplunging":11541,"ĠLafayette":11542,"conversation":11543,"Ġcomprehend":11544,"description":11545,"Ġlifetime":11546,"cifix":11547,"ĠMerritt":11548,"ĠOukran":11549,"Ġarcana":11550,"ĠYekub":11551,"!âĢĻ":11552,".)":11553,"AI":11554,"AR":11555,"Ause":11556,"Boston":11557,"Go":11558,"Had":11559,"Mar":11560,"May":11561,"Mart":11562,"Night":11563,"OG":11564,"Or":11565,"Re":11566,"Tig":11567,"Two":11568,"Very":11569,"Wh":11570,"ais":11571,"best":11572,"bones":11573,"bbered":11574,"burning":11575,"cere":11576,"camp":11577,"dig":11578,"dled":11579,"dang":11580,"drag":11581,"fa":11582,"fut":11583,"gra":11584,"gown":11585,"graph":11586,"hung":11587,"ipe":11588,"klah":11589,"lone":11590,"latter":11591,"mund":11592,"master":11593,"nin":11594,"nib":11595,"oce":11596,"pening":11597,"puzz":11598,"rowed":11599,"rison":11600,"rhythm":11601,"sal":11602,"sized":11603,"snow":11604,"sharp":11605,"tings":11606,"taverns":11607,"uh":11608,"uan":11609,"uate":11610,"vig":11611,"wear":11612,"walk":11613,"watched":11614,"watching":11615,"Ã¦":11616,"Ã¼":11617,"Ġrom":11618,"Ġich":11619,"ĠâĢĿ":11620,"Ġtact":11621,"Ġtail":11622,"Ġtents":11623,"Ġtroll":11624,"Ġtested":11625,"Ġtiers":11626,"Ġtsetse":11627,"hero":11628,"height":11629,"Ġaug":11630,"inus":11631,"infinite":11632,"inoc":11633,"Ġoily":11634,"Ġwounded":11635,"Ġwiped":11636,"Ġsed":11637,"Ġsly":11638,"Ġscho":11639,"Ġsession":11640,"Ġsections":11641,"erving":11642,"hair":11643,"outer":11644,"ourag":11645,"enced":11646,"Ġbra":11647,"Ġbothered":11648,"Ġmumbling":11649,"Ġmamm":11650,"Ġmantel":11651,"Ġfund":11652,"Ġcard":11653,"Ġcav":11654,"Ġcours":11655,"Ġcounted":11656,"itors":11657,"orian":11658,"orie":11659,"isive":11660,"Ġdiver":11661,"Ġdirt":11662,"asked":11663,"Ġtoil":11664,"anning":11665,"anek":11666,"ancho":11667,"athan":11668,"Ġinher":11669,"Ġpert":11670,"Ġpark":11671,"Ġlux":11672,"Ġhing":11673,"Ġhut":11674,"Ġhind":11675,"Ġhuts":11676,"Ġhaouse":11677,"level":11678,"stre":11679,"star":11680,"alive":11681,"although":11682,"Ġbeet":11683,"otch":11684,"Ġeating":11685,"sey":11686,"Ġhev":11687,"Ġhewn":11688,"Ġheeded":11689,"utted":11690,"uther":11691,"utting":11692,"Ġtho":11693,"entered":11694,"entially":11695,"accursed":11696,"veget":11697,"idoscop":11698,"Ġrein":11699,"Ġreel":11700,"Ġreactions":11701,"urches":11702,"uritan":11703,"Ġstately":11704,"Ġstuck":11705,"Ġstalked":11706,"Ġstunned":11707,"etz":11708,"etrable":11709,"ĠTH":11710,"irling":11711,"terogeneous":11712,"Ġasylum":11713,"Ġanalog":11714,"thest":11715,"Ġhissing":11716,"Ġnotable":11717,"romatic":11718,"Ġseal":11719,"Ġselect":11720,"Ġselected":11721,"keys":11722,"iluvian":11723,"chim":11724,"empor":11725,"oday":11726,"Ġrug":11727,"Ġracked":11728,"ifting":11729,"ardon":11730,"quality":11731,"Ġbutt":11732,"raoh":11733,"Ġunend":11734,"Ġunhuman":11735,"Ġuniversity":11736,"Ġunspeak":11737,"ĠSch":11738,"ĠSime":11739,"ĠSub":11740,"ĠSaid":11741,"ĠSarg":11742,"ĠScience":11743,"ppled":11744,"eliness":11745,"elcome":11746,"estones":11747,"estead":11748,"ĠHa":11749,"Ġorchar":11750,"love":11751,"ource":11752,"asty":11753,"Ġallowing":11754,"ĠWis":11755,"ĠWild":11756,"Ġcones":11757,"ellery":11758,"outing":11759,"Ġdew":11760,"ĠMic":11761,"ĠMun":11762,"Ġsoph":11763,"Ġalb":11764,"osa":11765,"Ġshield":11766,"Ġshiny":11767,"Ġshovel":11768,"ĠBo":11769,"ĠBoth":11770,"ĠBapt":11771,"ĠBoyle":11772,"ĠBrook":11773,"onder":11774,"orting":11775,"Ġroot":11776,"opular":11777,"Ġmoreover":11778,"Ġblight":11779,"Ġblown":11780,"Ġbluff":11781,"Ġblasts":11782,"ĠDay":11783,"ĠDec":11784,"ĠDutch":11785,"ĠDominie":11786,"ĠDyson":11787,"Ġquant":11788,"ĠPle":11789,"Ġpros":11790,"ĠNir":11791,"ĠNaturally":11792,"Ġanyway":11793,"Ġdisconcert":11794,"athomed":11795,"ĠGamba":11796,"plateau":11797,"Ġgrotesqueness":11798,"Ġovergrown":11799,"Ġoverwrought":11800,"Ġovermantel":11801,"Ġshaky":11802,"Ġthanked":11803,"perate":11804,"perman":11805,"Ġtract":11806,"Ġtrunks":11807,"Ġsheep":11808,"ĠEle":11809,"Ġjelly":11810,"Ġdesp":11811,"Ġfeed":11812,"Ġfebri":11813,"Ġbrush":11814,"ĠFore":11815,"ĠFrance":11816,"ĠLouis":11817,"icks":11818,"bea":11819,"beit":11820,"begun":11821,"Ġglared":11822,"Ġglided":11823,"Ġwherever":11824,"cier":11825,"ften":11826,"Ġenig":11827,"Ġlonged":11828,"scarcely":11829,"Ġknowed":11830,"Ġflow":11831,"phs":11832,"phone":11833,"Ġcurling":11834,"Ġformidable":11835,"Ġprice":11836,"Ġslid":11837,"Ġslam":11838,"ĠInto":11839,"why":11840,"whom":11841,"Ġours":11842,"develo":11843,"defined":11844,"Ġprefer":11845,"Ġbobbing":11846,"Ġterm":11847,"Ġmoist":11848,"Ġmoaning":11849,"ilded":11850,"pleas":11851,"nek":11852,"Ġnevertheless":11853,"Ġoffensive":11854,"Ġgreed":11855,"elty":11856,"Ġinco":11857,"Ġhandle":11858,"ivation":11859,"Ġmonastery":11860,"grace":11861,"grass":11862,"Ġcrone":11863,"Ġcrime":11864,"Ġintention":11865,"arson":11866,"mbled":11867,"ictory":11868,"Ġwells":11869,"Ġentertain":11870,"Ġadorn":11871,"finally":11872,"Ġdecade":11873,"tingu":11874,"Ġsubmer":11875,"Ġsubsequently":11876,"ĠStar":11877,"iphered":11878,"Ġresigned":11879,"Ġretain":11880,"Ġcauses":11881,"Ġcoil":11882,"Ġcook":11883,"eked":11884,"Ġletting":11885,"Ġjustice":11886,"Ġswine":11887,"Ġstealthy":11888,"clut":11889,"cliff":11890,"Ġawaking":11891,"Ġstray":11892,"Ġstraining":11893,"Ġreaders":11894,"aleidoscop":11895,"obt":11896,"ĠAtwood":11897,"Ġwaving":11898,"Ġhereabouts":11899,"Ġcorusc":11900,"Ġindefinitely":11901,"Ġfoam":11902,"success":11903,"Ġsunrise":11904,"encing":11905,"prim":11906,"primal":11907,"Ġsighted":11908,"Ġextend":11909,"Ġcenturied":11910,"Ġdelved":11911,"Ġcomprehension":11912,"Ġcolony":11913,"Ġlargest":11914,"Ġrelative":11915,"Ġdepicted":11916,"shut":11917,"shots":11918,"Ġemitting":11919,"Ġdoubled":11920,"anks":11921,"Ġindul":11922,"Ġwildness":11923,"Ġneedle":11924,"flung":11925,"Ġdevised":11926,"Ġdevote":11927,"Ġpursue":11928,"Ġdifferences":11929,"Ġleads":11930,"Ġtempest":11931,"Ġsymmet":11932,"ylvan":11933,"letters":11934,"Ġsentry":11935,"Ġinsol":11936,"uffling":11937,"ĠNova":11938,"Ġpointing":11939,"Ġcrev":11940,"Ġedged":11941,"Ġedges":11942,"Ġillimitable":11943,"Ġunchan":11944,"Ġuncouth":11945,"Ġviews":11946,"understand":11947,"Ġpriory":11948,"ĠIndia":11949,"Ġunden":11950,"Ġundisturbed":11951,"spectral":11952,"Ġauthent":11953,"Ġcheer":11954,"Ġcheck":11955,"Ġcheeks":11956,"ĠNewburyport":11957,"Ġfathers":11958,"Ġfreak":11959,"Ġeasier":11960,"Ġcasting":11961,"voiced":11962,"poid":11963,"regational":11964,"Ġconcave":11965,"Ġspeaks":11966,"Ġpanels":11967,"shaven":11968,"shaken":11969,"evening":11970,"tracks":11971,"Ġorganism":11972,"Ġmistaken":11973,"andson":11974,"plicity":11975,"plicated":11976,"affected":11977,"Ġprominent":11978,"ĠWithin":11979,"Ġpatri":11980,"smelling":11981,"Ġfarmers":11982,"Ġbreaking":11983,"Ġbreeding":11984,"uthin":11985,"Ġthicker":11986,"Ġbestial":11987,"annah":11988,"guess":11989,"Ġsuspense":11990,"Ġbreathed":11991,"Ġinfant":11992,"ĠAlways":11993,"ĠAlbany":11994,"ographs":11995,"ographical":11996,"Ġmassed":11997,"Ġtopmost":11998,"downward":11999,"disturbed":12000,"distingu":12001,"Ġculture":12002,"Ġmaterials":12003,"Ġfantastically":12004,"Ġsuffering":12005,"Ġconvince":12006,"viol":12007,"Ġfanatic":12008,"Ġfanatical":12009,"afraid":12010,"aiming":12011,"Ġprotecting":12012,"Ġemptied":12013,"oddly":12014,"Ġobscurely":12015,"dreamer":12016,"carved":12017,"carried":12018,"Ġpalm":12019,"Ġpublicity":12020,"Ġfabric":12021,"Arthur":12022,"Armitage":12023,"Ġweirdly":12024,"Ġpleasing":12025,"Ġembod":12026,"Ġembarked":12027,"crowd":12028,"Ġanimated":12029,"Ġbreakfast":12030,"Ġvaulting":12031,"Ġradiant":12032,"ĠDecember":12033,"mighty":12034,"Ġunfolded":12035,"Ġjudgment":12036,"Ġeternally":12037,"believed":12038,"Ġpotential":12039,"built":12040,"struck":12041,"strugg":12042,"Ġthunderous":12043,"ĠCompany":12044,"servant":12045,"help":12046,"Ġtremendously":12047,"Ġpursued":12048,"Ġpursuits":12049,"Ġstationed":12050,"Ġmatches":12051,"Ġassociate":12052,"Ġassociations":12053,"Ġmockingly":12054,"Ġmockery":12055,"Ġboldness":12056,"Ġinstincts":12057,"Ġinstinctive":12058,"Ġuncannily":12059,"Ġtimid":12060,"larnek":12061,"Ġjournal":12062,"Ġ1915":12063,"Ġ1919":12064,"Ġbalance":12065,"Ġcorrespondent":12066,"Ġshrine":12067,"transl":12068,"Ġhabitual":12069,"secting":12070,"Ġsquatting":12071,"Ġmeasured":12072,"Ġextremely":12073,"Ġgrief":12074,"Ġcrocod":12075,"Ġpetrif":12076,"Ġladen":12077,"ĠMorehouse":12078,"Ġsuspicions":12079,"difficult":12080,"occup":12081,"stein":12082,"Ġreversed":12083,"Ġtreatment":12084,"Ġwhirl":12085,"hippers":12086,"Another":12087,"Ġmulti":12088,"Ġmultip":12089,"uspic":12090,"Ġbarked":12091,"speech":12092,"Ġhappenings":12093,"Ġcurtain":12094,"ĠFenham":12095,"Ġshantaks":12096,"Ġunwilling":12097,"ĠDoctor":12098,"Ġmessengers":12099,"ĠQuentin":12100,"Ġreckoned":12101,"Ġimperfect":12102,"ĠRomnod":12103,"Ġlapse":12104,"ustrated":12105,"supply":12106,"Ġautomatically":12107,"approached":12108,"Ġtownsfolk":12109,"Ġwisdom":12110,"Ġpiercing":12111,"Ġkingdom":12112,"Ġreflecting":12113,"Ġlunar":12114,"Ġvenom":12115,"wondered":12116,"Ġcupboard":12117,"Ġreassuring":12118,"Ġsilhouette":12119,"laboratory":12120,"paved":12121,"Ġliterally":12122,"Ġsurvivor":12123,"Ġsurvival":12124,"Ġpositively":12125,"Ġlucky":12126,"Ġrecollections":12127,"ximity":12128,"Ġgasping":12129,"Ġsketch":12130,"vaguely":12131,"golden":12132,"Ġsceptical":12133,"Ġnineteenth":12134,"Ġwhistling":12135,"Ġpermanently":12136,"Ġdeposit":12137,"satisf":12138,"Ġingen":12139,"Ġtalisman":12140,"ozo":12141,"children":12142,"ĠCalifornia":12143,"Ġpreparation":12144,"Ġduplicate":12145,"frequent":12146,"Ġtoughness":12147,"Ġborder":12148,"Ġlonge":12149,"Ġdocuments":12150,"corner":12151,"learned":12152,"Ġgait":12153,"Ġsoothing":12154,"Ġpurchased":12155,"Ġridicule":12156,"Ġbubbles":12157,"Ã¡n":12158,"Ġmentally":12159,"Ġinscription":12160,"Ġinscriptions":12161,"ĠTanner":12162,"Ġankles":12163,"thropoid":12164,"Ġunimaginable":12165,"ĠSteve":12166,"Ġsurmounted":12167,"Ġdrowsy":12168,"Ġdegenerate":12169,"paper":12170,"Ġbonds":12171,"Ġgeometrical":12172,"million":12173,"Ġooze":12174,"Ġmaiden":12175,"Ġhalting":12176,"Ġconjured":12177,"Ġshutters":12178,"perfectly":12179,"Ġambiguous":12180,"Ġimpatient":12181,"ĠQueen":12182,"Ġprinciple":12183,"Edward":12184,"ghouls":12185,"ĠOsborn":12186,"Ġincessant":12187,"hemistry":12188,"Ġopportunity":12189,"ĠHorror":12190,"ĠMassachusetts":12191,"Ġmagnificent":12192,"Ġvampir":12193,"ĠCastro":12194,"Ġscholarship":12195,"Ġloungers":12196,"Ġgenealogical":12197,"Ġeerie":12198,"ĠMerwin":12199,"ĠItalian":12200,"ĠDavis":12201,"growth":12202,"Ġacquaintance":12203,"Ġadequate":12204,"Ġethn":12205,"ĠAustralian":12206,"Ġquivering":12207,"ĠPriory":12208,"Ġprismatic":12209,"Ġseclusion":12210,"Ġdramatic":12211,"crystal":12212,"Whether":12213,"Ġtonight":12214,"Ġreddish":12215,"ĠCathuria":12216,"hierogly":12217,"Ġvehicle":12218,"Ġinfrequent":12219,"Ġphotographed":12220,"ylesbury":12221,"Ġtorso":12222,"Ġmellow":12223,"Ġforefathers":12224,"repeated":12225,"Ġwizards":12226,"Ġhoneycombed":12227,"Ġoctopus":12228,"Auseil":12229,"klahoma":12230,"ancholy":12231,"ĠSargent":12232,"Ġfebrile":12233,".âĢĶ":12234,":âĢĶ":12235,"Are":12236,"Acc":12237,"Bar":12238,"CH":12239,"Ch":12240,"Cy":12241,"Cur":12242,"Dun":12243,"ET":12244,"El":12245,"EING":12246,"Good":12247,"Har":12248,"James":12249,"Look":12250,"Mad":12251,"Never":12252,"See":12253,"Tha":12254,"aÃ«":12255,"bi":12256,"bab":12257,"bright":12258,"cat":12259,"cious":12260,"cru":12261,"cavern":12262,"dling":12263,"div":12264,"fly":12265,"fever":12266,"flight":12267,"further":12268,"gat":12269,"gressed":12270,"hig":12271,"huge":12272,"iel":12273,"iery":12274,"jar":12275,"kill":12276,"lower":12277,"langu":12278,"mile":12279,"mult":12280,"museum":12281,"mma":12282,"oon":12283,"oard":12284,"pot":12285,"pain":12286,"pents":12287,"pros":12288,"pron":12289,"position":12290,"rr":12291,"run":12292,"shat":12293,"song":12294,"spl":12295,"save":12296,"sides":12297,"tis":12298,"tot":12299,"tion":12300,"tong":12301,"trying":12302,"talked":12303,"uin":12304,"uity":12305,"upper":12306,"vious":12307,"vised":12308,"valley":12309,"wed":12310,"wave":12311,"wors":12312,"yman":12313,"za":12314,"ĠÃ":12315,"Ġurban":12316,"Ġversion":12317,"Ġtene":12318,"Ġtug":12319,"Ġtattered":12320,"Ġtests":12321,"Ġtainted":12322,"Ġtugged":12323,"Ġtissue":12324,"heme":12325,"Ġaustere":12326,"instr":12327,"inels":12328,"inarily":12329,"Ġthee":12330,"report":12331,"resemb":12332,"Ġwha":12333,"Ġwants":12334,"Ġsord":12335,"Ġsuthin":12336,"nding":12337,"haired":12338,"habea":12339,"edly":12340,"edge":12341,"Ġbone":12342,"Ġbattered":12343,"Ġbenefit":12344,"Ġbenches":12345,"Ġmit":12346,"Ġmarsh":12347,"Ġmuddy":12348,"Ġfol":12349,"Ġfence":12350,"Ġfaun":12351,"Ġfiles":12352,"Ġfumbled":12353,"Ġfilling":12354,"Ġfrig":12355,"Ġfuel":12356,"Ġcure":12357,"Ġcasket":12358,"onted":12359,"ese":12360,"orse":12361,"oria":12362,"isc":12363,"isl":12364,"Ġdom":12365,"Ġdinner":12366,"Ġdazz":12367,"asies":12368,"ange":12369,"athas":12370,"Ġpic":12371,"Ġpious":12372,"Ġpatch":12373,"Ġpacing":12374,"Ġpulse":12375,"Ġpawed":12376,"Ġpione":12377,"Ġlull":12378,"Ġhood":12379,"Ġhunted":12380,"Ġhipp":12381,"ombr":12382,"omeness":12383,"ici":12384,"Ġhan":12385,"Ġhail":12386,"Ġhaff":12387,"least":12388,"stra":12389,"step":12390,"stop":12391,"stair":12392,"stories":12393,"alp":12394,"owen":12395,"Ġbeacon":12396,"Ġgerm":12397,"Ġgarg":12398,"Ġeh":12399,"Ġere":12400,"sel":12401,"sex":12402,"seven":12403,"Ġhey":12404,"Ġheath":12405,"utral":12406,"veiled":12407,"Ġredu":12408,"urably":12409,"Ġwholesale":12410,"Ġstumbling":12411,"Ġstaff":12412,"Ġstupef":12413,"roe":12414,"rodden":12415,"ĠTw":12416,"ĠTha":12417,"ĠTell":12418,"Ġascertain":12419,"eches":12420,"thod":12421,"third":12422,"thousand":12423,"Ġnoticing":12424,"allow":12425,"allowed":12426,"andy":12427,"andom":12428,"ulent":12429,"ulity":12430,"ilted":12431,"ilment":12432,"iller":12433,"ĠAylesbury":12434,"Ġvestig":12435,"ĠTheod":12436,"emer":12437,"odour":12438,"oled":12439,"olated":12440,"Ġrhe":12441,"Ġrash":12442,"Ġrumbling":12443,"Ġrattle":12444,"Ġragged":12445,"Ġrandom":12446,"Ġsuic":12447,"Ġunner":12448,"Ġunison":12449,"Ġuneven":12450,"Ġunearthed":12451,"Ġunharmed":12452,"ĠSor":12453,"ĠSle":12454,"ĠSnake":12455,"ĠSentinel":12456,"ppling":12457,"elong":12458,"ĠHist":12459,"ĠHell":12460,"ĠHope":12461,"ĠHills":12462,"ĠHimalay":12463,"ĠHannah":12464,"Ġorb":12465,"local":12466,"istency":12467,"usual":12468,"Ġspades":12469,"Ġalle":12470,"Ġallied":12471,"ĠWise":12472,"unseen":12473,"unconscious":12474,"unmistak":12475,"Ġcong":12476,"herman":12477,"ĠCur":12478,"ĠChand":12479,"Ġdeed":12480,"Ġdeem":12481,"ĠMed":12482,"ĠMon":12483,"ĠMac":12484,"ĠMess":12485,"ĠMil":12486,"ĠMather":12487,"Ġsock":12488,"Ġalco":12489,"ptuous":12490,"ĠoutrÃ©":12491,"Ġshimmering":12492,"Ġleprous":12493,"Ġisle":12494,"Ġislet":12495,"ranging":12496,"Ġplacing":12497,"Ġplaza":12498,"Ġweathered":12499,"ĠBed":12500,"ĠBaharna":12501,"ĠOdd":12502,"ĠOften":12503,"Ġrobbed":12504,"arers":12505,"Ġyouths":12506,"lix":12507,"liest":12508,"Ġarche":12509,"ledged":12510,"Ġbless":12511,"Ġblows":12512,"Ġblowing":12513,"ĠDet":12514,"Ġquart":12515,"ĠPress":12516,"ĠPurdy":12517,"ĠPillars":12518,"apsed":12519,"Ġprojected":12520,"Ġproceeding":12521,"ĠNar":12522,"Ġscare":12523,"Ġscatter":12524,"Ġscreen":12525,"Ġimplications":12526,"Ġimmeas":12527,"Ġanyhow":12528,"Ġdisastrous":12529,"ĠGovernor":12530,"pler":12531,"pling":12532,"plain":12533,"ishness":12534,"Ġgrows":12535,"Ġshabby":12536,"Ġnowhere":12537,"Ġtru":12538,"Ġtrump":12539,"Ġtrusted":12540,"ĠEm":12541,"Ġju":12542,"Ġjer":12543,"Ġjar":12544,"Ġjob":12545,"Ġjade":12546,"Ġjumped":12547,"Ġjumble":12548,"Ġfevered":12549,"Ġbrow":12550,"ĠFinding":12551,"ĠFortunately":12552,"ĠLo":12553,"ĠLess":12554,"ĠLast":12555,"ĠLife":12556,"ĠLie":12557,"ĠLaw":12558,"Ġamulet":12559,"Ġamateur":12560,"beheld":12561,"Ġglories":12562,"fts":12563,"spoke":12564,"ensity":12565,"scale":12566,"Ġflute":12567,"Ġflower":12568,"Ġflapped":12569,"Ġflabby":12570,"exact":12571,"existed":12572,"expect":12573,"Ġappe":12574,"Ġappointment":12575,"ollow":12576,"ireless":12577,"Ġformal":12578,"Ġcannib":12579,"Ġfarthest":12580,"Ġrecovery":12581,"Ġreceded":12582,"Ġpraying":12583,"harbour":12584,"Ġdaytime":12585,"Ġpoised":12586,"Ġprem":12587,"Ġprejud":12588,"Ġbecomes":12589,"bergen":12590,"Ġbacks":12591,"Ġpeep":12592,"Ġpeering":12593,"Ġpeasant":12594,"Ġparties":12595,"Ġsomethin":12596,"Ġthoughtful":12597,"Ġimply":12598,"Ġimpress":12599,"ultan":12600,"Ġsecurity":12601,"Ġincline":12602,"Ġhandled":12603,"Ġchurches":12604,"Ġeyed":12605,"Ġcontempl":12606,"Ġnortherly":12607,"ĠYanke":12608,"Ġblacks":12609,"notice":12610,"grasp":12611,"ubitably":12612,"Ġintrodu":12613,"Ġcargo":12614,"Ġcarpet":12615,"Ġundergone":12616,"Ġgoat":12617,"Ġtribut":12618,"ĠKanak":12619,"Ġnearness":12620,"Ġnewer":12621,"brother":12622,"Ġrepair":12623,"Ġdecayed":12624,"Ġsubjected":12625,"Ġgug":12626,"Ġacknow":12627,"attened":12628,"Ġworkshop":12629,"Ġchained":12630,"Ġheadquarters":12631,"Ġcausing":12632,"ervoir":12633,"umblings":12634,"Ġjustified":12635,"Ġstonework":12636,"Ġnothingness":12637,"Ġopenings":12638,"Ġswitch":12639,"Ġswollen":12640,"Ġdeter":12641,"clad":12642,"Ġawoke":12643,"Ġstrown":12644,"Ġstride":12645,"ibon":12646,"ibule":12647,"obile":12648,"inshield":12649,"getting":12650,"Ġlessened":12651,"mean":12652,"means":12653,"compan":12654,"Ġcoroner":12655,"ithering":12656,"Ġfamilies":12657,"enger":12658,"engers":12659,"sues":12660,"Ġseaward":12661,"Ġsunless":12662,"prin":12663,"prison":12664,"Ġextrem":12665,"Ġcolor":12666,"Ġdepressed":12667,"ologically":12668,"arrow":12669,"Ġreferred":12670,"Ġinterstell":12671,"Ġriot":12672,"Ġesp":12673,"Ġesoter":12674,"ĠUnder":12675,"Ġeffig":12676,"centre":12677,"Ġneedless":12678,"Ġmystics":12679,"Ġconserv":12680,"efully":12681,"blazing":12682,"disappeared":12683,"discovery":12684,"Ġsentries":12685,"Ġsentiment":12686,"Ġsentinels":12687,"aspect":12688,"Ġexperimental":12689,"Ġwarnings":12690,"hyp":12691,"formul":12692,"worth":12693,"evidence":12694,"altered":12695,"ĠAnn":12696,"ĠAnathas":12697,"Ġhappiness":12698,"Ġutterance":12699,"Ġmining":12700,"Ġdrinking":12701,"Ġcreaked":12702,"Ġdrops":12703,"Ġaffect":12704,"Ġuncounted":12705,"Ġassign":12706,"Ġassurance":12707,"Ġveered":12708,"ĠIndies":12709,"Ġencro":12710,"Ġencourage":12711,"Ġtransmit":12712,"Ġhelping":12713,"spector":12714,"symb":12715,"Ġtorment":12716,"Ġhearth":12717,"Ġcircuit":12718,"panic":12719,"panelled":12720,"Ġ24":12721,"Ġ28":12722,"Ġsloping":12723,"placeable":12724,"Ġbespoke":12725,"points":12726,"shend":12727,"Ġshrivelled":12728,"Ġmodest":12729,"Ġtablets":12730,"Ġhooves":12731,"priv":12732,"ilton":12733,"ĠSomehow":12734,"Ġspectacled":12735,"Ġsimultaneously":12736,"Ġvanish":12737,"true":12738,"ĠClark":12739,"ĠTobey":12740,"Ġguesses":12741,"rested":12742,"recall":12743,"Ġbreed":12744,"Ġbreast":12745,"Ġeffective":12746,"Ġservices":12747,"guise":12748,"Ġmessages":12749,"greatest":12750,"Ġinclude":12751,"Ġinferred":12752,"ĠAlmost":12753,"Ġtyped":12754,"aeons":12755,"ĠBehind":12756,"Ġcalam":12757,"Ġfeverishly":12758,"Ġgrocery":12759,"Ġexception":12760,"Ġlurid":12761,"Ġcultivated":12762,"Ġfantasy":12763,"Ġsufferer":12764,"Ġdestination":12765,"Ġconvulsed":12766,"Ġestimate":12767,"Ġhinting":12768,"Ġstretching":12769,"ĠAbove":12770,"Ġjoint":12771,"Ġboundless":12772,"written":12773,"Ġunclean":12774,"Ġengaged":12775,"Ġtelegram":12776,"dreaming":12777,"Ġblend":12778,"carven":12779,"Ġdisturbingly":12780,"ĠMoon":12781,"Ġguarding":12782,"Ġbursting":12783,"goin":12784,"Ġdemanded":12785,"marvell":12786,"Ġdenied":12787,"Ġtravelling":12788,"Ġunfathomed":12789,"hythms":12790,"Ġcapital":12791,"Ġstorms":12792,"chance":12793,"Ġstrangest":12794,"Ġpotter":12795,"Ġechoing":12796,"ĠReis":12797,"Ġtexture":12798,"Ġresembling":12799,"Ġstarfish":12800,"ĠPole":12801,"Ġmuseums":12802,"Ġrepeatedly":12803,"joining":12804,"Ġmechanically":12805,"explan":12806,"Ġspecialist":12807,"Ġpipe":12808,"Ġstruggles":12809,"Ġstupid":12810,"Ġpursuers":12811,"Ġmagnitude":12812,"Ġassociation":12813,"Ġfascinating":12814,"Ġloudly":12815,"Ġweaker":12816,"Ġproperly":12817,"Ġpretended":12818,"Ġbottomless":12819,"breaking":12820,"Ġtimbre":12821,"Ġlegal":12822,"Ġbalustr":12823,"ributed":12824,"Ġwearing":12825,"immers":12826,"Ġstuffed":12827,"Ġpeaceful":12828,"character":12829,"Ġregularity":12830,"Ġdestroying":12831,"Ġsoutherly":12832,"Ġphenomenal":12833,"Ġmythology":12834,"Ġbrothers":12835,"Ġdetective":12836,"Ġbeliefs":12837,"edediah":12838,"Ġfilthy":12839,"Ġchilly":12840,"Ġfighting":12841,"Ġstagnant":12842,"Ġcrucifix":12843,"Ġvirtual":12844,"Ġ154":12845,"Ġofficer":12846,"Ġfatal":12847,"Ġphantasy":12848,"ĠTerra":12849,"Ġcharacteristic":12850,"limited":12851,"suggested":12852,"Ġwarmth":12853,"Ġastonishment":12854,"Ġpopulation":12855,"ĠSpain":12856,"dimensions":12857,"Ġwhirring":12858,"Ġsorrow":12859,"Ġclusters":12860,"Ġcombination":12861,"Ġlitter":12862,"Ġmelancholy":12863,"specimens":12864,"Ġpoisonous":12865,"Ġmultitude":12866,"Ġskulls":12867,"Ġsymbolism":12868,"ĠMartin":12869,"depths":12870,"Ġrespective":12871,"Ġmanifestations":12872,"Ġtrickled":12873,"Ġdevelopments":12874,"silence":12875,"Ġdilated":12876,"study":12877,"recognisable":12878,"THE":12879,"Ġravings":12880,"Ġattendant":12881,"Ġsearchers":12882,"Ġsavagely":12883,"palis":12884,"Ġlapsed":12885,"Ġhammer":12886,"Ġuncommon":12887,"Ġattributes":12888,"Ġapprehensive":12889,"Ġintensely":12890,"Ġwishes":12891,"ĠShapes":12892,"Ġsatisfaction":12893,"vasive":12894,"Ġmerged":12895,"Ġexhaustive":12896,"ztec":12897,"Ġoperations":12898,"Ġuniverses":12899,"Ġexecut":12900,"Ġexecution":12901,"Ġperfection":12902,"Ġperfumed":12903,"Ġobservations":12904,"Ġindividuals":12905,"sunset":12906,"Ġliterary":12907,"ĠTownshend":12908,"Ġtemporarily":12909,"Ġtranslation":12910,"Ġemployed":12911,"frantic":12912,"Ġsprung":12913,"listen":12914,"Ġcrags":12915,"Ġhomestead":12916,"Ġlogic":12917,"Ġintensified":12918,"judged":12919,"westward":12920,"Ġrudimentary":12921,"Ġsenior":12922,"Ġscepticism":12923,"physical":12924,"Ġdeposits":12925,"Ġcobwebbed":12926,"Prof":12927,"Ġturrets":12928,"Ġtapering":12929,"Ġobeyed":12930,"Ġseventeen":12931,"Ġscrambling":12932,"Ġmurderer":12933,"ĠBelow":12934,"Ġhallucinations":12935,"destro":12936,"vertis":12937,"Ġremoteness":12938,"Ġgreeted":12939,"Ġsympathy":12940,"Ġcalculated":12941,"responsible":12942,"Ġwrapped":12943,"archaic":12944,"Ġnucleus":12945,"streets":12946,"Ġrewarded":12947,"Ġsepulchre":12948,"Ġproducts":12949,"Everything":12950,"fashion":12951,"ijah":12952,"ĠCongregational":12953,"intelligence":12954,"propert":12955,"Ġtraffic":12956,"Ġtraffick":12957,"Ġdiabolic":12958,"Ġresponded":12959,"Ġstraggling":12960,"Ġphantasms":12961,"fancied":12962,"Ġtourists":12963,"Ġmilitary":12964,"Ġfishes":12965,"Ġpulsing":12966,"ructive":12967,"Ġrecluse":12968,"Ġgorgeous":12969,"tremendous":12970,"Ġbabel":12971,"Ġfainting":12972,"Ġcherished":12973,"Ġdisintegration":12974,"structure":12975,"Ġestablishment":12976,"crossing":12977,"swept":12978,"instinct":12979,"stopped":12980,"Ġseventh":12981,"lizards":12982,"ĠPharaoh":12983,"Ġkinship":12984,"Ġeducation":12985,"Ġpestil":12986,"Ġstalact":12987,"Ġconveyed":12988,"ĠClose":12989,"Ġjewellery":12990,"climbed":12991,"electric":12992,"various":12993,"Ġtaown":12994,"Ġfugitive":12995,"Ġdynam":12996,"Ġdeduced":12997,"Ġforbade":12998,"Ġgratitude":12999,"ĠRichard":13000,"Ġchronicle":13001,"Ġblossoms":13002,"Ġindifferent":13003,"Ġembalming":13004,"cylinder":13005,"micircle":13006,"Ġbattles":13007,"immediate":13008,"Ġabstract":13009,"neighbour":13010,"Ġcaravan":13011,"Ġlandlord":13012,"Ġmembraneous":13013,"answered":13014,"Presently":13015,"ĠWoods":13016,"Ġaggrav":13017,"Ġperpendicular":13018,"Ġrepetition":13019,"Ġrelentless":13020,"Ġfissure":13021,"Ġanguish":13022,"Ġunbearable":13023,"psych":13024,"Ġadopt":13025,"Ġharboured":13026,"Ġstealthily":13027,"important":13028,"Ġarabesques":13029,"ĠStanfield":13030,"mysteries":13031,"Ġpanorama":13032,"Ġdisposal":13033,"gorge":13034,"Ġtragic":13035,"ĠCrowninshield":13036,"Ġamusement":13037,"Ġreligion":13038,"Ġemissaries":13039,"Ġpathetic":13040,"purgis":13041,"Tighe":13042,"inoculars":13043,"ouraging":13044,"ĠMunroe":13045,"pleasantly":13046,"Ġincoherent":13047,"tinguished":13048,"ozoic":13049,"gathere":13050,"Ġsordid":13051,"ombrowski":13052,"Ġarchety":13053,"Ġinterstellar":13054,".]":13055,"16":13056,"Brown":13057,"Come":13058,"Camb":13059,"Certainly":13060,"Emma":13061,"Gaz":13062,"HH":13063,"IL":13064,"Joseph":13065,"Nyl":13066,"OI":13067,"Over":13068,"Pri":13069,"Sc":13070,"Sl":13071,"Su":13072,"Teg":13073,"War":13074,"Wil":13075,"Weed":13076,"burn":13077,"cas":13078,"cred":13079,"cong":13080,"cord":13081,"da":13082,"dem":13083,"dread":13084,"daughter":13085,"fing":13086,"fro":13087,"fles":13088,"fav":13089,"fair":13090,"fix":13091,"fiend":13092,"family":13093,"gle":13094,"gent":13095,"glo":13096,"gage":13097,"gged":13098,"gained":13099,"gulf":13100,"ghast":13101,"gentle":13102,"hur":13103,"hope":13104,"ios":13105,"ients":13106,"iantly":13107,"jorie":13108,"kal":13109,"ket":13110,"lantic":13111,"mid":13112,"mant":13113,"mond":13114,"math":13115,"mine":13116,"move":13117,"matic":13118,"meth":13119,"nu":13120,"numbered":13121,"oi":13122,"ois":13123,"oors":13124,"py":13125,"pto":13126,"phi":13127,"parent":13128,"pier":13129,"phenomen":13130,"ras":13131,"rat":13132,"racked":13133,"sand":13134,"science":13135,"source":13136,"treat":13137,"turn":13138,"tick":13139,"tree":13140,"tunnel":13141,"uble":13142,"vict":13143,"wan":13144,"wark":13145,"wrigg":13146,"xagonal":13147,"yn":13148,"yal":13149,"yield":13150,"zanek":13151,"Ġurb":13152,"Ġidly":13153,"Ġurns":13154,"Ġtis":13155,"Ġtun":13156,"hewn":13157,"Ġaching":13158,"Ġajar":13159,"inf":13160,"inings":13161,"inently":13162,"invol":13163,"instead":13164,"Ġoaken":13165,"Ġowing":13166,"rear":13167,"reality":13168,"Ġwider":13169,"Ġwishing":13170,"Ġwagon":13171,"Ġwipe":13172,"Ġsore":13173,"Ġsart":13174,"erning":13175,"eningly":13176,"enetrable":13177,"Ġbid":13178,"Ġbind":13179,"Ġbust":13180,"Ġbag":13181,"Ġbass":13182,"Ġbath":13183,"Ġbabbled":13184,"Ġbinoculars":13185,"Ġmural":13186,"Ġfem":13187,"Ġfix":13188,"Ġfired":13189,"Ġfierce":13190,"Ġfestering":13191,"Ġfolds":13192,"Ġfht":13193,"Ġcac":13194,"Ġcad":13195,"Ġcum":13196,"Ġcant":13197,"Ġcages":13198,"itar":13199,"isance":13200,"ishable":13201,"arling":13202,"aroused":13203,"Ġdial":13204,"Ġdanc":13205,"Ġdict":13206,"Ġdining":13207,"Ġdiverse":13208,"Ġtos":13209,"Ġtore":13210,"anic":13211,"analy":13212,"Ġinscribed":13213,"Ġpir":13214,"Ġpine":13215,"Ġpail":13216,"Ġpaying":13217,"Ġpush":13218,"Ġpunct":13219,"Ġparson":13220,"Ġlam":13221,"Ġlair":13222,"Ġlasted":13223,"Ġlosing":13224,"Ġnaught":13225,"Ġhound":13226,"omical":13227,"icit":13228,"Ġhaz":13229,"Ġhats":13230,"Ġhapless":13231,"leave":13232,"leather":13233,"stat":13234,"stery":13235,"albergen":13236,"Ġgarr":13237,"ota":13238,"Ġegg":13239,"Ġerect":13240,"separ":13241,"Ġheirs":13242,"Ġthir":13243,"entrance":13244,"imau":13245,"imately":13246,"imilar":13247,"acre":13248,"acer":13249,"achable":13250,"ida":13251,"Ġreeling":13252,"Ġwhor":13253,"verty":13254,"adian":13255,"ammal":13256,"ceive":13257,"ceiving":13258,"ĠTra":13259,"ĠToward":13260,"river":13261,"rious":13262,"riers":13263,"riff":13264,"irable":13265,"irts":13266,"Ġforcing":13267,"Ġasp":13268,"Ġanthropoid":13269,"ayer":13270,"aine":13271,"threat":13272,"thorough":13273,"Ġsell":13274,"Ġseared":13275,"Ġsemb":13276,"ulses":13277,"iless":13278,"ilant":13279,"ilings":13280,"chuck":13281,"illage":13282,"ĠAhead":13283,"ĠAunt":13284,"Ġvaster":13285,"Ġvulg":13286,"emeter":13287,"odak":13288,"odies":13289,"oderm":13290,"Ġyel":13291,"Ġyew":13292,"olas":13293,"Ġram":13294,"Ġrude":13295,"Ġrugged":13296,"Ġsustained":13297,"Ġmeagre":13298,"Ġbutcher":13299,"umps":13300,"reds":13301,"inde":13302,"ragan":13303,"Ġunb":13304,"Ġunident":13305,"Ġunlighted":13306,"Ġunplaceable":13307,"ĠSur":13308,"ĠSix":13309,"ĠSeven":13310,"ppings":13311,"elier":13312,"esting":13313,"estruck":13314,"ources":13315,"Ġsprawled":13316,"aston":13317,"Ġalliance":13318,"Ġexert":13319,"Ġabated":13320,"Ġabomination":13321,"unch":13322,"unaccount":13323,"unnamable":13324,"Ġconsequences":13325,"antal":13326,"hernalia":13327,"tops":13328,"ĠCab":13329,"ĠMe":13330,"ĠMin":13331,"ĠMis":13332,"ĠMat":13333,"ĠMount":13334,"ĠManton":13335,"ĠMonday":13336,"Ġuphill":13337,"Ġoutset":13338,"vened":13339,"Ġknoll":13340,"Ġshines":13341,"Ġshots":13342,"Ġshuttered":13343,"Ġleis":13344,"idea":13345,"Ġplants":13346,"Ġploughed":13347,"Ġweigh":13348,"ĠBrit":13349,"ĠBurns":13350,"ĠBowen":13351,"abnorm":13352,"ephe":13353,"ĠOF":13354,"ĠOorn":13355,"ĠOklahoma":13356,"Ġlivest":13357,"ortality":13358,"Ġnebul":13359,"Ġneutral":13360,"Ġbland":13361,"Ġblame":13362,"artificial":13363,"âĢĿ!":13364,"ĠDE":13365,"ĠDO":13366,"ĠDick":13367,"ĠDombrowski":13368,"Ġqual":13369,"Ġquote":13370,"ĠPan":13371,"ĠPet":13372,"ĠPower":13373,"foreign":13374,"Ġproximity":13375,"Ġprogressed":13376,"ĠNith":13377,"Ġscor":13378,"Ġscore":13379,"Ġscared":13380,"Ġscrap":13381,"Ġscurrying":13382,"Ġscenery":13383,"Ġimpl":13384,"Ġimitation":13385,"ĠGe":13386,"ĠGize":13387,"Ġcloth":13388,"Ġgrating":13389,"Ġgrade":13390,"arkable":13391,"oodoo":13392,"inea":13393,"Ġsheltered":13394,"ĠEver":13395,"Ġaftermath":13396,"Ġjealous":13397,"Ġdeserved":13398,"Ġbrittle":13399,"ĠFour":13400,"ĠFate":13401,"ĠForm":13402,"ĠFalls":13403,"Ġamazing":13404,"Ġglam":13405,"Ġglimmering":13406,"Ġwhereabouts":13407,"atern":13408,"cipl":13409,"civil":13410,"spring":13411,"splend":13412,"spoken":13413,"ĠRuell":13414,"Ġhordes":13415,"Ġpervasive":13416,"Ġflows":13417,"Ġfoundation":13418,"inks":13419,"ruly":13420,"Ġaren":13421,"Ġcurves":13422,"Ġcursing":13423,"Ġhers":13424,"Ġformations":13425,"Ġremove":13426,"ileptic":13427,"Ġslaughter":13428,"Ġpoverty":13429,"Ġboarding":13430,"ossibly":13431,"Ġmocked":13432,"Ġ14":13433,"Ġsmelled":13434,"conqu":13435,"concent":13436,"contr":13437,"Ġkitten":13438,"Ġkaleidoscop":13439,"Ġimpelled":13440,"Ġimprison":13441,"Ġimpulses":13442,"attery":13443,"anche":13444,"ulture":13445,"acht":13446,"Ġsecurely":13447,"ĠThereafter":13448,"Ġincense":13449,"Ġinciner":13450,"Ġincantations":13451,"Ġhandful":13452,"Ġhandbag":13453,"Ġchin":13454,"Ġevolved":13455,"Ġcloak":13456,"Ġcloaked":13457,"ĠAnderson":13458,"Ġcontempt":13459,"note":13460,"grim":13461,"graded":13462,"Ġcrit":13463,"Ġcracks":13464,"Ġcrashed":13465,"Ġintended":13466,"Ġcarriage":13467,"Ġcarnivorous":13468,"Ġaccordingly":13469,"arshes":13470,"Ġsurve":13471,"Ġsurpassing":13472,"Ġgoin":13473,"Ġtriangular":13474,"Ġdarkest":13475,"Ġdarkening":13476,"avitt":13477,"Ġthence":13478,"ĠKnow":13479,"Ġadult":13480,"strained":13481,"brids":13482,"wept":13483,"Ġrepug":13484,"Ġrepelled":13485,"Ġreprodu":13486,"Ġdecent":13487,"Ġdeciphered":13488,"Ġsubway":13489,"Ġsuburb":13490,"Ġsubstantial":13491,"Ġguinea":13492,"ĠStephen":13493,"myth":13494,"attempt":13495,"Ġowners":13496,"Ġreson":13497,"Ġresisted":13498,"Ġreserved":13499,"Ġwrinkled":13500,"Ġchas":13501,"Ġchains":13502,"Ġchallen":13503,"Ġcalend":13504,"otton":13505,"Ġvoiceless":13506,"Ġsets":13507,"Ġlethar":13508,"Ġacts":13509,"azar":13510,"Ġsmallest":13511,"Ġswath":13512,"Ġsworn":13513,"Ġdetritus":13514,"Ġhillock":13515,"Ġawestruck":13516,"obser":13517,"Ġwaved":13518,"Ġsleek":13519,"Ġcorruption":13520,"Ġcorrobor":13521,"versal":13522,"Ġdeeps":13523,"Ġmetals":13524,"Ġsightless":13525,"ĠVas":13526,"ĠVict":13527,"ĠVirgin":13528,"Ġburg":13529,"nocturnal":13530,"Ġdelvings":13531,"Ġcompound":13532,"Ġcompare":13533,"Ġcompartment":13534,"Ġbrook":13535,"arrant":13536,"Ġinvited":13537,"Ġinvention":13538,"Ġinvaded":13539,"Ġrefer":13540,"Ġbloated":13541,"Ġinterment":13542,"Ġinterpre":13543,"Ġinternal":13544,"Ġrivers":13545,"Ġbelated":13546,"Ġeminence":13547,"Ġindec":13548,"Ġbelieving":13549,"Ġbelieves":13550,"Ġgoods":13551,"proc":13552,"produ":13553,"prodigious":13554,"produced":13555,"flame":13556,"Ġdevise":13557,"Ġdevotion":13558,"Ġsquirm":13559,"Ġconsistency":13560,"ĠZin":13561,"ĠZim":13562,"Ġdiffered":13563,"ienne":13564,"Ġsensational":13565,"Ġsyringe":13566,"blind":13567,"Ġserving":13568,"Ġsentient":13569,"Ġsentinel":13570,"Ġfullest":13571,"Ġhardened":13572,"Ġwarri":13573,"Ġconfirmed":13574,"ounge":13575,"Ġirresist":13576,"Ġroadway":13577,"Ġminers":13578,"Ġconsciously":13579,"Ġdrain":13580,"Ġdrained":13581,"Ġdriver":13582,"Ġpolite":13583,"Ġrecalls":13584,"Ġcreak":13585,"ĠStreets":13586,"ĠJohns":13587,"Ġviewing":13588,"minated":13589,"coast":13590,"coated":13591,"underground":13592,"Ġveins":13593,"Ġtransom":13594,"Ġlabour":13595,"Ġlabourers":13596,"udded":13597,"Ġphysi":13598,"Ġphysique":13599,"Ġdiagrams":13600,"system":13601,"Ġstandards":13602,"Ġwonderful":13603,"remain":13604,"remarkable":13605,"Ġ27":13606,"Ġ200":13607,"Ġverified":13608,"regarded":13609,"shewn":13610,"Ġtenants":13611,"Ġpanel":13612,"curt":13613,"Ġhopped":13614,"Ġstopping":13615,"Ġreverence":13616,"Ġspectrally":13617,"trace":13618,"Ġdamaged":13619,"incident":13620,"Ġstrongest":13621,"Ġwatchman":13622,"empty":13623,"umbering":13624,"Ġbrig":13625,"rably":13626,"smoke":13627,"Ġ186":13628,"Ġbreathe":13629,"Ġinfancy":13630,"Ġinfamous":13631,"holds":13632,"Ġobscured":13633,"burg":13634,"iacal":13635,"Ġequator":13636,"Ġexaminer":13637,"Ġafresh":13638,"Ġsixty":13639,"Ġpainful":13640,"Ġsettling":13641,"Ġpassageway":13642,"accustomed":13643,"contained":13644,"Ġheightened":13645,"Ġsuffer":13646,"Ġhistoric":13647,"Ġappearing":13648,"Ġaspects":13649,"ĠNorman":13650,"Ġdescendants":13651,"ritory":13652,"ritual":13653,"Ġmercy":13654,"Ġvoluminous":13655,"presently":13656,"preservation":13657,"offic":13658,"wooden":13659,"Ġsizeable":13660,"Ġbounds":13661,"Ġstatements":13662,"ĠManuel":13663,"Ġdeserts":13664,"moil":13665,"isticated":13666,"Ġemptiness":13667,"thoughts":13668,"Ġengage":13669,"Ġmission":13670,"Ġdogged":13671,"Ġtrading":13672,"Ġnumberless":13673,"Ġcrystals":13674,"Ġnecessity":13675,"Ġidentical":13676,"Ġnotebook":13677,"Ġrustling":13678,"Ġgrasses":13679,"Ġnonce":13680,"Ġbricks":13681,"Ġspiritual":13682,"phalic":13683,"ĠChina":13684,"Ġparticip":13685,"sociated":13686,"Ġtottered":13687,"Ġhundreds":13688,"partly":13689,"particular":13690,"Ġembarr":13691,"Ġbafflement":13692,"arnished":13693,"ĠDeep":13694,"Ġprimary":13695,"Ġbreathlessly":13696,"didn":13697,"Ġdwellers":13698,"Ġignored":13699,"Ġdisplaced":13700,"Ġvaporous":13701,"Ġ1927":13702,"besides":13703,"raction":13704,"ĠReef":13705,"ĠComte":13706,"Ġcoffee":13707,"Ġmalignity":13708,"Ġdetermine":13709,"Ġsystematic":13710,"Ġgeology":13711,"column":13712,"members":13713,"Ġfaery":13714,"Ġconversations":13715,"Ġacquire":13716,"Ġcommunicated":13717,"situation":13718,"Ġassociates":13719,"Ġarmies":13720,"Ġclasses":13721,"Ġperilously":13722,"Ġpretend":13723,"Ġtimber":13724,"Ġsickening":13725,"Ġchiefs":13726,"Ġchiefly":13727,"ĠBarbour":13728,"ventually":13729,"Ġislands":13730,"Ġterraced":13731,"Ġrevolting":13732,"Ġdisappearing":13733,"Ġringing":13734,"Ġprivile":13735,"Ġgraven":13736,"Ġmeasures":13737,"Ġcrucial":13738,"Ġcruelty":13739,"riggs":13740,"Ġgripped":13741,"ĠTerror":13742,"Ġprovide":13743,"Ġlady":13744,"Ġdeliberation":13745,"Ġhumble":13746,"Ġcobbl":13747,"purpose":13748,"Ġfavourable":13749,"Ġmelody":13750,"special":13751,"Ġcurrents":13752,"ĠTomb":13753,"Ġovertones":13754,"Ġestabl":13755,"whispering":13756,"Ġmossy":13757,"Ġenerg":13758,"squimau":13759,"roofs":13760,"ĠPlace":13761,"Ġcurtained":13762,"concerned":13763,"concerning":13764,"Ġkeenest":13765,"Ġabsorb":13766,"Ġparalysis":13767,"sensation":13768,"solitary":13769,"Ġinstrument":13770,"Ġravines":13771,"Ġunwonted":13772,"Ġleathery":13773,"Ġattendants":13774,"Ġinvoluntary":13775,"Ġresponses":13776,"Ġtraditional":13777,"Ġcitizen":13778,"ĠMcC":13779,"ĠMcTighe":13780,"Ġintrusion":13781,"moments":13782,"Ġreckon":13783,"Ġimperative":13784,"Ġtransparent":13785,"Ġpredicted":13786,"Ġuncomfortably":13787,"ĠSabbath":13788,"Ġscraping":13789,"Ġprecipitated":13790,"Ġattribute":13791,"Ġattributed":13792,"Ġabsurdly":13793,"Ġengulfing":13794,"temple":13795,"Â°,":13796,"Ġascending":13797,"Ġsplash":13798,"Ġoccurrence":13799,"ĠShape":13800,"Ġpoliceman":13801,"familiarity":13802,"Ġcamel":13803,"Ġinkwell":13804,"iggers":13805,"Ġperplexing":13806,"Ġperplexity":13807,"galactic":13808,"Ġsheds":13809,"Ġthreatening":13810,"waiting":13811,"Ġrambles":13812,"Ġtranslated":13813,"Ġarchitectural":13814,"possessed":13815,"Ġpageant":13816,"Ġnethermost":13817,"ĠSlott":13818,"Ġwritings":13819,"Ġwrithed":13820,"Ġcompanionship":13821,"similar":13822,"Ġwidth":13823,"castle":13824,"Ġmutil":13825,"Ġgibbous":13826,"Ġverdure":13827,"ĠHarvard":13828,"Ġreticent":13829,"committ":13830,"Ġcomparison":13831,"Ġcolleague":13832,"fireplace":13833,"summer":13834,"witness":13835,"Ġrendered":13836,"Ġrestraint":13837,"advanced":13838,"Ġunaccountably":13839,"ĠChaos":13840,"Ġvibration":13841,"Ġrifts":13842,"glimpse":13843,"Ġshowman":13844,"ĠDobbs":13845,"Ġpreparations":13846,"Ġloneliness":13847,"Ġshells":13848,"Ammi":13849,"breathing":13850,"police":13851,"archae":13852,"ĠEsq":13853,"beautiful":13854,"Ġfavourite":13855,"Ġbubbling":13856,"Ġachieve":13857,"uncann":13858,"ĠMaine":13859,"Ġenjoyed":13860,"sculptured":13861,"profession":13862,"tradition":13863,"Ġfortunately":13864,"papers":13865,"siders":13866,"Ġticket":13867,"Ġbondage":13868,"Ġculminating":13869,"Ġbitterly":13870,"Ġprotective":13871,"Ġfainter":13872,"Ġcherish":13873,"Ġdarting":13874,"Ġabundance":13875,"shrieked":13876,"Ġprinciples":13877,"Ġdiligently":13878,"modern":13879,"Ġseventy":13880,"abysses":13881,"disturbing":13882,"Ġstimulus":13883,"University":13884,"drawing":13885,"Ġobstacles":13886,"Ġslacken":13887,"Ġharmony":13888,"Ġmemorable":13889,"Neill":13890,"sacrif":13891,"Ġastron":13892,"Ġpublished":13893,"Ġapproximately":13894,"sleeping":13895,"tightly":13896,"ĠTyper":13897,"Ġashore":13898,"Ġlibraries":13899,"corridors":13900,"Ġgalaxy":13901,"Ġwarehouses":13902,"sellius":13903,"Ġyellowed":13904,"ĠMercy":13905,"phosphorescent":13906,"Ġtriumphant":13907,"Ġcoincidence":13908,"Ġinterminable":13909,"Ġvolcanic":13910,"Ġrefinery":13911,"Ġsterile":13912,"Ġstorage":13913,"Ġanchored":13914,"Ġspatial":13915,"Ġexultation":13916,"Ġprobability":13917,"Ġdiscussion":13918,"Ġrubbery":13919,"Island":13920,"southward":13921,"Ġantediluvian":13922,"Ġspasmod":13923,"apidated":13924,"tebrate":13925,"Ġdwarfed":13926,"Ġmornin":13927,"Ġfertile":13928,"Ġfossil":13929,"ĠWichita":13930,"Ġprovocative":13931,"Ġinquisitive":13932,"Ġgalleon":13933,"Ġtrolley":13934,"Ġhinges":13935,"Ġunendurable":13936,"Ġunspeakable":13937,"ĠMichel":13938,"Ġalbino":13939,"ĠBaptist":13940,"Ġdisconcerting":13941,"Ġadorned":13942,"ylvania":13943,"Ġunchanged":13944,"Ġpetrification":13945,"uspicion":13946,"Ġfoliage":13947,"ĠSleght":13948,"Ġcongreg":13949,"ĠLieut":13950,"Ġacknowledged":13951,"Cambrian":13952,"Gazette":13953,"Tegoth":13954,"Ġtissues":13955,"Ġsemblance":13956,"Ġlivestock":13957,"ĠGizeh":13958,"ĠRuello":13959,"Ġirresistibly":13960,"Ad":13961,"Around":13962,"Afric":13963,"Azathoth":13964,"EY":13965,"Gawd":13966,"Jour":13967,"Kad":13968,"Mrs":13969,"Pr":13970,"Pawtuxet":13971,"Qu":13972,"Rec":13973,"Sh":13974,"Sha":13975,"Sop":13976,"Ste":13977,"Ts":13978,"Tem":13979,"Toward":13980,"VII":13981,"While":13982,"Walker":13983,"York":13984,"_)":13985,
[...]
